#version: 0.2 - Trained by `huggingface/tokenizers`
i n
Ġ s
e r
Ġ a
Ġ t
Ġ c
o n
Ġ p
e s
Ġ b
a n
o r
Ġ m
a r
Ġ f
e n
a l
Ġ d
a t
r e
Ġ w
Ġ h
i t
Ġ l
i c
i s
Ġ g
in g
o m
o u
Ġ n
e l
h e
a s
Ġ o
Ġ r
Ġ in
l e
e d
i l
o l
e t
i on
o t
Ġt he
a m
Ġa n
a c
o s
Ġ v
a d
Ġ k
u s
Ġs t
u r
Ġ e
Ġo f
en t
i d
u n
Ġ re
Ġ 1
c h
o w
i g
a g
i m
i r
Ġt o
Ġ 2
t er
a p
Ġ j
Ġan d
Ġf or
Ġ "
Ġp r
a y
Ġ on
e w
o d
i v
Ġ y
c t
Ġc h
u m
es t
Ġd e
an d
er s
i a
u l
o p
Ġ &
Ġs h
e m
Ġt r
u t
Ġa r
o g
at ion
i p
c om
o c
a b
al l
in e
a k
ar t
es s
o v
Ġ2 0
ou t
' s
is t
q u
u b
s t
Ġn ew
i f
Ġa l
Ġs p
t s
a v
Ġt h
Ġf r
i e
Ġp h
c e
t h
Ġb y
ar d
ou r
o k
il l
u p
it h
ac k
ig h
a in
Ġb r
i k
Ġb l
an t
Ġb e
Ġc l
Ġc om
Ġa t
ou n
Ġ 3
Ġc on
Ġs e
i es
Ġw ith
Ġw h
t r
e ct
Ġp l
Ġ un
i b
at e
id e
i an
a z
Ġl e
Ġb o
Ġg r
ag e
it y
el l
Ġa m
0 0
Ġf l
o b
u re
an g
Ġ is
Ġ en
re e
Ġph ot
Ġd r
u d
ic k
Ġe x
as t
Ġ im
Ġar t
p l
or t
iv e
s e
ow n
oc k
o od
al e
or e
en d
Ġ 4
i al
Ġm ar
Ġc ol
Ġ z
ic e
g e
Ġs c
Ġ qu
Ġb u
Ġc ar
Ġc r
Ġ 5
Ġt e
a w
Ġh e
i z
a il
is h
l ine
Ġnew s
v er
Ġw or
as s
a h
Ġ20 2
Ġt w
Ġa s
an s
ig n
i o
Ġ or
igh t
ac h
a f
e y
Ġ el
v i
in t
os t
on g
l d
Ġin d
Ġ i
Ġf ree
p r
Ġon line
Ġd es
u c
Ġa d
u e
in d
l y
e e
Ġc o
Ġn e
at h
o ad
Ġ20 1
it e
Ġ1 9
m ent
Ġfr om
Ġp ar
i re
ub e
er t
Ġm e
us t
Ġy out
Ġa p
ar y
om e
u g
Ġ us
as h
Ġyout ube
e b
Ġa b
Ġa c
Ġ 6
en s
r o
r y
a i
it ter
o f
Ġm an
on e
vi ew
Ġl a
ic t
Ġof f
or d
og r
Ġg u
u ct
ab le
Ġ 9
ac e
oun d
Ġ it
ap h
y s
on d
ic s
ac t
Ġw all
Ġd own
e ar
Ġ202 1
Ġ x
Ġr es
Ġtw itter
k s
n g
Ġ 7
Ġ up
ing s
am p
i le
ak e
ol d
l and
Ġd is
m an
ar e
b er
et s
Ġm us
Ġc an
or s
Ġb est
er y
t e
u k
e p
c l
a ir
ic h
Ġ1 0
ou s
or y
in a
Ġs er
f f
ic al
o ol
Ġw at
ion s
Ġs ale
Ġbu y
Ġcom p
Ġphot os
Ġh ow
Ġbo ok
Ġs ch
on s
Ġr o
Ġs up
Ġ ed
il d
er n
Ġg l
Ġ 8
r a
e c
l oad
Ġre view
l es
t on
Ġg re
ul t
Ġp re
ag es
Ġ out
Ġh ot
o ok
Ġo p
Ġm od
Ġt im
Ġdes ign
Ġd o
Ġdown load
Ġ" ,
Ġe m
Ġin ter
Ġp ng
Ġd i
Ġp os
ot h
am e
Ġal l
Ġam az
Ġs k
Ġh er
Ġh ome
Ġp art
i er
ap er
Ġy ou
Ġs w
Ġre d
i x
ou se
g r
ad e
an ce
Ġm ed
en ce
Ġcom m
s h
ogr aph
Ġb ar
as e
oun t
Ġamaz on
Ġm y
Ġp er
an c
Ġre c
ic a
at t
Ġst r
Ġc he
Ġ @
al s
Ġto p
Ġm on
Ġa f
is s
us tr
Ġcol le
Ġy our
Ġbl ack
or n
v e
p ort
Ġw e
an k
ow er
Ġj o
it ion
ur es
Ġtr ans
c o
Ġs y
Ġc ent
Ġs m
Ġp ol
p er
ent s
Ġm in
or m
Ġwall p
Ġv ide
el s
a j
ay s
at ed
Ġd el
Ġde c
if e
Ġwor ld
Ġ *
Ġ 0
Ġar ch
ter s
Ġm ag
a u
Ġsh op
d er
Ġh igh
r i
os s
d ay
Ġa ut
n e
Ġim ages
ol l
ol og
Ġc re
ation al
Ġn o
iv ers
g h
Ġ1 2
b o
p h
or k
Ġpr od
Ġa g
ur n
at es
ul l
Ġp ict
Ġm ov
p t
b le
in s
Ġen g
Ġa re
Ġm en
ation s
Ġa ct
or ts
Ġwh at
Ġe v
ir t
Ġp e
an n
Ġw al
Ġphot o
Ġsch ool
Ġb ack
u al
Ġw om
Ġch ar
le y
in k
i um
en c
Ġw ar
av e
Ġst ar
Ġk n
Ġm em
Ġm et
Ġn ot
um b
ap p
ar k
Ġst ud
ov e
a x
pr ess
Ġw ik
er e
un g
is e
i el
ik e
t ing
Ġa ir
o ot
am es
Ġst ock
it s
Ġs l
2 0
Ġg o
an a
Ġch r
Ġ $
en n
le t
Ġbl og
Ġf am
Ġh ouse
Ġp at
Ġb ir
Ġin f
os e
Ġd ay
Ġprod uct
a ur
Ġac c
Ġmus ic
Ġpr int
un d
Ġin st
Ġan im
Ġst e
Ġ u
Ġs et
Ġin s
qu e
Ġm ap
Ġpr o
ov er
Ġl og
Ġm at
Ġv i
em ent
y l
Ġab out
on t
Ġre al
il le
5 0
r ic
m er
Ġst re
Ġc ity
en g
c k
Ġs al
1 0
p ar
Ġcl ip
Ġpl ay
ic es
Ġh and
ot t
p le
Ġwh ite
d ing
Ġcolle ct
Ġs ur
in es
Ġb us
ar i
Ġr est
Ġf ir
Ġ1 8
it ch
Ġc al
Ġb re
Ġg en
e g
out h
a ut
o on
Ġvide o
iv es
it al
Ġb as
il y
ub l
Ġwallp aper
Ġn or
Ġreview s
Ġmar k
p s
ar m
Ġcl ass
Ġh ist
Ġhot el
Ġw ed
Ġan t
Ġs u
Ġpar k
Ġind ia
c r
Ġm as
an e
Ġ es
h a
at s
Ġphot ograph
n et
Ġth is
Ġw ill
Ġf e
Ġon e
Ġp age
it t
Ġo ver
Ġam er
ed ia
Ġc ap
Ġs ol
Ġpr ice
Ġc ard
Ġbook s
Ġn at
Ġun ivers
Ġe b
o y
Ġs il
Ġp ain
Ġtr ip
Ġf il
Ġwat er
Ġel ect
Ġc or
Ġp o
Ġv al
y le
Ġdis c
Ġ est
Ġh ar
h n
b all
Ġ %
iv er
Ġtr av
ad a
ir l
Ġqu ot
Ġl ife
Ġs oc
Ġy ear
v el
Ġ202 0
Ġf in
Ġs he
un n
Ġg e
v is
Ġb ab
Ġf ood
Ġw r
Ġwom en
Ġm ot
id s
Ġt our
Ġn et
olog y
ar a
Ġcon t
Ġ1 1
at a
Ġsp orts
Ġth at
b r
Ġfir st
Ġ et
in o
Ġb i
Ġa v
Ġg old
t y
Ġw in
Ġaf ter
Ġ ide
er m
ou gh
at or
Ġch ina
er a
y a
Ġs outh
o or
Ġas s
Ġs n
o o
Ġbl ue
s on
uc k
d r
Ġh om
Ġt em
Ġv is
ar n
ur y
us h
ath er
Ġser v
Ġh ol
Ġtim es
Ġc at
ip p
it ed
7 8
Ġwed ding
or g
k a
ut e
Ġs ing
Ġre g
ail y
Ġm ore
Ġrest aur
Ġwat ch
Ġ1 5
Ġ >
Ġo ld
Ġ ic
Ġp ost
is m
Ġl ist
Ġle g
r on
Ġp a
d s
Ġse c
Ġm il
Ġs ign
Ġh d
n a
Ġcol or
Ġg ard
Ġsh ow
j ect
or ies
in ess
al th
es h
Ġ ir
am a
ur al
Ġg irl
Ġm al
Ġs ong
ang e
es e
en e
op e
ter n
Ġl ib
at ing
Ġs im
Ġb ed
Ġ20 0
Ġp ort
f er
Ġc el
Ġh el
Ġw ood
Ġl ove
ic an
Ġp et
Ġs un
us s
Ġim age
Ġfam ily
Ġtrav el
Ġpr es
Ġan g
er c
Ġo b
Ġa w
Ġwor k
Ġh y
Ġpr op
Ġchr ist
Ġt re
Ġg ame
Ġd ig
Ġte ch
Ġb ut
Ġ1 00
Ġpr in
Ġlog o
Ġ ill
Ġgu ide
Ġf oot
Ġquot es
Ġd aily
af t
Ġ ent
y r
Ġl ight
Ġsh irt
Ġs an
ip s
Ġgre en
Ġre m
Ġt v
Ġpict ures
st r
Ġc am
Ġp in
ee k
Ġl at
Ġ1 4
Ġc a
u x
Ġ1 6
Ġfl ick
Ġdec or
m e
Ġm a
Ġnor th
y n
c a
an ts
Ġl and
1 2
ou p
if t
Ġm o
Ġb ig
Ġar m
Ġe p
t o
Ġflick r
s c
i que
Ġ ets
Ġ id
er g
Ġd et
Ġk h
i ent
Ġbe aut
Ġan n
Ġg all
Ġsp ec
Ġets y
our n
all y
Ġs o
Ġbus iness
Ġex pl
Ġb el
Ġc le
eb r
Ġv ect
Ġe ver
Ġbab y
Ġp ower
o es
m a
Ġc amp
Ġp ers
b y
od e
ou ld
he d
r am
Ġl ong
Ġ q
Ġv int
le d
Ġv ol
er al
e en
at ive
Ġp op
Ġe ur
Ġdr aw
er r
Ġr ob
Ġg et
Ġhe alth
Ġv s
Ġide as
if ic
Ġs a
Ġal b
Ġp ack
Ġsup er
ubl ic
Ġ1 3
ion al
f l
Ġrestaur ant
j a
Ġeb ay
iel d
ur g
Ġf ac
Ġvint age
Ġpr of
Ġ201 9
Ġp s
t a
Ġr ad
Ġunivers ity
ib le
Ġre l
l er
Ġj ust
1 1
Ġdr ess
Ġto ys
Ġtim e
h am
Ġwh o
Ġclip art
as on
y c
art ment
igh ts
x t
w ood
Ġr oad
Ġj ew
Ġf ash
i or
Ġf ull
ic o
Ġro y
Ġs el
Ġsp r
Ġhe ad
Ġc ur
Ġp al
on es
Ġg ood
Ġc as
n er
Ġmag az
Ġbe ach
Ġre p
an y
ap an
iz e
Ġp ic
Ġin c
Ġjo hn
i ence
Ġc art
Ġw est
l ing
i ed
6 0
Ġb et
am s
Ġmov ie
i i
ro om
Ġfash ion
Ġg ames
Ġbir th
Ġl ive
Ġre t
Ġacc ess
v ille
Ġproduct s
Ġd a
ap e
par ent
Ġn ational
Ġb al
Ġh is
o x
3 0
Ġbu ild
Ġr ent
Ġre ad
Ġgard en
in al
Ġm ake
Ġcon tr
Ġh air
Ġmod el
im e
8 0
c es
Ġl oc
Ġr ock
Ġt ur
Ġj ourn
Ġbo x
iv ing
ot e
ch es
uct ion
Ġc ust
Ġtrans parent
or a
Ġ3 0
p e
ul ar
Ġd u
h i
Ġc oun
Ġmark et
Ġcomm un
Ġhist ory
st em
le x
Ġs um
Ġc ount
Ġl ook
Ġst ore
on y
Ġm ak
Ġop en
en a
Ġmagaz ine
gr ound
Ġinter n
Ġm ount
Ġh app
4 0
Ġw w
e k
Ġj apan
Ġm c
od y
Ġ1 7
z a
Ġser ies
Ġn ow
at er
ar s
Ġex p
i et
Ġp an
Ġper f
Ġch ild
v ent
Ġcust om
Ġm ay
Ġt umb
of t
ap ers
Ġth r
Ġfil m
Ġk ids
Ġd on
vis or
Ġpro ject
ot s
l ess
d e
l a
w ay
Ġd an
Ġst yle
Ġ our
9 9
Ġde f
m art
Ġf un
Ġp or
n ey
Ġ uk
Ġcent er
ad o
Ġcl oth
Ġto ol
Ġsy stem
ard s
um p
Ġl ar
Ġsup pl
Ġe c
am b
Ġc ast
Ġm id
' t
Ġw eek
Ġpict ure
u z
Ġb ag
Ġstre et
Ġst ate
Ġill ustr
Ġf ish
un e
Ġk ing
Ġt al
Ġdig ital
Ġf ire
Ġ2 5
it ies
Ġd og
Ġy ork
Ġs ub
Ġroy al
Ġd ist
Ġ2 4
Ġf ig
ad visor
Ġgall ery
an i
Ġk r
Ġkn ow
tr a
Ġamer ican
Ġw as
Ġarch ives
Ġa ustr
Ġde p
Ġc our
Ġm ad
Ġtrip advisor
Ġ5 0
id a
Ġpos ts
Ġv ill
Ġoff ic
Ġm ich
ur a
Ġap p
Ġst ick
Ġn ov
Ġphotograph y
Ġh ard
it a
Ġf re
Ġind ian
Ġpos ter
w ork
Ġfor um
u f
um e
r al
Ġl et
k i
Ġph il
Ġh as
Ġor ig
Ġfor m
Ġt el
Ġgre at
Ġp aper
a o
l ish
ow s
Ġh um
Ġcel ebr
Ġbirth day
op h
as y
Ġcl ub
Ġw eb
1 9
et h
Ġcar e
Ġm ult
Ġj ack
x press
Ġl o
1 5
u it
Ġin v
Ġfoot ball
Ġpr ices
i j
Ġw ind
Ġt able
Ġup d
Ġt y
Ġj e
Ġf ile
Ġvect or
end s
er o
Ġwik i
Ġc ov
Ġanim e
in i
g an
Ġ er
Ġ201 8
Ġlib r
2 4
Ġm iss
Ġtr ain
Ġwal mart
e v
id ge
Ġg er
Ġr om
af f
Ġf an
Ġcon s
Ġte am
Ġl os
Ġoff ice
f ul
Ġpers on
Ġm ach
ip e
Ġal ie
Ġwh y
Ġtech n
Ġc ost
Ġalie xpress
id er
1 6
m m
Ġst at
Ġa ud
Ġout d
Ġl aw
Ġis land
Ġtw o
et te
Ġap artment
Ġeng lish
c he
Ġh ave
Ġgr oup
1 4
p g
ou d
Ġcount y
Ġto y
Ġintern ational
Ġvi ew
n ess
Ġed ition
Ġ9 78
m as
Ġpl an
ar ch
ub ble
g o
u ff
Ġm ob
Ġat t
Ġst and
Ġh all
iv al
l r
Ġl ab
7 0
Ġbr and
Ġd av
Ġ ur
al y
1 8
l s
Ġe y
k y
Ġ ip
Ġgl ob
Ġcollect ion
op le
r en
Ġfl or
ail s
Ġk ey
Ġp ur
Ġt om
Ġne ed
2 5
Ġaustr al
Ġre f
Ġpr ess
g a
u a
Ġm ost
al a
Ġmod ern
f ord
Ġsh oes
Ġk itch
Ġse ason
Ġpart y
1 3
00 0
th er
Ġmin i
Ġle ad
z e
i en
Ġaccess ories
Ġh or
Ġs on
ag ram
ad em
Ġun ited
Ġro om
em ber
Ġjew el
Ġjourn al
Ġback ground
Ġn um
Ġst ep
Ġk it
Ġw ay
Ġhom es
p ing
Ġm p
Ġm ic
Ġb en
Ġm ill
Ġc over
Ġm ade
Ġhe art
Ġm ac
ire ct
oth er
Ġn ight
Ġwallp apers
Ġp d
id ent
Ġsp e
Ġl ow
Ġe qu
an o
Ġpr ot
Ġgr and
Ġb h
cl ick
ut ion
Ġcolle ge
Ġs am
Ġpe ople
b e
Ġb all
Ġgl ass
Ġn a
w are
Ġd in
b a
Ġus a
Ġun der
Ġic on
Ġmus e
Ġd ur
Ġlat est
Ġb and
Ġde m
l in
Ġever y
Ġprop ert
Ġpic click
Ġpre m
Ġkitch en
ag o
ol f
Ġh o
is on
Ġtr ad
m s
Ġv e
pl ay
ot a
u es
p or
Ġne ar
Ġrec ord
Ġche ap
Ġo w
Ġind ustr
Ġl ine
Ġt att
Ġt est
Ġp ublic
Ġpr om
Ġp ot
Ġsw e
Ġs qu
Ġvide os
c i
Ġh al
el y
Ġhapp y
Ġf urn
ist s
Ġen d
Ġle arn
on a
Ġsil ver
Ġd ou
Ġc ase
Ġred b
Ġf ind
Ġm er
Ġb er
al ity
Ġpr ogr
Ġc y
Ġm u
b s
Ġpart s
Ġm ir
Ġtumb lr
Ġb at
Ġlibr ary
re d
Ġv in
it ect
Ġsp ot
er v
i am
Ġg ift
Ġjewel ry
Ġg ar
Ġd irect
al d
Ġv an
Ġpar a
Ġe ar
Ġcommun ity
Ġpl ant
Ġo l
ing ton
Ġspec ial
Ġm or
Ġredb ubble
Ġm art
Ġs and
Ġl as
Ġre v
Ġc ut
u el
Ġfr i
g er
i y
ond on
Ġw ild
Ġ il
if y
Ġto day
Ġk ar
t op
Ġmot or
ol a
Ġins p
ew s
h o
Ġsoc ial
b l
Ġpain ting
Ġhot els
Ġb ay
Ġf arm
Ġde vi
1 7
re ad
Ġs ound
at ure
re en
Ġalb um
w or
Ġs le
Ġl im
if f
Ġste el
Ġchar ac
os p
Ġf all
Ġbre ak
Ġre port
er ing
unn y
Ġs af
Ġus ed
i qu
Ġph one
Ġl ike
c er
h an
Ġ> >
Ġmuse um
Ġsm all
Ġb ath
ur s
Ġ2 2
ur ch
Ġac adem
Ġaut om
Ġmet al
Ġc ult
Ġl ake
Ġs ize
it ure
9 0
Ġv er
Ġmed ia
Ġvis it
Ġf ound
in n
Ġd en
Ġg al
Ġth an
Ġde v
Ġb ul
Ġl ondon
Ġc all
Ġm el
y m
im edia
Ġwor ks
Ġst ory
Ġb ody
Ġ4 0
enc y
at ic
Ġcr oss
Ġsc ience
Ġc os
Ġsp ort
ak es
Ġs ar
ul a
Ġar r
ag on
Ġinf orm
Ġarch itect
f orm
re t
Ġgr aph
Ġd om
ant art
un ch
Ġr iver
Ġest ate
i ous
Ġc ab
Ġl ot
Ġqu e
if ul
Ġor gan
ograph y
Ġed uc
ig er
Ġeng ine
Ġb ad
ot o
Ġoffic ial
Ġbe h
Ġbo ard
Ġman ag
Ġg od
Ġv ac
Ġpain t
bo ard
et t
Ġo ther
Ġnum ber
Ġc ir
Ġw he
c s
Ġh a
Ġorig inal
Ġger man
ain s
Ġd ie
Ġ ut
Ġt own
Ġs oft
g g
Ġcon c
Ġdevi antart
Ġfurn iture
il ity
Ġm ax
Ġf est
Ġe ast
Ġr a
Ġ201 7
Ġcomm ons
Ġcloth ing
f t
iz ed
is ter
Ġc up
Ġl iving
Ġa k
p o
Ġv eg
ic le
Ġstre am
Ġh on
Ġbeaut iful
Ġv ir
c ess
Ġco ok
c ast
at o
7 5
Ġbr it
om b
i as
Ġr os
Ġcomp any
Ġn y
vel op
Ġang el
ill s
3 5
Ġb an
i os
Ġp ie
Ġo il
c el
u ary
Ġwik imedia
Ġmob ile
Ġa ge
Ġp ink
Ġexpl ore
ear ch
Ġt ar
6 5
Ġch urch
Ġs old
ell a
Ġglob al
Ġp od
Ġl ux
Ġc op
art h
Ġwal k
Ġw el
Ġk e
a el
Ġf ab
Ġl itt
Ġtem pl
Ġin to
id es
b ack
en ch
Ġtr ail
Ġdist r
Ġclass ic
Ġdraw ing
Ġs at
Ġl in
Ġs v
Ġserv ice
2 2
ain t
Ġn av
ug h
am m
Ġww w
Ġb ol
Ġsum mer
Ġin t
Ġth ings
Ġg h
Ġs ant
f ield
Ġm ur
Ġnat ural
Ġinst agram
Ġar ts
Ġ ul
c c
o z
or es
ast ic
Ġpd f
ie f
Ġcon d
Ġt or
Ġj ul
Ġd re
Ġp ass
Ġhist or
Ġf ace
Ġv ict
Ġg i
Ġyear s
Ġs em
att le
Ġse arch
ce pt
Ġch amp
cr aft
Ġex press
Ġres earch
Ġun d
v en
Ġs en
Ġcov id
Ġl ad
ac es
id ay
Ġe ff
Ġtool s
on om
Ġse e
Ġre le
Ġchrist mas
Ġag ain
e x
he t
Ġ2 1
h ouse
Ġcart oon
Ġthe ir
Ġcon n
Ġfr anc
Ġa z
us e
Ġst art
Ġlitt le
Ġde velop
Ġamer ica
Ġt ree
Ġsh ar
s w
Ġpr ov
Ġm om
Ġr uss
9 5
Ġeur ope
Ġloc al
Ġme et
Ġw ash
tr y
Ġf ut
Ġbr own
Ġt er
and om
Ġn ame
ag ue
Ġm ah
at i
Ġh ind
Ġmach ine
Ġ6 0
h ip
or ial
Ġmen u
Ġn on
k e
Ġwh en
d a
Ġher e
Ġf it
Ġelect ron
Ġa th
2 1
Ġit s
Ġ ist
ro id
ect ion
Ġb ur
Ġbuild ing
Ġtr ib
Ġr ich
ik a
Ġ if
r es
ol es
g et
a e
Ġus e
it es
Ġco ff
Ġl es
Ġf em
Ġme x
com e
Ġaustral ia
al i
Ġep is
Ġte ach
ell ow
w e
Ġmov ies
b c
l i
k o
Ġw a
as ter
Ġbo y
Ġt um
Ġc er
Ġte xt
Ġp en
Ġf a
end er
k ey
um ent
Ġd ark
Ġv ers
Ġg un
Ġo h
Ġb ill
Ġ201 6
u le
Ġfl ower
v as
Ġl ou
Ġserv ices
3 3
Ġcar s
Ġqu ality
f r
Ġbeaut y
Ġprin ts
ac ion
ak er
Ġd er
Ġsp ace
Ġsh ould
d en
Ġchild ren
Ġr ac
Ġne ck
Ġt ips
et er
j i
b ook
Ġr ing
Ġo s
4 5
k et
Ġl if
Ġd oc
Ġk a
Ġin n
j pg
Ġsh ort
Ġsing le
l o
Ġex per
Ġcr y
Ġmon t
r os
Ġr ound
Ġen c
Ġc u
Ġpropert y
Ġsc r
Ġh un
ow ers
Ġact ion
Ġch ic
Ġcomp u
Ġdi y
Ġr oll
Ġf unny
ay a
Ġa ff
Ġf ar
Ġb ud
Ġsk y
Ġart ist
Ġdesign s
Ġrad io
Ġm ix
at ch
Ġc and
Ġl ast
ac y
it ar
ee p
Ġgirl s
Ġl ed
Ġte x
yc le
Ġelect ric
Ġt it
Ġact iv
sh ip
Ġcol l
ok e
Ġspr ing
Ġhum an
Ġd est
v ers
Ġhel p
8 8
b urg
Ġf act
Ġstud io
Ġdav id
Ġmem e
Ġo z
Ġcoff ee
d le
Ġe asy
Ġpa ul
Ġr am
t d
Ġim p
Ġpr im
g y
Ġp ast
Ġo k
Ġlist en
Ġg ov
ab a
it z
Ġrec ipe
b or
iet y
m y
Ġh u
Ġd iv
Ġco ol
Ġb ow
Ġtatt oo
Ġinform ation
Ġ3 5
Ġk ind
it er
6 4
Ġp ad
Ġc ute
Ġh ous
Ġo ct
b an
Ġs ays
ou l
Ġ2 3
i h
m et
ter y
Ġme an
Ġh old
Ġap pl
Ġh ob
ud e
Ġlar ge
is c
Ġa lex
Ġdes k
Ġfr ont
Ġo d
Ġv en
c ol
Ġg if
Ġs us
Ġf air
uf act
op s
Ġt ake
Ġd ata
Ġc ell
Ġf ine
Ġt am
im ate
Ġwom an
n es
Ġbed room
Ġman ufact
Ġi i
Ġm erc
Ġt err
n am
Ġcontr ol
h er
Ġcard s
un k
Ġaut h
Ġw ell
ent al
Ġcon f
Ġg am
m ark
Ġth ree
az z
Ġ ess
Ġd if
Ġse a
v a
m p
Ġsel f
Ġb ang
Ġex t
o om
r ica
ly wood
Ġcir c
Ġs ay
Ġs av
Ġroyal ty
Ġst ation
Ġmem es
Ġapartment s
Ġs in
2 3
Ġo t
eb ook
Ġcan ada
and a
Ġm ass
he ad
Ġfr ench
Ġj an
2 8
Ġgu ard
Ġnat ure
ip t
Ġb ank
oc i
Ġj ob
Ġad v
Ġfig ure
en se
Ġst ates
Ġnet work
Ġpr oc
Ġl ov
Ġoutd oor
Ġcan vas
Ġr ose
ct ion
Ġv o
Ġ19 9
Ġpos ters
Ġy ellow
Ġcoun try
Ġt u
6 8
Ġc orn
ber g
em on
Ġes p
Ġl ang
z y
Ġv a
Ġt urn
Ġsec ond
Ġtr ack
Ġthr ough
Ġl l
Ġfr ance
Ġad vent
Ġc d
Ġde ath
Ġsup port
an ia
st on
ed s
Ġch o
Ġop t
Ġgen er
Ġepis ode
Ġsy n
Ġr ail
Ġdou ble
Ġpol ice
of f
Ġk o
m b
Ġdo es
Ġg as
Ġaut o
Ġ2 8
Ġfl ag
j o
Ġstud y
Ġd h
Ġl u
Ġprof ess
it ing
Ġcle an
Ġperson al
Ġwin ter
g ed
Ġj u
r or
d y
g u
Ġdis ney
Ġr en
Ġwh ere
Ġfl y
h one
Ġde ad
Ġmed ium
Ġch ap
Ġr ain
Ġfor t
Ġcharac ter
ill a
Ġf our
fer ence
i ers
Ġon ly
Ġle ague
Ġblog s
g in
Ġev ent
Ġfest ival
Ġs ome
Ġ om
Ġjapan ese
w a
ment s
Ġsk in
Ġtr uck
Ġanim al
Ġare a
Ġ201 5
Ġw ire
or ge
Ġshop ping
Ġm ls
p a
Ġp ak
p ng
Ġin ch
en ing
Ġ 00
ers ey
b on
pr o
Ġcent ral
Ġs ide
7 7
Ġeduc ation
and er
Ġf av
Ġd oll
Ġval ley
Ġg a
Ġh osp
Ġpl us
Ġmich ael
ib les
il a
Ġb ike
ep end
am ic
Ġmount ain
ir ts
Ġp c
Ġdur ing
om a
Ġwor th
Ġmanag ement
Ġm r
Ġad d
Ġit al
os h
Ġp ick
Ġf andom
Ġlux ury
Ġb on
Ġgr ow
Ġre pl
g ir
Ġmed ical
Ġsoc iety
i us
s et
Ġw es
Ġat l
Ġn am
im a
Ġillustr ation
Ġf ant
Ġle ather
Ġem b
Ġh am
f ore
6 6
im s
Ġdi am
iv ery
ert ain
ipp ing
Ġan al
Ġshe et
Ġequ ip
Ġass oci
Ġt ag
Ġb a
Ġr h
bo x
y cl
Ġy oun
Ġis s
Ġf ast
ang er
af e
ist an
Ġcent re
enc es
Ġh ood
Ġk l
Ġind epend
Ġj ames
Ġcon str
ul ts
Ġb ott
Ġst one
ian o
4 8
Ġmanufact ur
Ġr un
Ġde b
it o
Ġt ak
Ġs uc
Ġsong s
am i
Ġow n
o le
o e
Ġfin al
ir d
Ġn ar
Ġcal if
Ġc e
Ġthe y
Ġcl os
Ġj ersey
ob e
Ġa ug
it ary
Ġpo int
ines e
ut s
Ġre ve
el le
or ia
Ġas h
Ġ ice
Ġmas ter
Ġm ang
Ġinv est
Ġprof ile
Ġr ub
Ġbas ket
m ed
Ġbe fore
Ġcre am
n ews
m l
Ġs i
Ġdisc ount
j e
Ġs ite
ir a
Ġcalif orn
ip edia
Ġh ill
Ġsn ow
ip es
Ġth om
iz ation
Ġc ake
ou ch
c m
Ġpol it
Ġpar is
Ġan y
Ġl td
Ġtum gir
2 7
Ġsp ir
Ġdel ivery
Ġne xt
Ġpres ent
as es
Ġret urn
Ġm ail
Ġtrain ing
o ors
Ġm ust
Ġh aw
Ġpat tern
Ġspot ify
Ġch inese
Ġchic ago
Ġb ell
Ġtex as
6 3
Ġm os
an ch
Ġpl at
et y
Ġt m
Ġn h
t i
n y
Ġsm art
Ġr are
tr o
ers t
Ġ7 0
d om
Ġphil ipp
it or
Ġw ine
Ġec onom
Ġl ock
Ġm aj
Ġaf rica
Ġs om
Ġpl ace
Ġdr agon
m ing
Ġm ess
Ġupd ated
Ġch air
Ġp ok
Ġap ple
Ġcaliforn ia
is ion
Ġcollect ibles
Ġfam ous
Ġ2 7
if ied
Ġev ents
Ġ9 0
Ġgen eral
m ar
Ġus ing
Ġvin yl
er ial
Ġg olf
Ġqu est
ad es
Ġwor d
ist a
Ġde al
he m
Ġt a
Ġd id
Ġfl oor
Ġwik ipedia
Ġtechn ology
Ġj un
z z
Ġdr ive
Ġmon th
is ing
v ed
Ġp ix
g ar
Ġm i
Ġ19 8
it i
9 8
ian a
t or
Ġd ar
Ġeff ect
Ġch ick
Ġinst r
Ġs aint
Ġf ur
Ġa qu
re w
Ġen erg
Ġind ones
Ġbir d
Ġse x
as i
Ġdo or
Ġr ight
Ġip hone
Ġyoun g
Ġprogr am
s a
Ġa pr
Ġhe av
Ġp u
Ġb ak
Ġres p
Ġfri end
4 4
Ġim ag
ol ution
Ġe arth
Ġk ore
Ġbl ock
Ġstick er
n i
Ġmil itary
Ġcl a
Ġb or
w ing
in ation
ict ion
Ġg ot
Ġinst it
Ġtre at
Ġcult ure
Ġor der
Ġb io
Ġp as
Ġc in
ost on
3 8
ap s
Ġf und
Ġ2 6
w ell
Ġd am
Ġhol iday
r ow
Ġelectron ics
Ġinsp ir
h r
Ġl yr
Ġche ck
ing er
Ġspe ed
v al
Ġco ast
Ġsv g
ch an
un a
Ġequip ment
Ġand roid
Ġb attle
Ġagain st
Ġr s
al k
Ġ8 0
ree k
r ess
Ġent ertain
oc ol
av es
Ġdevelop ment
Ġmag ic
re l
Ġath let
Ġann oun
Ġc ot
ot ive
Ġr aj
il t
Ġfe at
ire d
Ġt an
Ġlearn ing
Ġconn ect
ant e
Ġres ort
Ġpl astic
2 6
ar io
l ight
Ġlou is
Ġant i
le te
Ġpr iv
y an
ep h
2 9
r op
t v
Ġsim ple
Ġindustr ial
Ġst ain
Ġ ib
Ġcre ative
ver t
Ġtel e
Ġor ange
Ġt ank
ob er
unn ing
h op
Ġhosp ital
Ġdre am
Ġs ab
Ġl ap
Ġarchitect ure
Ġpres ident
n ing
ys is
Ġes c
Ġdistr ict
Ġdet ails
our s
Ġh at
Ġun t
ind er
Ġfl at
Ġche m
Ġlet ter
ell o
w ard
em b
cl us
Ġit aly
Ġl uc
Ġvill age
Ġcom ics
Ġan c
Ġ201 4
Ġfor est
Ġgraph ic
em ents
Ġt erm
g es
Ġlyr ics
Ġwe ather
ian s
ob le
Ġ <
Ġin tr
c ent
Ġindones ia
Ġey e
un t
st e
Ġinter ior
Ġt s
Ġl ess
Ġbrit ish
ic les
or man
Ġad m
um in
Ġs ell
Ġdiam ond
Ġoutd oors
ent ial
Ġty pe
h u
Ġflor ida
Ġp ay
Ġfut ure
Ġve h
el e
Ġcour t
5 5
v d
Ġwh oles
Ġwar s
Ġz e
is es
Ġgov ern
ition al
Ġsh ipping
Ġc ou
Ġmed ic
il es
aw a
Ġst or
Ġland sc
Ġ2 9
c ar
Ġp ac
Ġprem ium
Ġt ut
Ġ iv
Ġf ox
Ġsc reen
Ġfor d
Ġr ay
Ġm ind
el a
u ch
Ġsuppl ies
Ġarm y
Ġr d
Ġch ange
Ġim pr
Ġd ance
Ġdesk top
Ġsqu are
ug g
w een
Ġthe m
Ġph ys
Ġp ed
Ġr ap
Ġmex ico
Ġist ock
Ġr od
v es
im b
ab les
el f
Ġw il
Ġf ot
Ġm d
Ġpr act
Ġf ans
Ġt x
our ce
Ġcom ic
Ġfem ale
7 3
tr act
Ġpie ce
Ġmar y
Ġde als
f or
Ġc afe
Ġm ain
Ġentertain ment
Ġa h
Ġm l
Ġh ab
Ġte a
Ġmak ing
Ġbar b
ian g
ad or
Ġl y
Ġir on
Ġinter view
Ġbas ed
s p
ak a
n d
Ġstud ent
p os
ik i
Ġde ep
Ġk at
Ġ5 00
Ġstud ents
Ġch ang
Ġbet ween
Ġr at
Ġtal k
Ġf ight
Ġcle ar
Ġcent ury
Ġindepend ent
Ġa uction
Ġk im
Ġgold en
Ġpor tra
Ġchamp ions
Ġbi ography
Ġgre y
Ġg em
ig r
Ġswe et
Ġcap t
Ġmat ch
Ġpl ants
4 3
Ġeng land
dr ess
Ġhor se
Ġsur v
Ġant ique
c on
il i
Ġwash ington
e ve
Ġw ear
Ġm att
Ġmas k
Ġwhe el
og le
Ġsh irts
Ġs r
Ġst ill
Ġperf ect
Ġcost ume
Ġautom otive
Ġmal ays
6 9
Ġp end
Ġm and
Ġgu itar
Ġm ys
oll ow
Ġth ere
Ġd ays
Ġins ide
Ġfr ank
Ġgif ts
ut ions
Ġ4 5
Ġfac ts
Ġm oon
Ġop er
Ġst ories
Ġfab ric
th ing
Ġth er
Ġm orn
Ġim m
Ġweb s
t own
o ch
ille d
Ġd c
b and
Ġco ach
Ġfish ing
Ġwes tern
ens ion
Ġf ive
Ġv ent
Ġm ine
Ġbr idge
ul ation
op edia
Ġal ib
ol k
Ġv ar
Ġc m
Ġch all
Ġh ub
Ġperf orman
Ġrob ert
er ry
Ġconstr uction
Ġk en
Ġpol y
6 7
Ġge org
em a
Ġenerg y
as a
Ġc ode
Ġneck l
Ġlim ited
cr ipt
ct or
Ġo x
est yle
ers on
Ġen v
Ġgerman y
Ġcry st
Ġg ear
Ġs ens
Ġt en
k in
Ġh ad
Ġa i
Ġhall ow
ov a
Ġt in
Ġn iger
i at
Ġp le
Ġmid dle
Ġcast le
Ġwatch es
Ġcont in
il s
g l
Ġf ield
Ġd ut
Ġh im
m on
Ġ ult
Ġmon ey
Ġmult i
Ġgo ogle
Ġforum s
Ġstand ard
Ġanal ysis
Ġalib aba
Ġv el
Ġstar s
Ġst op
ut h
Ġwh ich
Ġex c
iss ion
am in
is a
ur ity
Ġch ocol
m ov
b ies
et a
Ġp ool
Ġk al
Ġcomp lete
Ġw ife
Ġsal es
Ġar ound
Ġqu ora
Ġangel es
Ġb m
b ur
Ġaud io
Ġc oc
Ġhallow een
anc y
Ġa y
Ġr ug
m en
Ġgr ad
ic ation
Ġbasket ball
iv a
Ġth ese
h ib
l or
Ġfr esh
p y
Ġdif fer
4 9
Ġt ai
p x
Ġsec ret
h en
our ces
ag a
Ġshop ee
Ġw ant
Ġk ir
ak i
Ġsp l
Ġk ur
Ġmir ror
Ġm t
uz z
Ġmorn ing
Ġp ow
Ġqu een
Ġk id
Ġwholes ale
Ġbo at
Ġc iv
uct ions
Ġ um
cl oud
Ġbe ar
e f
Ġs ad
Ġp ul
Ġd un
Ġsh oot
ick s
Ġ201 3
w ar
Ġcl in
Ġf el
Ġt ot
ist ry
Ġp un
Ġse pt
n ers
Ġcar ol
Ġc ould
Ġaug ust
Ġcom b
Ġmalays ia
id o
Ġar ab
Ġfl owers
Ġre b
Ġbut ter
og a
Ġupd ate
Ġb ik
Ġs ent
y ch
Ġt on
ate g
Ġs ix
erc ial
Ġf le
s ter
ol i
w an
c ul
Ġproc ess
Ġaf ric
en es
Ġ3 2
d b
ug ar
7 9
Ġk ill
Ġbet ter
Ġt ick
Ġtrans form
d on
Ġcot ton
ond a
Ġarch ive
n o
Ġi re
Ġfor ce
Ġsm ith
Ġstain less
Ġhous es
Ġperforman ce
Ġo ak
is k
Ġv ari
Ġprofess ional
Ġfor mer
av a
Ġch ann
land s
Ġmap s
Ġsc ott
Ġp il
Ġsuppl y
Ġh op
g b
Ġt enn
Ġbo ys
is er
Ġsc ale
Ġb ord
Ġmean ing
Ġrele ase
y e
po int
Ġh en
Ġc od
Ġl amp
Ġad dress
Ġge orge
Ġhard ware
Ġprom ot
Ġr u
Ġchick en
it ive
Ġm s
a a
f its
Ġm it
Ġf ed
Ġbr ain
Ġin cl
Ġbe ing
ad i
Ġn g
Ġfound ation
ches ter
ber ry
Ġprem ier
Ġt ik
Ġob it
Ġo ce
Ġpet er
Ġd ies
Ġap par
r is
Ġchar l
Ġfr am
Ġrac ing
h ol
Ġp n
Ġf ix
Ġo ly
h ar
Ġm other
Ġbr id
Ġp iz
Ġh it
Ġthom as
Ġn j
Ġp ath
Ġh ou
Ġd ia
Ġmotor c
Ġav ail
Ġr out
Ġphilipp ines
Ġh ur
Ġr ot
f ri
ap ore
Ġmar ch
Ġsh are
Ġcar r
ig an
Ġp ap
Ġh ang
Ġwel come
ack s
Ġlif estyle
Ġmat erial
Ġ ing
Ġt ap
is hed
Ġk am
Ġire land
Ġstick ers
Ġim port
Ġcam era
Ġplay er
Ġtempl ate
Ġfant asy
Ġd j
az a
Ġpl aces
Ġcompu ter
Ġn c
Ġto d
Ġsystem s
Ġb ah
Ġtem ple
Ġacadem y
Ġhal f
Ġfri ends
Ġfr ame
Ġsur f
Ġcor on
Ġs id
Ġv irt
Ġcomm ercial
Ġm ens
Ġr ace
Ġam b
3 9
Ġhob bies
Ġmar ri
Ġsh ip
Ġj ud
Ġbo b
es ter
Ġoly mp
mov ies
Ġm un
Ġd ub
Ġy u
Ġb ase
Ġshow s
Ġh us
Ġfact ory
eb all
z er
Ġsing apore
Ġp and
p cs
3 2
Ġear ly
Ġchocol ate
Ġwor ds
art s
Ġlang u
Ġman ual
m i
Ġlad y
Ġpop ular
ig e
em s
Ġsant a
Ġatl ant
ay er
4 7
og ue
Ġh av
Ġres ults
Ġc it
Ġking dom
Ġvers ion
pl es
Ġl ip
Ġsaf ety
Ġact ress
Ġmar vel
Ġfranc is
Ġtrad itional
Ġillustr ations
Ġsle eve
Ġsuc cess
Ġpod cast
Ġdoc ument
Ġhind i
Ġp enn
Ġv ery
Ġp ut
Ġafric an
Ġheav y
Ġk y
Ġher o
st one
ab b
Ġex am
Ġanc ient
Ġwood en
ific ation
Ġn u
g ur
Ġd at
Ġpe ak
Ġauth or
Ġcy cl
at ors
Ġc ow
Ġc t
p op
Ġa st
Ġital ian
Ġal le
og s
Ġp el
Ġsec urity
Ġf t
Ġfl ip
Ġb urn
o i
Ġaw ards
Ġh an
Ġoct ober
ir on
Ġn in
Ġal t
Ġmart in
Ġinstit ute
l ife
Ġdis play
er d
Ġh ost
Ġvir gin
Ġpur ple
Ġstor age
ent o
Ġcr aft
Ġneckl ace
Ġle vel
Ġcos play
Ġbr on
b ury
Ġw ish
f a
k h
k er
s ide
Ġm ale
it ions
Ġvi et
wor ks
d es
Ġkh an
Ġsound cloud
Ġpat r
Ġtrail er
Ġrec ipes
Ġd ate
Ġrecord s
g est
Ġm ath
Ġchap ter
sh irt
Ġair port
Ġpriv ate
3 7
Ġguard ian
Ġob s
iqu es
Ġsol utions
Ġtr ump
Ġhe ight
Ġ201 2
l u
ir o
c an
Ġbl ood
clus ive
Ġproject s
com m
Ġj a
Ġwebs ite
Ġchrist ian
it age
Ġth ink
Ġn ut
or i
3 6
ar ia
Ġlandsc ape
Ġf o
Ġle e
r id
Ġj ac
Ġappar el
Ġpat ch
v o
olog ical
Ġm all
au x
ap y
ar o
Ġpok emon
Ġar g
ol ic
Ġr um
b re
ann er
Ġbe at
Ġbas eball
iz er
Ġtoy ota
Ġmet h
Ġur ban
w ays
op er
Ġanim als
Ġis l
Ġsw itch
Ġa x
el et
Ġcur r
Ġ7 5
Ġavail able
o h
Ġb ene
Ġre pr
Ġm ons
Ġbe g
ell er
Ġle ft
os a
3 4
Ġun ion
Ġdep artment
Ġportra it
Ġw ond
Ġcon cept
Ġcryst al
Ġcr u
Ġp ier
Ġa u
g ate
Ġ4 8
Ġjack et
Ġk eep
ast e
ch er
Ġobit uary
b our
Ġbe y
Ġcan cer
Ġem p
Ġengine ering
d i
Ġm ug
Ġgr am
Ġj ar
Ġwe ight
Ġr id
Ġdef in
Ġf ib
l ic
Ġassoci ation
Ġs ac
Ġsy mb
Ġbr oad
0 8
b ar
Ġp ep
Ġwill iam
f e
o j
h ou
st ation
Ġg ets
Ġb ot
Ġfin anc
n s
Ġstr uct
Ġp ump
al es
Ġ% ,
Ġbr ook
Ġcelebr ity
Ġst ad
Ġevery thing
Ġp ubl
Ġj une
m ond
r as
Ġste am
Ġsoc cer
Ġtreat ment
l l
Ġsh r
g p
al and
Ġsc ot
d own
b ow
Ġqu ick
ug u
Ġread y
Ġvill a
sh ire
pl oy
et ry
Ġ19 5
Ġab s
Ġty p
Ġnot es
et e
Ġn urs
Ġh ay
Ġf ollow
Ġpre d
Ġc able
Ġj im
Ġexper ience
Ġt ax
ed u
Ġdisc over
Ġj am
Ġleg end
an th
Ġf u
Ġs s
Ġcab in
Ġann ivers
Ġne ver
Ġbe er
Ġfor e
Ġp ear
Ġacadem ia
por ary
Ġp it
Ġdesign er
Ġpl ate
Ġin te
Ġse eds
Ġinter net
Ġsle ep
Ġcon gr
Ġintr od
Ġtour s
Ġl az
Ġ3 6
Ġphotograph er
Ġpak istan
Ġid ent
amp le
Ġfav or
ak ers
Ġsus p
ist r
c art
eng th
w ear
Ġdr y
Ġs of
Ġspir it
Ġher itage
Ġbeh ance
Ġadvent ure
Ġmarket ing
Ġjul y
Ġn ick
Ġa ve
Ġj os
Ġsign ed
at ory
Ġ ig
s en
' m
Ġaw ard
Ġsw im
Ġ3 8
ert o
Ġeb ook
Ġoce an
Ġn as
Ġf c
Ġp ill
ul es
Ġt ow
Ġ ell
Ġwind ows
Ġl ag
Ġher ald
s k
Ġt ay
Ġchann el
in h
Ġmill ion
Ġst ay
ist ic
Ġb oston
7 2
Ġj on
is ed
et ch
u ation
af ts
Ġprot ect
Ġtempl ates
Ġsoft ware
Ġbu ck
Ġla unch
Ġenc ycl
Ġc ert
Ġplan et
ah a
en ge
id ad
Ġan ton
Ġw ays
u ce
Ġcar ous
Ġindustr y
l ist
Ġas ia
ir us
ab ad
Ġun it
Ġst uff
Ġa gr
Ġf at
Ġsp an
uk e
Ġniger ia
Ġpl ans
Ġv ia
Ġre ce
Ġsc ar
6 2
Ġrep air
u y
Ġsur g
ann a
Ġf oto
Ġl ink
Ġmod els
Ġnov ember
Ġc ub
p ool
f c
as k
Ġsc ul
Ġchr on
het ic
Ġwith out
Ġc ad
Ġret ail
uc ks
u i
Ġcol d
re y
Ġun ique
ell y
t ok
Ġop era
en o
Ġ5 5
c ard
man n
Ġres id
Ġam ino
Ġsol id
Ġchr is
Ġg az
Ġcont em
Ġprin cess
Ġk on
Ġthe at
Ġje an
Ġreg ion
uk i
Ġbe en
Ġk om
Ġannivers ary
Ġal ph
Ġamaz ing
Ġgr ade
Ġn ag
Ġd al
p et
Ġt i
Ġd ol
Ġn ation
Ġcomm on
Ġl iv
ugh ter
Ġhood ie
Ġult imate
Ġsymb ol
Ġp ics
it ation
Ġcl ose
Ġeurope an
Ġgr ound
Ġcat al
Ġbl u
7 4
Ġgr an
Ġk ap
f it
Ġcont act
Ġab c
Ġin j
Ġleg o
m ade
ough t
in ts
Ġ3 00
h ood
Ġj i
od ge
c hed
Ġvirt ual
Ġz ero
Ġ3 1
m o
Ġre tro
et o
Ġst amp
ir es
Ġk i
Ġcloth es
Ġmake up
Ġathlet ics
s o
Ġtr ade
oc us
Ġj enn
ograph ic
p ad
Ġc n
Ġfr uit
Ġf i
Ġlangu age
Ġe as
al o
Ġf ill
Ġc ath
fri end
Ġmaj or
Ġv on
Ġp ages
Ġmedic ine
Ġtar get
Ġvi ol
Ġbl ank
Ġ ub
Ġb bc
Ġdress es
Ġw olf
Ġe gg
Ġ202 2
Ġpng wing
Ġs ir
Ġl i
Ġl an
Ġmic r
Ġelect r
Ġal umin
Ġapr il
Ġle af
ent e
Ġcre ate
in er
Ġcompu ters
ian ce
ur i
Ġw ins
Ġch ain
Ġincl ud
ock et
Ġr av
g i
Ġs ave
Ġy e
Ġhistor ic
y les
Ġscul pt
Ġd im
Ġschool s
Ġrom an
Ġprint able
z o
ed y
Ġps ych
c are
Ġorgan ic
Ġimp act
Ġl ights
Ġch a
es c
Ġcharac ters
Ġrent als
Ġla un
Ġnav y
Ġg el
l ights
Ġsign s
Ġr ank
Ġencycl opedia
Ġjo e
Ġiss ue
os c
Ġvac ation
Ġex hib
Ġbott le
Ġ3 3
Ġenv iron
Ġcarous ell
w ater
Ġdin ing
Ġdr op
ion e
Ġact or
Ġc s
Ġ1 50
Ġinf o
Ġd yn
Ġruss ian
Ġex clusive
Ġdiffer ent
Ġmar ine
Ġsouth ern
ra el
Ġbeh ind
ab il
Ġjob s
Ġche v
Ġsu it
Ġin k
Ġs or
4 2
Ġ0 1
Ġe at
Ġpiz za
Ġ ore
Ġfit ness
Ġor ch
Ġp ure
Ġquot e
ik ing
um n
en ue
Ġh ung
c il
Ġp up
Ġtr ue
Ġsc ient
o os
Ġdisc uss
l ad
Ġrich ard
Ġmu ch
g s
Ġt ab
Ġdr ink
Ġfl ash
Ġd vd
Ġst ra
ib b
Ġcare er
Ġpropert ies
Ġdan iel
Ġn ic
Ġpr oble
Ġf al
w r
Ġsal t
Ġsp ain
and s
ig a
Ġaustral ian
pl ace
Ġqu ar
Ġmine craft
Ġc ore
Ġcar l
r ia
Ġir ish
Ġn ik
aw n
Ġvect ors
Ġl iqu
Ġcre d
g on
Ġmak es
Ġst age
Ġmar c
ad ow
Ġinst all
um a
ad os
Ġan th
Ġmotorc ycle
g ing
Ġcour se
Ġh onda
Ġe ag
Ġl ic
Ġb le
Ġwork ing
Ġs it
oc r
se y
Ġm ut
Ġt ower
Ġtour ism
g en
Ġcomp et
Ġsh ot
ock ey
Ġb ac
Ġbol lywood
Ġp our
b n
ot ic
as c
Ġdes ert
' re
Ġdel hi
Ġk ay
ag en
Ġtik tok
as ure
ar ies
Ġpaper back
Ġl ord
Ġatt ack
Ġs ew
Ġ201 1
4 6
od a
Ġl ind
ur u
Ġaw ay
e z
br idge
ed es
1 00
Ġis rael
ad el
ag ing
f ast
Ġn ap
Ġj r
iz z
Ġpre t
7 6
Ġl iter
Ġtut orial
Ġan other
Ġsept ember
wor th
Ġl ost
el ine
Ġst orm
Ġinter est
Ġsp read
Ġto ky
Ġe gy
Ġs ri
Ġcor por
ut o
Ġw ould
end ing
Ġp m
Ġfac ebook
Ġll c
Ġres ources
Ġp iano
Ġgovern ment
Ġdecor ation
Ġk u
k n
ock s
or ed
ur ing
Ġgu est
Ġ9 9
ai j
Ġv iv
Ġph arm
Ġb ull
Ġchar les
Ġmic ros
Ġb urg
t le
Ġg ym
Ġth read
in c
al ing
Ġlead ers
Ġhol lywood
and o
Ġwind ow
Ġcap ital
Ġj ay
Ġj er
Ġm umb
ic y
Ġad j
ch i
Ġgr ay
Ġt un
Ġb ern
i ac
Ġbu ff
Ġfinanc ial
Ġwr iting
Ġst aff
Ġic ons
Ġbr a
Ġr on
av irus
Ġp ant
Ġruss ia
Ġ ou
Ġf old
Ġnorth ern
Ġhand made
Ġrep ublic
h ire
Ġstr ong
Ġ100 0
Ġan sw
il ing
ect ed
ol o
g n
Ġplat form
Ġtr y
Ġsn ap
al ed
ad s
Ġmer ch
d u
Ġad obe
8 5
Ġc ott
f in
Ġbr ight
f ly
Ġel ement
Ġad ap
Ġcl oud
b i
Ġpend ant
Ġjack son
Ġm ort
ist ics
Ġag ency
Ġl ate
Ġbag s
Ġs ets
Ġl iver
b ers
Ġpre view
tr on
Ġstat us
Ġman y
Ġsum m
Ġap pr
Ġcon ference
pro of
Ġn i
Ġaud i
Ġwond er
er ve
Ġa j
Ġg m
Ġfig ures
Ġv it
Ġg t
Ġm ond
Ġ201 0
ag n
ish ing
Ġtam il
Ġenviron ment
Ġbr ac
Ġcar bon
Ġtoky o
ell ing
Ġj ord
Ġto o
ak h
Ġ978 0
Ġpr ime
Ġprin ce
Ġyout h
Ġch art
Ġh ip
Ġdr ug
Ġtur key
ab ility
g re
Ġciv il
Ġmumb ai
ch a
on ia
Ġcol ors
Ġcoun cil
Ġ3 4
iam i
Ġsp a
Ġm es
Ġc ord
Ġcol umb
ess ion
Ġk an
y t
os is
Ġcol our
Ġar c
Ġinte gr
ak s
ol ar
enc ia
Ġb ass
Ġmag net
Ġat tract
Ġch ief
Ġs ail
et r
Ġ6 5
ic ip
Ġvol ume
Ġpaint ings
i ya
Ġcoron avirus
Ġd ip
o ons
Ġed it
Ġb ic
ov ery
Ġbr az
Ġhistor ical
Ġa le
Ġjourn ey
Ġh em
Ġgam ing
Ġe ps
er ia
Ġpow der
Ġhar ry
Ġst yl
Ġrepl ac
w in
Ġp v
Ġcas a
Ġstat ue
in ary
Ġtrans port
Ġm m
Ġtheat re
Ġc av
Ġcontem porary
st ar
Ġmar ia
c le
Ġl ion
Ġmag n
ust in
Ġegy pt
Ġcomp ar
c z
Ġmem orial
bur gh
Ġth erm
az e
Ġreve als
com ing
Ġl am
Ġbir ds
Ġsh er
Ġrestaur ants
Ġl ac
Ġsc i
Ġport able
u an
Ġmeth od
Ġb oss
t en
re me
r d
k an
Ġcr it
ure d
Ġro le
Ġsil k
Ġre qu
Ġent er
Ġpan el
ick et
Ġcr own
im es
Ġb und
om y
r ing
Ġdog s
Ġy ang
Ġport al
ic ult
Ġm iami
um ents
ai i
l im
ont o
Ġh ills
r an
Ġa ch
Ġexpl or
k ins
ak ing
Ġr unning
ud a
aw ay
og n
Ġev ening
Ġtumb ral
Ġda ughter
Ġplay ers
Ġt all
Ġsing h
Ġh i
ogr af
Ġb it
Ġb od
ab i
Ġcom e
Ġf ocus
Ġtr ust
Ġvo ice
Ġart work
as ed
Ġlook ing
Ġs ou
Ġlook s
Ġhon ey
Ġsol ar
Ġa er
o op
Ġreal tor
Ġread ing
as ons
Ġbath room
p ur
Ġr ow
Ġspan ish
Ġmet ro
Ġul tra
Ġ4 9
Ġhigh lights
Ġim db
Ġinn ov
p ost
Ġflor al
Ġart ists
Ġw ere
Ġas k
Ġg ive
Ġhou ston
Ġk um
Ġbow l
Ġn ord
3 1
l ock
w est
d ial
Ġveh icle
act ion
Ġ uc
id en
a ign
Ġp ull
Ġopen ing
Ġje ff
Ġf err
d ale
Ġl oss
Ġdie go
in ity
Ġtr op
f o
Ġh ong
Ġed ge
Ġ3 9
Ġp ik
igh ter
Ġs ud
Ġand re
Ġbar n
Ġfl ight
Ġle v
Ġt ouch
end o
Ġt ip
ie u
Ġhe at
p al
Ġsk etch
i ams
Ġmult ip
Ġart icle
Ġem ploy
Ġcr is
Ġgard ens
Ġcon st
Ġm is
Ġweek end
it ude
Ġb ou
Ġtrib une
Ġex tra
Ġel ev
Ġl av
enn a
Ġse at
Ġl ane
Ġwhe els
Ġjust dial
Ġne g
Ġn ike
Ġsw ord
Ġn ames
Ġworks he
Ġte en
Ġey es
Ġad vert
ge gg
Ġ iz
h y
re at
ch o
Ġp ir
Ġpart ners
Ġfe ature
Ġteach ing
Ġpal m
Ġch am
Ġwr est
Ġh il
Ġbr ad
Ġpn gegg
Ġs z
ch ool
c ed
Ġr c
r ad
Ġhealth y
Ġcr afts
Ġfe el
Ġoff er
Ġk iss
Ġsp ect
Ġmil k
eth er
ch ar
Ġh id
om s
Ġcer amic
Ġme chan
Ġc ant
Ġvis ual
us ion
Ġsp ider
Ġr ange
Ġwar ri
Ġdis e
Ġh ockey
ia o
Ġdest in
Ġle on
Ġl ay
Ġt ub
Ġbat tery
ch ange
f ort
Ġjo in
Ġhand s
Ġst er
Ġloc ation
Ġk er
Ġk ent
Ġro of
ly n
Ġz h
Ġa est
Ġw ide
d h
ud i
Ġad ult
Ġfe ed
Ġgram ho
Ġbl oom
ell i
og en
Ġvict or
t t
Ġgi ant
Ġst an
Ġsh ap
Ġy oga
i ents
0 1
Ġconc ert
Ġne ur
Ġp uzz
Ġze aland
Ġr aw
Ġeconom ic
Ġk ong
p c
os aur
Ġgr at
Ġtw e
Ġan aly
el and
Ġwat t
ann ing
Ġfall s
Ġc ock
Ġchall enge
Ġap k
Ġr ang
Ġd or
Ġimpr ov
Ġme g
Ġman chester
um es
anc ed
Ġb out
k r
am an
Ġs ne
Ġr y
Ġb b
Ġt ell
Ġwill iams
el d
Ġm ike
a is
Ġcurr ent
act or
Ġhus band
Ġcon vers
Ġtenn is
Ġproduct ion
Ġdirect or
Ġrel ig
ic i
Ġrel ation
Ġcamp aign
Ġp air
Ġtatt oos
ank a
Ġcolor ado
Ġal i
Ġther apy
Ġdr ag
Ġal tern
Ġh ai
ol is
Ġlight ing
Ġveg as
Ġkind le
Ġhy dr
ach t
Ġpr ote
Ġt akes
Ġpac ific
Ġget ting
Ġmus ical
ir i
u j
Ġpe ace
Ġeng ag
Ġbr ass
Ġcom o
Ġper i
Ġp ub
Ġgeorg ia
Ġo c
v in
7 1
f ish
Ġn om
Ġs au
if orm
o id
Ġvirgin ia
Ġg ul
av ing
Ġpl ush
l ass
ste in
Ġm ol
p m
Ġbreak ing
6 1
Ġsh el
Ġveg et
ur ance
Ġcr ash
Ġus b
Ġbey ond
Ġ4 00
Ġrail way
Ġdo ctor
Ġh orn
Ġj et
Ġfavor ite
ig o
Ġun a
Ġmic ro
Ġkore an
Ġf if
Ġem erg
v ing
us ed
Ġd ad
f air
Ġs oul
Ġr ib
Ġr ust
Ġbord er
Ġg ab
iv en
Ġpract ice
Ġj es
Ġd all
Ġch and
Ġstep s
Ġh ope
Ġtr i
on i
Ġd ish
Ġdec k
Ġacc ount
p ack
Ġk its
Ġd anc
Ġte ep
Ġcl imate
Ġsk i
av er
Ġcom ing
Ġla ur
uck y
as ts
Ġph o
Ġtit le
Ġp ig
Ġm ans
Ġund erst
Ġlead er
Ġj ag
Ġt n
Ġdr um
Ġswe at
Ġres ist
Ġsun set
pr ise
Ġb ible
4 1
Ġrain bow
Ġfeat ures
Ġg reek
p orts
l ines
os ter
op a
Ġb ib
Ġwalk ing
ut en
ai ja
Ġvict oria
ant ic
le ct
Ġ12 0
Ġd ot
Ġess ential
Ġs ap
Ġ20 00
Ġr oss
Ġfr iday
Ġi ii
Ġt ail
Ġbraz il
p ie
Ġk un
Ġas ian
Ġgu y
end a
Ġsh ower
Ġfram ed
Ġactiv ities
Ġjos eph
Ġr i
Ġex erc
Ġmov e
Ġarr est
Ġh r
Ġav enue
Ġs ource
Ġcarol ina
Ġtick ets
Ġh ash
ic ations
Ġo cc
c over
Ġsem i
ob i
Ġe k
Ġinsp ired
wor ld
Ġgrow th
se a
Ġher b
Ġdom in
im o
Ġa uctions
Ġt ul
Ġy a
t ag
Ġrent al
ac o
w and
erv ation
Ġpresent ation
Ġmanufactur er
Ġl or
Ġr ome
Ġrem ov
Ġf ather
Ġnov el
Ġcan n
Ġab str
Ġtot al
Ġte e
ert y
Ġsuppl iers
Ġj ones
Ġmeet ing
Ġs ed
Ġch i
Ġfrancis co
Ġtr ends
ans as
Ġc oup
Ġp om
im ent
Ġw on
Ġteach er
Ġd ual
us es
Ġadj ust
Ġsaf e
Ġber lin
Ġcath olic
p ers
Ġtal ks
Ġqu art
Ġs aw
Ġdep ot
Ġsc ene
Ġco in
k ar
Ġbm w
2 00
Ġunivers al
Ġy am
0 7
Ġhar v
Ġann ual
im p
Ġcr icket
Ġfriend ly
Ġteep ublic
Ġr ice
Ġre ally
Ġc reek
ch en
Ġdown town
Ġto g
Ġs ugar
z i
Ġf er
Ġp y
Ġcons ult
Ġtrad ing
oth ers
Ġt ang
b u
Ġj ess
r u
Ġop ens
Ġw ing
Ġair craft
Ġhold er
ow a
Ġk ab
Ġjo y
Ġcolor ing
and ing
Ġmich igan
Ġp i
Ġcap s
Ġinspir ation
Ġk enn
ill er
Ġwh it
f all
Ġj ose
Ġjord an
art a
Ġwh ile
s m
r oad
b orn
Ġcamp ing
Ġ2 50
ac a
Ġbr ing
ar is
Ġstream ing
ill y
Ġgr ass
Ġmot ors
Ġtay lor
Ġun s
Ġ6 4
ov en
cript ion
r up
Ġres ident
Ġkore a
Ġn ad
Ġk ick
Ġquest ions
he im
Ġm n
Ġjohn son
vis ion
Ġ* ,
end ed
Ġcan ad
Ġc ob
Ġtem per
Ġw ave
Ġco at
Ġart station
Ġh ook
Ġmiss ion
Ġsun day
Ġp ush
Ġthe me
re al
Ġoh io
Ġl ens
Ġbel t
Ġgre et
Ġsy m
Ġcal end
Ġdistr ib
r oss
Ġwater col
Ġh ell
as m
Ġ4 2
Ġreplac ement
Ġl ace
Ġprin c
Ġbr as
Ġr ou
Ġgo ing
Ġcre w
Ġre ar
Ġvac c
l ov
h old
Ġz one
Ġrad i
Ġche ese
Ġmons ter
Ġh ud
Ġk el
Ġfun eral
eng er
Ġj ung
y er
Ġf m
Ġdut y
Ġhy d
j oy
Ġal che
aj a
Ġdi agram
Ġworks hop
Ġn ice
Ġl amb
Ġannoun ces
er ies
iz ing
Ġk ee
Ġtrans fer
Ġs ob
Ġgal ax
Ġmin ister
Ġcand y
Ġg an
Ġ ug
Ġn an
ed e
Ġhand le
Ġt at
Ġsurg ery
if er
Ġsh in
Ġv r
Ġpal ace
Ġv ert
Ġf ern
Ġk aw
k en
Ġtor onto
Ġcont ain
im al
Ġr ak
Ġn yc
Ġm ik
Ġb es
Ġmerc edes
Ġmon itor
o a
Ġgener ator
Ġste ve
Ġc i
ib e
Ġbr ush
Ġsh ape
Ġr og
Ġor th
h ere
Ġim gur
Ġw y
Ġb att
ens ive
Ġd ental
Ġcur t
b et
Ġfl are
al t
Ġf ul
ac he
ut es
ot ion
Ġ0 2
Ġse ed
Ġcar n
Ġnot ic
Ġc b
uk a
r ings
Ġd ong
re te
Ġf z
Ġnews p
re am
Ġn ail
Ġsh i
Ġlab or
ar ian
5 8
Ġc ass
as ka
Ġhun ting
od es
Ġgraph ics
Ġs ah
Ġc c
on ic
Ġcongr ess
el ess
Ġisland s
Ġcook ing
Ġtyp es
Ġa ustin
Ġn orm
Ġpower point
Ġo vers
Ġcirc le
Ġb ach
Ġl ew
ac ts
Ġsc ore
Ġir an
r um
Ġ4 4
Ġsh ell
Ġcr ime
Ġch el
Ġand rew
ar ium
Ġw ool
Ġval ent
j u
Ġp ag
Ġth ird
Ġb orn
Ġcont est
nam ent
Ġbre w
Ġa vi
Ġtre k
ect ive
Ġgood s
Ġim per
Ġtre es
Ġcou ple
Ġcl ar
Ġform at
l an
Ġa ur
Ġpr os
Ġperi od
Ġstud ies
Ġval ue
n ik
Ġscot land
Ġr ise
er i
f m
Ġcop per
he w
Ġ ik
e ur
em an
Ġg ang
en z
Ġp eng
Ġm ouse
Ġpre c
Ġalumin um
Ġb eng
Ġdisc ogs
Ġop in
Ġk il
w ich
Ġent re
ath an
Ġtrans l
Ġn est
Ġ4 3
Ġbar cel
v et
Ġsen ior
ab eth
Ġcamp us
arm a
Ġcapt ain
ar u
Ġj um
Ġtw in
Ġf uel
Ġpar ad
Ġse ek
Ġf ont
Ġ ign
Ġtit an
bo y
Ġv oc
Ġj ak
Ġm int
Ġbo ots
Ġmem bers
act ive
Ġcom ment
Ġliqu id
Ġmanufactur ers
Ġal m
Ġmex ican
Ġsch olar
Ġl il
Ġf lex
Ġs ust
Ġb omb
Ġg ree
Ġabstr act
Ġv eter
h l
Ġch at
Ġex change
Ġfl ow
Ġsh ah
Ġrub ber
Ġn sw
Ġleg ends
Ġle aves
Ġp ocket
Ġsp ark
Ġswe ater
Ġlaun ches
Ġ< <
Ġs d
Ġj ual
Ġche f
Ġgh ost
Ġ3 7
Ġfood s
Ġlo op
Ġstra ight
Ġprint ed
Ġres c
Ġsy d
Ġwiki wand
Ġaest hetic
Ġg or
ain ed
w all
Ġliver pool
Ġtog ether
Ġnat ive
Ġind oor
n ie
Ġfam il
Ġv ic
o is
Ġt iger
t ic
m ore
Ġlab el
ash i
Ġbrid al
s i
Ġprim ary
Ġb os
Ġg ate
Ġlog os
Ġs ak
Ġautom atic
Ġn fl
Ġv ine
Ġstad ium
Ġear rings
r ian
it as
Ġbe e
Ġpos h
Ġjew ell
ec k
p ace
Ġpie ces
Ġel ements
ot te
ig s
Ġweek ly
Ġvis ion
Ġinc re
iv ity
Ġdr ama
m ad
Ġdefin ition
Ġplay ing
Ġoff ers
Ġpre par
Ġpress ure
ent er
ag r
Ġh az
Ġl oad
Ġkn ife
Ġst ack
Ġdin ner
ill o
es is
h t
Ġperf orm
id as
Ġcoun ter
Ġbu ilt
j ar
Ġmad rid
p i
Ġfil ter
a ine
z en
Ġcl ock
iv o
Ġalbum s
Ġab b
Ġjan uary
Ġwire less
Ġdall as
Ġex ec
Ġlas er
Ġcap e
Ġadvent ures
Ġprot ection
Ġj pg
Ġover view
th ers
Ġbene fits
Ġun iform
g ers
a id
Ġ ud
Ġr ack
ov ic
Ġse ven
Ġad am
Ġr ide
Ġfl av
c ion
Ġcov ers
Ġsil ic
u v
t ail
Ġb ond
Ġd y
Ġmang a
Ġp av
Ġhol y
Ġh ours
em ic
er ie
Ġchampions hip
Ġass ist
b ro
Ġel iz
Ġauth ent
ak u
Ġrob ot
Ġsculpt ure
Ġp t
Ġgo es
Ġn ba
Ġ0 8
Ġb c
un der
9 7
Ġdecor ative
o at
Ġp ine
Ġk or
Ġunivers e
Ġengag ement
it an
Ġl yn
Ġal p
Ġspr ings
Ġgalax y
ov es
Ġ0 5
Ġac ry
k al
Ġcomp lex
Ġpos s
Ġa str
Ġk ings
fl ix
c ase
Ġpl ug
Ġfly ing
Ġn aij
y ard
Ġ5 2
p ed
Ġv est
h s
Ġb il
is i
Ġit ems
Ġbarcel ona
Ġr yan
us a
id ed
Ġus er
Ġar k
Ġc bs
Ġz ip
ier e
Ġel eg
Ġspec ies
Ġcr oc
Ġco le
en er
Ġcomp os
Ġcollect ions
Ġdis p
Ġdub ai
Ġbar r
Ġl it
Ġp ants
Ġr anch
Ġpre p
Ġbl anc
Ġsol o
en ed
Ġk os
Ġbrit ain
Ġt ie
Ġfl u
Ġm ant
Ġ200 9
Ġpar ks
Ġpost card
Ġp ist
Ġ7 2
press ion
at ures
Ġhen ry
ad er
Ġsh ock
enc il
Ġm und
Ġch an
m el
Ġdraw ings
Ġjust ice
Ġtai wan
anc es
Ġne igh
Ġw i
Ġk in
Ġatlant a
Ġm k
Ġorig in
Ġps d
Ġk ev
Ġf ebr
Ġ200 8
Ġinvest ig
b ol
Ġthr ow
bour ne
Ġr ate
9 2
Ġpear l
Ġj azz
Ġwild life
Ġrel ief
Ġo g
oll er
Ġp ent
Ġk ol
Ġg il
oph y
qu es
Ġspr ay
ar es
Ġs ul
ect s
Ġgr av
Ġcanad ian
Ġd ak
ov ers
Ġc ash
Ġfollow ing
Ġbr ok
Ġ9 5
Ġtag ged
Ġmy th
com es
Ġsh a
Ġbackground s
Ġviet nam
ur t
Ġy ard
Ġbron ze
Ġ5 8
Ġwal es
Ġsing er
itt en
9 3
Ġgu ides
ism o
Ġinst ant
Ġtr ial
Ġaff ord
Ġb art
gh an
Ġr ings
Ġco oper
Ġdat ab
Ġanton io
Ġsyd ney
Ġveg an
Ġsc hed
ish a
Ġcr ow
Ġsp in
Ġind ex
o il
Ġarm s
Ġcont ent
Ġstruct ure
Ġ5 4
Ġl anc
Ġgree ce
Ġgr ill
Ġwater proof
Ġ1 10
Ġc ities
9 6
Ġgr oc
Ġww e
Ġmem ory
iz es
Ġrem ote
om et
Ġev en
Ġdise ase
Ġor d
Ġ7 8
Ġm ist
Ġsm ok
Ġprot est
Ġd as
oun ts
Ġcas ual
Ġd ent
9 4
Ġdr iver
Ġupd ates
ol io
Ġmc c
u its
Ġw are
or ter
Ġm ud
ie val
Ġeag le
eral d
Ġcin ema
Ġtable t
Ġore gon
Ġpaint ed
20 21
Ġveh icles
Ġdec ember
Ġan at
Ġul tr
Ġ6 8
Ġs ung
or ation
Ġbout ique
Ġactiv ity
t ime
Ġbo ot
Ġcond ition
Ġmur der
m es
led ge
Ġh art
Ġwatt pad
Ġk illed
Ġreg ional
it is
en ix
ok u
st ock
Ġt ube
' ve
Ġm az
Ġse attle
Ġcorn er
Ġam ong
Ġh ir
Ġh ors
Ġbr ick
Ġcomp an
Ġcor re
Ġtop s
Ġ0 3
Ġtr aff
Ġshoot ing
c n
Ġbul let
ip er
Ġar iz
Ġpeak px
Ġacry lic
n aija
Ġh amp
ug al
Ġnet flix
Ġon t
at an
Ġlap top
Ġpill ow
Ġbreak fast
Ġac id
o ji
on line
r ah
Ġr an
Ġcontr act
Ġdec al
Ġr isk
Ġwh is
Ġsal v
Ġsar ah
b ul
Ġanim ation
Ġsust ain
Ġcomp let
Ġd w
ard o
Ġarg ent
Ġs ams
Ġtr end
Ġr ights
Ġag ent
Ġster ling
Ġwom ens
Ġc ats
Ġm old
Ġar th
Ġe co
Ġe ach
Ġelectron ic
ai led
Ġg ay
Ġlad ies
Ġposh mark
Ġd os
Ġn iss
Ġap ps
Ġjes us
Ġwrest ling
er ts
Ġbl ade
Ġst yles
Ġquest ion
Ġcalend ar
ub a
Ġ6 00
ul u
Ġsw ed
Ġwe ap
Ġr as
Ġnot ebook
Ġbrac elet
Ġtr im
Ġsol ution
ib r
Ġpolit ical
Ġs ig
Ġ10 1
Ġl p
k art
ie ve
e es
ik o
Ġp ipe
ph ia
Ġcy ber
Ġ8 5
iv ia
Ġnam ed
b ell
in ce
h es
Ġl ower
b us
Ġbr other
Ġd ess
Ġ19 0
it r
Ġw s
Ġm ight
Ġf ear
Ġeffect s
ed a
Ġmar sh
Ġtur k
Ġprint ing
Ġt act
Ġtod d
Ġmed ieval
Ġde g
Ġsu z
Ġn d
Ġnet naija
r ay
Ġchem istry
al ia
Ġk s
Ġexam ples
Ġcl ay
az y
Ġg um
Ġgo al
ag reen
Ġnotic ias
ens h
Ġhous ing
Ġpar ents
h d
Ġcom pl
Ġfz movies
Ġgener ation
at ar
Ġse g
en i
Ġh ack
Ġlar gest
Ġkn ight
Ġal so
Ġchem ical
Ġwatercol or
Ġpo etry
Ġbut ton
Ġb erg
b ag
w ick
ik es
c ia
Ġfebr uary
Ġemp ire
Ġtr a
Ġaut umn
Ġl ak
Ġbe come
Ġhun ter
Ġg ig
in as
Ġadjust able
av i
Ġfin ish
at ics
Ġout let
Ġbas ic
ast y
Ġpre gn
v an
Ġdatab ase
Ġcas es
Ġdr ibb
Ġariz ona
Ġwhat s
id ays
Ġm ul
adel phia
Ġ4 7
Ġw is
Ġr io
Ġun c
Ġthan ks
Ġa head
Ġpolit ics
Ġeliz abeth
Ġlaw n
air s
Ġsay ings
Ġsh ay
Ġb in
Ġmak er
l og
Ġalb ert
Ġrem ember
Ġhash tag
Ġse qu
Ġem ail
vent ion
Ġnaij agreen
Ġcam er
Ġcabin et
Ġnaijagreen movies
te ch
am ent
Ġcart oons
Ġben z
Ġg y
Ġfe et
Ġclos ed
Ġg our
Ġbook ing
Ġtr ucks
Ġr ates
ks hire
Ġt ah
ott en
Ġeas tern
Ġmicros oft
Ġconc rete
Ġpret ty
Ġfil es
Ġn ue
Ġac ross
Ġquar ter
Ġlaz ada
Ġreturn s
Ġalex ander
f ire
Ġm ural
ar en
Ġmix ed
Ġsh adow
Ġchr ome
br id
p at
Ġan ne
Ġ19 20
ag er
Ġal ways
if ier
Ġafford able
il ar
o int
Ġinf l
Ġto k
Ġrout e
Ġdif ference
l en
Ġdribb ble
Ġk as
Ġmarri age
Ġ0 4
ac ao
Ġwho le
s ch
Ġh its
Ġstr aw
iz a
ter ior
Ġint ell
Ġv id
Ġy or
Ġcycl ing
Ġcott age
r ich
Ġsh ut
as se
Ġkr ish
est a
Ġauthent ic
Ġmot ion
fr ont
Ġp cs
Ġs ang
Ġr af
Ġz a
oun ce
Ġphil adelphia
Ġun e
Ġshar es
Ġw ard
w atch
Ġl ift
Ġrev olution
Ġbr ian
ach i
er ed
Ġ6 3
Ġnot e
Ġb j
Ġ era
Ġ0 7
Ġa us
Ġreg ister
Ġr ick
u ally
Ġexp ert
Ġrom antic
f i
id ence
Ġr iv
ac le
Ġhy p
Ġqu ad
Ġscient ific
ip art
Ġjewell ery
ins on
am el
Ġcol omb
Ġ5 9
Ġdom ain
Ġfl ood
Ġnut r
Ġm g
Ġep ic
Ġout fits
Ġs q
Ġ200 7
Ġbutter fly
Ġv as
Ġniss an
Ġdes p
Ġsil hou
Ġk ath
Ġc ateg
Ġleg al
Ġup per
ig en
ul ator
Ġval ve
Ġcall s
Ġconf ir
ect or
Ġbrand s
Ġher oes
Ġstr ength
ok a
Ġsim pl
ail and
Ġalche tron
uc le
Ġp yr
Ġk le
Ġch in
Ġins urance
Ġre tr
y on
ig ar
Ġth en
qu et
Ġmot iv
Ġst ores
Ġas p
h al
Ġh our
Ġmo le
Ġpack aging
w al
Ġhor ror
Ġst ats
Ġd ue
Ġform ula
Ġdef ense
Ġ10 80
Ġdi et
Ġpl anning
Ġj osh
Ġkev in
Ġjun ior
Ġsk ull
Ġbus h
Ġfot os
Ġs ame
es a
Ġsex y
Ġcol on
Ġen joy
Ġhel met
ew ay
umb ers
Ġfib er
Ġref r
Ġclean ing
Ġc ave
in ks
Ġstr ateg
Ġrele ases
Ġh iking
Ġth ailand
Ġbud get
Ġse ction
if i
Ġ5 3
Ġsal on
Ġst unning
Ġtrop ical
Ġhang ing
Ġswim ming
Ġfan pop
Ġpop s
Ġe u
Ġ0 6
Ġrelation ship
Ġbeg inn
re m
Ġsin ce
ag ar
id ers
Ġpat io
Ġpatr ick
Ġcult ural
os ph
Ġab d
Ġpol icy
Ġd ial
in ed
Ġfa ith
Ġan na
Ġpuzz le
Ġ4 6
Ġt ed
Ġdem ocr
Ġl odge
Ġpho enix
Ġal f
emb ly
Ġse al
i ors
Ġsu ff
Ġcred it
ie v
Ġot t
Ġel ite
ang an
y o
Ġr abb
Ġsk ate
Ġappl ication
as er
Ġor ient
Ġob ject
l ar
Ġfre ed
Ġtr uth
Ġl ect
s es
Ġsew ing
Ġ5 6
Ġmar ble
f s
Ġflickr iver
Ġ5 1
Ġth ai
Ġfig ur
t ics
l ers
Ġr ules
Ġk art
Ġn ak
Ġr v
' ll
Ġdem on
i ew
Ġthe ory
j ay
Ġbr others
Ġmar ie
Ġmount ains
em y
Ġpun j
Ġfilm s
itz er
Ġm org
en h
u h
Ġcompet ition
Ġhind u
Ġev olution
Ġcost a
g al
ar an
Ġre asons
Ġg ir
ey eb
all s
Ġmem or
Ġd ivers
Ġfan art
Ġcon v
Ġr if
Ġk ate
Ġpos itive
eyeb oston
Ġgaz ette
ac hed
Ġprogr ess
ro let
Ġdin osaur
Ġan k
Ġpand emic
Ġt ile
Ġg on
Ġchar m
Ġfr ied
Ġgr ace
Ġcat ch
Ġstud ios
Ġspread shirt
Ġh s
Ġmerch and
Ġchev rolet
Ġaw es
Ġl um
Ġbre ad
Ġs ample
Ġant iques
Ġf ake
i est
Ġo sc
Ġbo om
iss a
Ġcar pet
Ġsat ur
Ġexhib ition
Ġk az
Ġgen e
Ġbar s
Ġadv anced
Ġd up
Ġd v
Ġr ic
Ġm b
Ġprod uc
est on
ro it
h or
Ġn r
app ing
Ġn int
azz le
Ġm aur
Ġf olk
Ġh ello
ie g
Ġtour ist
Ġsl ow
w y
Ġsar ee
k u
Ġsof a
Ġg ian
Ġfair y
Ġback pack
Ġspe aker
w ide
Ġcolor ful
Ġ6 6
Ġfun ction
Ġse ver
Ġth ank
Ġang le
el in
or o
Ġth ing
Ġcr ist
f olio
Ġch op
ap t
Ġd um
Ġtest ing
Ġdeb ut
v ania
Ġw ol
Ġt ong
Ġc um
Ġt es
Ġd ib
Ġme asure
Ġn m
Ġprinc ip
Ġsport ing
Ġwar m
Ġw itch
Ġsl im
Ġout fit
ubl in
ou ver
Ġillustr ated
Ġj ane
Ġadm in
Ġstr ip
Ġo thers
o ir
Ġinstr ument
Ġclass room
Ġc ycle
Ġdet ail
Ġre ach
Ġ3 60
ok es
em e
Ġsci ences
col n
ino is
Ġrat ings
Ġp itch
Ġoffic er
l on
p an
ot es
Ġshould er
Ġbrand ing
Ġjo int
Ġintell ig
Ġc ort
Ġse en
Ġb am
ob o
9 1
m us
Ġh arm
Ġh ed
Ġj ump
r at
Ġt as
ps on
Ġlin coln
Ġr az
Ġcelebr ates
Ġsams ung
Ġstre t
t im
Ġb um
f inder
Ġcru ise
h el
Ġbe ck
Ġdiscuss ion
et ic
c y
Ġagr icult
Ġcomm ission
Ġinf lu
Ġn ur
Ġmanag er
Ġhor iz
Ġless ons
Ġprote in
Ġass embly
Ġcelebr ate
Ġmom ent
ib a
Ġv ik
Ġ200 6
est ra
Ġ4 1
og y
Ġn z
he dr
Ġem oji
Ġt ol
Ġsqu ad
Ġwhats app
Ġh ans
Ġque ens
l ia
Ġhon or
Ġer ic
ter est
op ter
d o
Ġmar io
ha us
unn er
Ġmaterial s
Ġe arn
Ġlead ing
Ġle x
Ġnurs ery
Ġresident ial
Ġmess age
Ġa ver
el ing
Ġcel eb
k t
Ġelement ary
Ġimport ant
Ġje ans
Ġr ag
Ġres erve
Ġ0 9
Ġhol idays
Ġtechn ical
Ġbel g
ond e
Ġelect ion
0 5
m ont
Ġlic ense
Ġn w
Ġsim on
Ġit em
b ird
Ġun ve
s ki
Ġanth ony
Ġt ape
Ġres ume
Ġb anner
Ġcost umes
Ġ9 8
Ġclin ic
ish i
Ġchel sea
ut a
Ġrep orts
Ġatl as
Ġsc en
Ġr ah
Ġcl imb
Ġ12 5
ol as
Ġ6 2
on o
Ġex ample
Ġsilhou ette
Ġven ue
Ġper u
l ah
Ġf ond
Ġbr un
Ġtele gr
m otion
oc a
Ġqu al
Ġd ating
Ġal ong
Ġrug by
Ġpit ts
Ġprom o
Ġhaw aii
Ġz oo
Ġch ip
Ġr ena
Ġan ch
Ġbot an
Ġawes ome
Ġw isc
Ġd il
Ġ200 5
Ġbe an
Ġr andom
Ġch erry
m at
d am
Ġl ie
Ġyour s
Ġclin ical
m in
Ġdiv ision
Ġb un
Ġl emon
Ġg au
n ow
Ġdet roit
Ġr t
Ġar sen
Ġap pro
Ġcho ice
Ġn umbers
Ġsh orts
Ġb og
Ġwr ap
p ul
Ġg oth
av an
Ġr and
Ġcoll ab
ra ine
Ġre cept
Ġgroc ery
c d
Ġneed s
Ġwish es
Ġh p
Ġden ver
s l
Ġim all
Ġw id
Ġleg acy
Ġwork out
Ġl ith
Ġcar b
Ġ5 7
Ġcharl otte
Ġavi ation
Ġart ific
Ġpromot ions
on se
Ġs f
Ġte ams
Ġk w
Ġsol ved
Ġa id
Ġd irt
Ġmerchand ise
Ġglob e
st ore
Ġmod e
Ġn os
Ġsl ip
Ġ8 00
Ġdies el
Ġf inger
Ġs is
Ġam id
p ut
Ġhid den
iv id
ug a
Ġn ucle
Ġl oun
Ġsurv ey
Ġgrow ing
Ġstep hen
Ġd uck
Ġsuppl ier
Ġtel ugu
ann y
Ġport folio
Ġb id
ott ed
Ġolymp ic
ac ional
Ġm ig
Ġbe ca
Ġhard cover
am er
i ally
Ġcris is
Ġinf ant
Ġcap ac
Ġs ister
Ġr ig
Ġl ines
Ġglass es
op r
Ġfre d
an es
Ġisl amic
Ġg ather
b les
Ġrock et
Ġac qu
Ġsc re
an z
Ġact ive
Ġart icles
Ġcut ting
Ġelectr ical
am as
Ġdh gate
Ġto ile
iv ed
Ġph ase
Ġ6 9
Ġme at
Ġcom fort
Ġsh ang
Ġpremier e
Ġtrans m
Ġnint endo
Ġrec ent
Ġinclud ing
Ġout side
Ġappro ach
Ġbu g
Ġbad ge
Ġpil ot
Ġdel ic
Ġexec ut
Ġhy per
as ia
Ġn ort
Ġ12 3
n ut
5 2
Ġt ony
Ġintrod uction
Ġdr iving
Ġx l
Ġtur bo
Ġpot ter
Ġwed d
Ġr ip
Ġp es
Ġsh az
Ġiss ues
Ġpol ish
Ġn ash
ing o
Ġill inois
n l
Ġm ental
Ġg ent
Ġpl ane
Ġse b
Ġm ent
Ġmus h
iel ds
Ġemerg ency
Ġg ad
Ġemb roid
Ġreve aled
Ġroom s
ag i
Ġpack age
Ġj ason
Ġb one
Ġbeca use
c at
Ġchamp ion
Ġgirl friend
Ġmet all
Ġinstr uments
Ġattract ions
Ġp on
d ie
b ed
Ġso ap
ib s
w ire
Ġm ai
t ion
Ġet h
Ġem ble
Ġg ur
Ġthe ater
Ġg ia
ons in
Ġfor ward
Ġprov ince
Ġbrook lyn
Ġw et
Ġembroid ery
Ġcos met
Ġsel ect
c ut
Ġtraff ic
Ġkr ist
Ġarchitect s
Ġleaders hip
Ġfot ograf
oz en
ew ork
5 6
Ġd ash
est e
ul ated
Ġd ublin
Ġport ugal
Ġb ao
Ġt ac
u ge
Ġr ud
Ġox ford
Ġcr im
Ġisl am
us ter
ed ic
Ġpl ac
Ġpower ed
Ġc p
Ġor b
Ġst itch
Ġhy brid
c ot
ic ol
Ġapp ear
Ġme ga
Ġprop os
Ġn ob
Ġ7 6
Ġt ir
u ine
Ġdaily motion
y en
st ic
Ġmah ar
Ġbat man
oph er
Ġl ok
Ġk eral
Ġj in
Ġwr ite
Ġb ai
Ġpv c
Ġple ase
t he
sh op
ple ment
Ġwisc onsin
ah an
Ġy es
Ġth ough
Ġview s
ct ional
Ġphys ical
Ġide a
Ġk ansas
Ġd m
a ult
lass es
Ġdi agn
Ġ18 0
Ġpep per
ar on
Ġn ich
Ġl ives
Ġj al
Ġproble m
Ġg amb
Ġ< >
Ġstr ate
Ġcons um
Ġsatur day
Ġpat ients
Ġis ol
Ġbig gest
Ġp pt
Ġz azzle
Ġlet ters
Ġpol l
Ġmiss ing
Ġl ength
Ġeur o
Ġw ee
Ġmap io
ap es
Ġexerc ise
Ġpattern s
Ġpl aza
Ġex terior
Ġt amp
Ġstat istics
Ġclipart s
Ġlew is
Ġk m
est one
ach er
Ġgreet ing
Ġb ild
Ġch enn
Ġcom edy
m ag
g or
em ony
Ġcelebr ation
Ġartific ial
ij i
Ġv anc
Ġ '
Ġdr aft
p k
il ton
Ġl ob
Ġbic ycle
Ġ6 7
Ġsp ee
Ġhab er
Ġpol and
g io
ay an
le ts
bre ak
at ely
Ġw ings
Ġd iction
istr ation
Ġfr ozen
Ġcl ark
Ġun ic
Ġintrod uc
Ġshaz am
Ġen s
Ġj eep
Ġpersonal ized
Ġbi ology
enc er
Ġh os
st ick
Ġ8 8
p in
Ġaud ible
ang el
Ġbel le
et ta
Ġresc ue
Ġth or
Ġt ent
ang a
Ġrel ated
Ġstrate gy
Ġinterest ing
5 4
d ha
Ġtrib ute
Ġm ile
Ġn az
app ed
Ġexp os
Ġgr ant
Ġfore ign
ida e
Ġaqu arium
Ġbr ief
Ġinj ury
Ġpin terest
Ġalph a
Ġmin imal
Ġ6 1
Ġsens or
Ġcit iz
Ġa ce
Ġsell ing
Ġcom es
Ġb iz
Ġbo ost
Ġs ession
eth ing
Ġmarri ed
Ġkeral a
Ġp encil
igr aph
Ġimag enes
Ġchenn ai
Ġfed eral
Ġs oon
Ġhe ar
Ġgar age
Ġsm ile
Ġsau ce
Ġsched ule
Ġcelebr ities
Ġk em
Ġch est
ik h
Ġx i
Ġch al
Ġspot light
Ġsk ills
Ġa uf
Ġsc rew
Ġg oss
Ġm aint
om i
ic ial
as ing
k ing
Ġw ants
Ġpet r
ib ility
Ġor land
Ġme j
t ree
Ġpix el
Ġp ond
w o
Ġtak ing
j er
Ġstr ing
Ġst ew
h ill
Ġh ipp
Ġvict ory
we ight
Ġ9 00
Ġm au
Ġz imb
Ġd ans
i ant
Ġkum ar
yl vania
Ġmov ing
Ġbras il
Ġr ach
Ġed ward
Ġcirc uit
ib i
Ġcolumb ia
Ġext ension
Ġth under
Ġsl ide
Ġtop ic
p ose
Ġpo ints
Ġip ad
Ġcomp ass
Ġst em
er ation
is l
Ġway fair
Ġarsen al
Ġpr ob
Ġspl it
ot he
Ġmin nes
Ġware house
ess ed
at ives
Ġmatt hew
ar r
b urn
o oth
Ġpr a
Ġindian a
Ġboy friend
om eter
Ġwin ner
Ġne pal
5 3
Ġn gu
Ġg ol
Ġcu is
Ġpro of
Ġm am
k g
Ġt ort
Ġl s
Ġl un
Ġres erv
re ts
Ġgl am
p ot
Ġmon te
Ġre comm
Ġref lect
Ġsp oil
Ġsumm it
Ġmar ath
Ġdestin ations
Ġd one
ise x
Ġfor ces
Ġjew ish
ia h
Ġpr ison
all a
ot y
aj e
Ġb om
r ain
Ġg eek
Ġne on
Ġspec ific
Ġvanc ouver
Ġcorpor ation
Ġth reat
Ġr ally
ers e
Ġind ivid
Ġup gr
Ġw ig
Ġc ay
Ġwarri or
Ġent ry
Ġcustom er
Ġs ain
Ġem ot
ush i
rel l
Ġknow ledge
Ġut ah
Ġmel bourne
Ġh ut
um i
Ġwin ning
Ġcer emony
Ġpart ner
Ġbe ver
Ġp ont
Ġg ives
Ġk elly
Ġvari ous
Ġsh oe
Ġl is
Ġqu ant
Ġv erm
au f
og o
r ig
Ġn oble
Ġsub s
Ġacadem ic
Ġred fin
Ġcert ific
Ġg at
Ġgrand e
Ġb w
Ġtransform ers
Ġmil an
Ġho le
Ġminnes ota
in ar
Ġj ur
Ġm ck
g ie
op ia
Ġtin y
u ed
Ġbre ast
f an
Ġproduct id
Ġd iff
Ġsign ature
Ġeduc ational
Ġr idge
Ġpu erto
Ġv end
ebook s
Ġfl ats
eng ers
Ġcr ack
Ġbl ind
Ġsob re
Ġbe ef
est ic
Ġal ab
ant i
bor ough
Ġz en
Ġf iction
Ġadap ter
Ġtele vision
Ġinter active
Ġhob by
Ġen gr
Ġalex and
Ġm um
Ġhair st
0 2
Ġcand id
Ġhun t
Ġpitts burgh
l ow
Ġthem es
Ġamer ic
Ġad idas
Ġcr azy
Ġf ighter
Ġbe ad
qu er
om an
Ġju an
Ġken ya
Ġ ia
Ġde er
Ġdo ors
Ġcollect ible
ip ur
ro y
Ġon ce
Ġcal cul
Ġsc he
Ġaf ghan
Ġp aw
Ġmem ber
Ġl em
r uit
ign s
ux e
Ġjac ob
Ġfreed om
r ies
Ġmultip le
Ġmonth s
ur o
ph one
p re
Ġbox ing
ch ain
Ġcompan ies
Ġreal ty
Ġl ing
Ġfir m
Ġport land
h ai
Ġmat te
Ġt ib
el i
Ġb oth
c ular
Ġd s
es ent
Ġv ene
Ġcal m
ash a
Ġl ud
ap a
ad as
Ġf s
j et
Ġwedd ings
Ġth u
Ġap art
Ġl en
Ġl anka
qu est
Ġsn ake
Ġcn n
Ġpat ri
Ġinnov ation
ok o
Ġy acht
00 00
Ġex tr
Ġn ou
f ile
Ġ9 7
Ġsim ilar
Ġmarket place
Ġd ave
Ġc v
vel and
bl og
Ġdut ch
Ġrep orter
Ġben ch
Ġd anger
Ġshap ed
r ix
olog ies
Ġgen uine
tr ess
Ġopin ion
Ġop port
Ġpenn s
Ġbre ath
Ġacc ord
Ġchang es
Ġless on
Ġw ang
Ġab ebooks
aj i
Ġont ario
8 4
comm od
Ġmar s
Ġvir al
Ġpr on
Ġf ail
Ġc ed
Ġspee ch
Ġnutr ition
ind a
Ġsurf ace
Ġparad ise
Ġarrest ed
al ore
w ord
Ġopt im
Ġorland o
on n
Ġgl en
Ġpor cel
b ert
Ġtw ist
Ġopport un
Ġwil son
Ġce iling
Ġac commod
Ġa erial
Ġrepr od
Ġmun icip
Ġgour met
i ology
om o
l ive
Ġhealth care
Ġworkshe et
Ġarr ow
er k
e i
Ġdr ill
Ġre ct
Ġimper ial
des ert
Ġel eph
Ġcom pr
Ġdiction ary
Ġkrish na
Ġv ogue
Ġp apers
Ġb ent
Ġce o
Ġmet rop
Ġcle veland
n t
Ġroll er
Ġbe gin
Ġt ig
Ġl akes
Ġsilic one
Ġfor ec
ify ing
p ark
Ġqu iz
Ġl b
Ġfin ally
Ġtemper ature
Ġbr anch
ient o
out s
Ġsom ething
Ġloun ge
Ġkn it
5 9
Ġmus cle
Ġmond ay
Ġbo ats
Ġs oph
Ġcon ce
Ġd od
ee zy
c ing
Ġr is
Ġ7 4
ov o
Ġun isex
Ġk ad
Ġcar ry
Ġbr ings
Ġste ven
Ġmill er
Ġjo h
Ġsk irt
Ġjenn ifer
Ġcomp on
Ġass ess
Ġ200 4
Ġh og
Ġmin ute
Ġread er
Ġx x
Ġenvironment al
Ġe in
Ġ3 50
desert cart
Ġl unch
Ġev il
Ġe g
Ġcr uz
or f
Ġfight ing
Ġf ancy
Ġfore ver
Ġre un
Ġcam bridge
k l
fl ower
Ġcell s
Ġrele ased
Ġtal es
Ġyor kshire
Ġreal ity
es i
Ġr m
Ġto b
ap olis
Ġdig est
8 6
Ġcomm er
Ġl on
ler i
Ġp int
j an
Ġg w
Ġe ight
Ġcat hedr
ol ia
Ġ7 7
Ġstr ess
Ġal co
Ġ7 3
int on
u in
Ġrec overy
app d
Ġcho ose
Ġp ets
Ġs ov
Ġim g
est o
bor o
Ġcons ider
Ġunt appd
Ġhu ge
Ġsh ield
Ġres ource
Ġfo am
Ġe aster
Ġsc enes
Ġm esh
Ġs ie
Ġro ot
Ġfac es
Ġp ors
Ġok lah
id ing
Ġphotograph ic
Ġjust in
Ġbul k
Ġnov a
Ġb old
Ġcuis ine
Ġy i
Ġv oy
a ire
Ġresp onse
0 9
Ġinc red
st d
Ġcry pt
Ġhigh way
sh ips
oc he
pul se
Ġp ip
n ia
Ġvol ley
f ace
Ġgh ana
Ġmagnet ic
Ġproble ms
Ġdev ice
5 7
Ġsup reme
n ite
Ġstr ap
Ġm ack
Ġmov ement
art en
Ġm ick
w ards
Ġpark ing
b t
5 1
Ġd ai
Ġn v
Ġth ick
Ġcon vert
Ġp ens
Ġs ib
Ġjar ed
att a
Ġfamil ies
Ġrem ix
Ġl iz
Ġs ag
Ġkap oor
8 9
Ġb end
Ġmys tery
Ġ err
Ġb aj
and on
Ġen h
Ġmay or
Ġ19 70
r idge
Ġg und
Ġanat omy
Ġeleg ant
Ġwork ers
Ġb ung
p ts
Ġpar ent
Ġad s
k it
Ġnewsp aper
al am
Ġ19 60
Ġb our
Ġjung le
Ġk ash
Ġcla ims
Ġmom ents
Ġinstall ation
Ġgrad u
Ġtr ails
Ġu fc
Ġg ord
Ġu z
Ġgre ater
Ġow ner
av el
Ġs und
Ġatlant ic
Ġcolomb ia
Ġc ul
Ġphil os
Ġur du
Ġt aste
Ġn s
Ġadvert ising
Ġcommun ication
t ar
Ġs ut
Ġpot tery
at us
ust an
Ġoklah oma
Ġp eek
Ġexc ell
Ġc ush
ic ing
Ġw ick
Ġtrip le
Ġdist ance
Ġj ing
Ġs ony
l aw
Ġham ilton
c al
Ġpr ide
Ġrec ruit
Ġmon key
Ġhouse hold
u um
Ġmush room
Ġhom em
Ġt us
ett i
Ġnat ur
Ġevery one
Ġh ire
Ġall en
Ġth ous
Ġch ile
Ġcop y
d ed
Ġnet her
ood le
Ġb ts
s av
l ook
ast ing
ant a
Ġl ut
Ġsp ac
Ġr ol
Ġdel ta
Ġbrok en
Ġma ine
Ġcal led
Ġteach ers
Ġpred ict
Ġexp ect
Ġgr amm
Ġw u
Ġanaly tics
Ġpl ays
Ġin ches
Ġsh ark
av en
Ġc em
Ġgl itter
Ġtr iang
Ġco al
Ġp am
Ġres ult
Ġsw iss
Ġcommer ce
Ġan s
igraph y
Ġto oth
Ġc yl
Ġm outh
ab e
n ight
Ġcateg ory
d f
ok er
std ibs
u ar
Ġhar r
Ġd l
Ġgl oss
Ġscott ish
ogr am
Ġb apt
Ġg n
Ġm oc
in fo
Ġow l
or p
Ġdel uxe
end ers
ic ul
Ġar ena
t ons
Ġenter prise
Ġhel d
Ġsp ar
Ġdem and
Ġjo ins
Ġg p
Ġdoll s
Ġpier re
Ġemble m
Ġpl ain
Ġsa udi
Ġw re
Ġneigh bor
Ġd ust
ic ia
Ġpr ad
Ġmach in
Ġpenns ylvania
Ġe ating
Ġde e
Ġcoun tr
Ġfin ance
Ġb t
g un
Ġdon ald
Ġshay ari
Ġexecut ive
Ġbuff alo
Ġsm ooth
Ġspirit ual
Ġtr actor
Ġh ann
Ġbuild ings
Ġnor way
Ġbr ide
fl ip
Ġol ive
Ġv ot
oth ing
Ġvol t
Ġmar ina
Ġvol ks
Ġbill ion
Ġal an
v n
Ġser ver
8 7
8 3
ham mer
Ġl id
b al
im i
Ġquart z
Ġup coming
mas ter
Ġn ine
Ġcour ses
ert on
pr int
0 3
Ġbu zz
Ġgre g
Ġt ier
Ġres in
pl us
l ists
Ġpr ayer
Ġflip kart
Ġdre ams
Ġpres ents
r ise
Ġbre ed
Ġw ax
Ġch er
Ġb is
Ġsung lasses
Ġo v
Ġy o
Ġtact ical
Ġcompar ison
er ver
Ġdecor ations
Ġtext ure
Ġz ill
Ġcr op
Ġargent ina
th r
Ġt il
a ud
Ġar n
Ġde cl
Ġrec ogn
Ġt yr
Ġwr it
Ġad ults
Ġcr oat
Ġmad ison
Ġess ay
Ġfor g
Ġgl ow
Ġ umb
0 4
Ġma ison
Ġd ick
c u
Ġp ony
d in
p p
Ġanch or
ist e
enn ial
iss ions
ag ne
p ix
r s
Ġmini ature
l ox
Ġgen ius
Ġchall eng
Ġsc and
Ġacc ident
m g
Ġw aste
Ġcand le
Ġinspir ational
am ics
ob a
be an
Ġre h
Ġl n
ed i
8 2
Ġclass ified
Ġgreat est
Ġindustr ies
Ġdid n
Ġthough ts
Ġalab ama
Ġvictor ian
Ġbeng al
Ġad op
Ġbal tim
Ġchrist opher
Ġsa id
Ġgl as
Ġrec re
itt ed
ah n
Ġ ike
Ġuk raine
is ation
Ġbaltim ore
le e
Ġtour nament
Ġpers p
Ġcomp at
Ġarm or
Ġle ave
Ġlat in
Ġeconom y
Ġhe aling
omet ric
Ġcre ated
Ġporcel ain
Ġb ish
u u
Ġdav is
l t
Ġclass ical
Ġpo le
Ġand y
e a
Ġsc oot
Ġvel vet
es co
Ġd awn
Ġde co
Ġgab ri
Ġf oss
Ġcham ber
Ġr ivers
op y
Ġdanc ing
Ġrepr esent
Ġd ul
Ġy et
Ġalco hol
ett es
Ġmat hem
ag ed
Ġpl a
im on
Ġdis s
Ġinvest ment
Ġopt ions
Ġfort nite
Ġf ame
Ġsw itzer
Ġcatal og
Ġc akes
Ġdisc overy
Ġal um
uel a
Ġs end
Ġliter ature
Ġprice pulse
bo o
il o
Ġcr ush
Ġw an
Ġpors che
Ġcr est
ugh t
le ans
els on
Ġf ate
Ġm x
Ġcall igraphy
Ġexpl ained
itt y
en os
Ġworkshe ets
b iz
g ow
Ġmod ule
Ġg orge
em ble
Ġrust ic
Ġbar nes
it at
Ġp unch
Ġresp ons
Ġnurs ing
Ġah med
Ġmon ument
om es
Ġd odge
Ġhy der
Ġtr ou
Ġmed al
Ġb ubble
pt ion
Ġhar ley
eto oth
Ġbal ance
Ġs uk
Ġpur ch
Ġyam aha
Ġphys ics
Ġcan yon
Ġla ura
Ġdec als
ur an
Ġmust ang
Ġo le
Ġfre der
Ġworld wide
Ġth in
Ġw ow
ol s
Ġst ere
l ie
Ġhind ustan
Ġi owa
Ġ200 3
Ġth ought
b ody
eb org
Ġth ose
Ġh ats
Ġstand ing
Ġgun s
Ġc bc
Ġmorg an
Ġde uts
Ġt ale
Ġfl o
Ġw o
Ġblu etooth
b ach
Ġreg ular
Ġpost ed
Ġesc ape
Ġj ama
Ġam pl
h aw
Ġheart s
Ġcorpor ate
Ġtoile t
oc ation
Ġsh ore
Ġ ion
Ġham mer
Ġp em
Ġs b
Ġsal ad
Ġt id
Ġroll ing
Ġgr id
Ġub er
Ġjak arta
Ġs ax
Ġg ut
am o
5 00
Ġscr ipt
Ġrec ap
Ġs as
Ġdie cast
Ġelev ation
Ġs ans
Ġswitzer land
Ġt t
Ġblank et
Ġvolley ball
w d
Ġconn ection
ogr ap
Ġser ial
Ġkn own
Ġv ish
Ġarchitect ural
Ġt ou
Ġturk ish
l ab
up s
Ġr ider
Ġ7 9
Ġ7 1
Ġz u
Ġrub y
Ġc es
ant es
Ġn er
ak t
Ġv amp
ar ed
ipp ed
Ġb ound
Ġo st
Ġtal ent
Ġm its
acion es
Ġfind s
Ġast ron
Ġw and
Ġre act
Ġd b
Ġt ack
w agen
Ġand erson
z el
Ġpos ition
igh th
Ġsup erm
n n
Ġwat ers
Ġgrat is
Ġl isa
Ġstuff ed
d d
Ġcan cel
Ġcathedr al
uc ci
m c
0 6
oy d
Ġhyd ra
Ġmin or
Ġswed en
Ġdes cription
Ġme ets
Ġwed nes
Ġshar ed
ime o
Ġse af
e ch
pl ant
c asts
Ġserv ing
Ġmap le
Ġe f
Ġwr ong
al u
Ġm amm
Ġan a
Ġhar ris
Ġd ang
Ġbund le
r ence
Ġsuz uki
Ġpubl ishing
Ġd ian
Ġall iance
Ġy og
Ġcomb at
Ġmet er
Ġrec on
Ġbrain ly
m ir
r ac
Ġm igr
ch at
Ġs ites
amp ton
Ġmax im
o ise
Ġcroc het
Ġ8 9
v y
Ġcor al
Ġch ess
Ġpol ar
Ġstr ike
Ġcar p
Ġmil es
Ġwalk er
Ġaltern ative
Ġk g
Ġk ot
ap ur
en ia
Ġolymp ics
ming ham
Ġren ov
Ġcomp act
Ġclass es
Ġdest ination
Ġlect ure
Ġsh aw
is an
Ġpar l
Ġnar uto
Ġj ard
Ġgau ge
Ġbr ack
Ġg own
Ġshop s
Ġco ins
yl er
Ġson ic
Ġal aska
Ġv imeo
Ġadv ice
Ġcl ick
Ġaccommod ation
Ġcar ib
Ġdesign ed
our i
Ġs ources
Ġprogr amm
ah l
a ug
Ġlu is
Ġl t
ows ki
Ġg ill
Ġalph ab
Ġex tract
Ġrepl ica
Ġcontain er
op l
Ġk re
Ġgoss ip
Ġsu v
el er
Ġgot eborg
Ġm uk
Ġsp y
Ġstyl ish
Ġrob in
ling ton
Ġterr or
Ġmanufactur ing
Ġlist ing
Ġt orn
Ġk up
Ġc g
x y
ry s
Ġfish er
a q
Ġor leans
Ġ7 00
Ġ7 50
um an
Ġw ag
Ġfr og
Ġd na
Ġrock s
Ġ200 2
Ġwood s
ge on
el o
Ġet hn
Ġbl ues
Ġheav en
Ġsa o
n ic
Ġfl am
m outh
m al
sc reen
Ġi os
Ġbir mingham
oph one
Ġsustain able
ec a
Ġmem ories
Ġmas ters
Ġsm oke
Ġk olk
Ġsat ell
Ġsh im
Ġpot ential
il ities
Ġeleph ant
ur b
Ġ19 50
Ġkey board
ath y
Ġresid ence
Ġc z
Ġred d
ch t
Ġrep ubl
Ġident ity
Ġw it
olog ist
oc al
Ġref orm
Ġdo ct
Ġch ate
Ġwor st
Ġshar p
Ġtechn ologies
Ġdi ary
Ġact ors
Ġm itch
Ġvacc ine
Ġent r
Ġfold ing
Ġe cho
Ġremov al
Ġstart ing
Ġre in
Ġd ell
Ġmat ter
Ġr im
Ġk ul
Ġnether lands
Ġmy lov
Ġtenn ess
Ġag re
Ġin vent
ab ay
Ġclip s
Ġcon g
in el
Ġnorm al
Ġc igar
Ġmylov iew
Ġpl ot
Ġs oup
Ġhe x
Ġmund o
d m
ind ing
h ips
y ou
Ġam p
Ġzill ow
Ġapp oint
Ġcap it
Ġmechan ical
ing ham
Ġbr ist
Ġre ference
Ġpan or
Ġr ush
Ġyours elf
ov ed
Ġchang ing
Ġge ograph
ycl es
Ġ9 2
Ġmont real
n z
Ġdr inks
Ġel se
Ġr ural
Ġorch estra
Ġpat ient
Ġhyder abad
Ġh uff
Ġg uru
Ġbr os
s ky
el ier
Ġc ors
Ġin i
l ib
Ġsurv ival
Ġx box
Ġcr a
pos ters
Ġbik es
Ġanim ated
b ie
Ġansw er
he ast
Ġdeg ree
Ġimpr ove
aw iki
Ġper m
Ġbb q
Ġshe ets
ham mad
Ġown ed
Ġmus lim
w eb
Ġw iz
Ġist an
ens ions
Ġt one
Ġl ily
od ay
Ġmark ets
it em
Ġhomem ade
lad esh
Ġphotograph s
Ġban ks
Ġunic orn
Ġrel ax
Ġpart icip
ic ut
Ġtr an
ur st
im an
id el
Ġb s
Ġl ik
Ġph ill
Ġpower ful
Ġsuccess ful
il er
pie ce
Ġb aker
Ġedit orial
Ġathlet ic
Ġorgan ization
Ġnucle ar
Ġansw ers
Ġhel ic
Ġdistrib ution
Ġcan al
Ġunderst and
end ra
Ġnh at
Ġs es
Ġtwe et
ul ations
Ġse ctor
Ġpo em
ack er
an ne
ab ly
Ġ200 1
Ġv t
Ġrif le
Ġb ust
Ġ2 20
Ġca uses
Ġrelig ion
Ġr up
Ġtenness ee
Ġn ails
Ġs ai
g ov
Ġl ig
Ġlead s
Ġs od
Ġkolk ata
Ġgr o
Ġh et
Ġorth od
Ġa ub
Ġgod d
Ġdip l
Ġsh iv
Ġistan bul
Ġy el
f u
h un
Ġunderst anding
Ġdel iver
Ġclimb ing
Ġsold ier
Ġin iti
Ġplay lists
w alk
Ġwin ners
Ġre fer
Ġpa is
Ġf ew
Ġhe ights
Ġju ice
Ġkill er
Ġwednes day
Ġ9 6
Ġne v
Ġvect eezy
r om
sh a
Ġcre ating
Ġcor p
Ġu v
Ġsw ing
Ġus es
Ġex cel
Ġrabb it
Ġcontr oller
Ġf n
Ġfeat uring
Ġsc ores
Ġnin ja
fl ow
Ġv ie
gl as
Ġvalent ine
Ġres olution
Ġmr s
Ġh ug
Ġexp ans
ats u
Ġstat ement
Ġse par
Ġcast ing
Ġcock tail
Ġesp an
ar at
re c
or ing
Ġwell ness
Ġjon athan
Ġrob lox
Ġsy l
Ġcross ing
Ġpops ugar
ob ook
Ġch ill
am ento
e u
Ġdis pl
Ġcons ervation
Ġintellig ence
Ġsec rets
Ġsh elf
Ġh amm
um ps
Ġr he
Ġgr ab
ac i
Ġbal i
Ġk arn
b ank
10 1
Ġmach ines
Ġg and
Ġsu ite
Ġaustr ia
ather ine
Ġbr ake
Ġbi ological
Ġzero chan
ag u
Ġl ub
Ġre ason
Ġbox es
Ġcharl ie
Ġc ree
Ġdoll ar
id os
Ġposs ible
Ġrich mond
Ġfle et
ag h
Ġr ising
ain ing
ich i
r est
Ġcomm and
Ġam ar
el ia
Ġmar gar
Ġgo als
Ġcert ified
Ġwarri ors
Ġexper i
Ġme as
Ġn ico
Ġide al
anc he
Ġch ir
Ġarth ur
Ġim press
ound s
Ġbang alore
Ġh ij
Ġsu ites
Ġcoc on
bro ok
ast a
Ġ ort
Ġpsych ology
Ġj aw
Ġbang ladesh
Ġins ider
Ġart e
Ġl uck
w s
Ġf usion
Ġcr aw
Ġam y
Ġw yn
Ġgr aff
Ġk pop
Ġm ock
Ġbl ow
as ion
Ġv ase
j un
Ġl od
Ġh t
in um
Ġ ern
is co
Ġnag ar
h ot
Ġsweat shirt
Ġtick et
Ġspec s
Ġmod s
Ġvac uum
Ġwant ed
Ġu ae
ert a
Ġm erm
Ġtim ber
Ġbre wing
Ġm ama
Ġt ill
Ġvent a
Ġbak ery
il ia
Ġindivid ual
oc o
Ġperf ume
Ġpick s
Ġbe ads
Ġdoes n
is ch
Ġr ab
Ġpass ion
Ġet c
Ġrang ers
Ġfind ing
ing e
Ġcat awiki
Ġmary land
Ġs ier
Ġton ight
book s
Ġk et
ent yr
Ġemb ro
Ġren ew
Ġch u
Ġcarl os
Ġre y
k el
ens is
ang o
Ġx iang
Ġdo ing
Ġobs erver
Ġemot ional
Ġvir us
sc enter
Ġg ib
Ġrog er
Ġh und
Ġche aper
Ġj av
Ġbr ig
uk u
Ġjess ica
oy a
Ġwar hammer
ob ile
b ir
8 1
ct ions
w h
Ġmar in
Ġarts y
ap ing
Ġo em
r ics
ph ot
in ch
Ġl ucky
g ets
sav entyr
Ġgoteborg saventyr
Ġgoteborgsaventyr scenter
Ġicon ic
ograp hed
Ġcin em
r f
Ġin ject
Ġk t
Ġwater fall
Ġbal let
Ġgul f
Ġ19 90
p age
Ġt uc
Ġa ks
Ġg b
Ġkir k
Ġre action
Ġt p
Ġp une
Ġtr ay
Ġd ob
Ġl ol
Ġt av
Ġw ir
Ġprogr ams
Ġ19 99
Ġf ount
Ġvene z
ur ai
Ġappl y
Ġtransl ation
Ġm v
Ġblock s
Ġchair s
os hi
Ġun kn
Ġhe y
Ġdisc ounts
Ġsh ips
Ġh end
Ġcon ver
Ġmas ks
Ġturn s
Ġbe c
Ġsup erst
Ġse p
Ġp ec
Ġchron icle
Ġcas ino
Ġlo ose
Ġ19 80
Ġdeal ers
Ġk ai
h m
Ġa ux
Ġme ans
ut t
ad y
Ġfem in
Ġtr ig
Ġcon se
el t
Ġwith in
Ġcomp are
ess a
uc ed
Ġab ove
Ġcod es
ic ion
Ġvolks wagen
le v
Ġembro ider
f are
Ġx in
or row
Ġsal ary
Ġstraw berry
Ġron ald
st ad
Ġsp oon
ap ak
Ġel der
Ġm end
Ġital ia
Ġkent ucky
ent ion
Ġav oid
h and
Ġret ire
Ġk ak
Ġrequ est
Ġobs erv
f ood
l as
Ġpar am
Ġ8 4
Ġle ban
Ġh ak
Ġd ere
h oot
Ġj en
Ġpol o
Ġlaw s
Ġm ood
Ġgovern or
Ġs g
Ġj as
ol y
Ġcond uct
Ġrelig ious
Ġd z
Ġt ote
Ġk ann
is che
Ġab andon
Ġcroat ia
Ġappl ications
Ġsh ir
Ġsne akers
Ġbarb ara
e ed
p ass
Ġtr o
Ġl ayer
Ġforec ast
Ġabs ol
Ġwar ning
Ġhol land
Ġalphab et
Ġdirect ory
Ġr it
Ġtable ts
Ġbud dha
ag an
Ġrout es
ct ic
Ġsun rise
Ġpix abay
Ġb n
Ġcollect or
abil ia
Ġfeature d
Ġsign al
Ġr ope
t ed
Ġbar rel
Ġt ire
Ġhav en
Ġincred ible
Ġd ew
ul i
Ġav ec
Ġg ta
ile d
Ġde k
att an
Ġmin ing
for ce
eb ec
Ġfloor ing
Ġp ian
Ġroll s
Ġcompat ible
Ġs ugg
Ġown ers
Ġg ob
Ġc f
Ġp unk
at ter
Ġe ch
Ġp ale
ci ation
Ġv ul
Ġc uc
Ġ urg
Ġf ol
Ġgl oves
Ġp f
Ġle h
ze ch
h us
Ġunkn own
Ġpop ulation
Ġlaw rence
ah r
Ġw ifi
ol itan
Ġp ins
Ġcolor ed
att i
Ġ9 4
Ġko h
u ters
r ot
3 00
Ġn ose
Ġjud ge
Ġterm inal
Ġc ua
Ġg ender
Ġm ull
ed er
yl on
Ġbott om
Ġcrit ical
Ġfast est
aren ess
Ġsm ash
Ġalm ost
Ġd ella
Ġrom ance
Ġsome one
ic ide
Ġm uz
Ġferr ari
Ġvert ical
as is
un te
Ġg op
Ġmc don
Ġgr ove
Ġ ian
Ġwa ist
Ġsatell ite
Ġneighbor hood
f est
Ġhead s
Ġk ang
let t
Ġcl ash
Ġimprov ement
Ġpr osp
Ġst ills
Ġdev il
b en
Ġmed it
m und
orn ey
Ġad hes
Ġac ou
Ġgather ing
Ġd eng
Ġwall s
u als
g ood
Ġgr ou
Ġaw areness
Ġstret ch
Ġloc ations
ote ch
Ġgodd ess
Ġlov ely
j s
Ġexplor ing
ist or
ul ia
Ġreve al
Ġassoci ates
l ings
Ġca use
Ġthink ing
en ance
Ġhigh er
Ġsur r
Ġa ka
Ġcook ies
id i
Ġsaf ari
Ġb iden
c os
Ġrid ing
Ġart net
Ġkind png
Ġsat in
Ġexpans ion
Ġtur b
Ġmy an
Ġdr one
de al
Ġbr y
Ġjohn ny
Ġn ach
Ġsym ph
Ġlaur en
Ġembroider ed
Ġg ust
Ġz el
Ġsel ection
Ġg s
Ġc ame
Ġsh arma
Ġt c
us al
Ġt l
Ġsp ell
Ġdelic ious
Ġfoot age
ul ous
Ġsyn ony
Ġevery day
em en
Ġs ink
Ġdr ops
Ġhors es
e o
Ġtalk ing
Ġlib erty
at able
Ġseb ast
f il
Ġcons erv
Ġgu ar
Ġpur pose
Ġmo ore
Ġcar go
Ġmin utes
Ġpr oud
Ġcos m
Ġform s
Ġbl ouse
Ġd enn
Ġvisit ors
ill on
Ġrib bon
Ġsw an
m ap
Ġscr ap
Ġz i
Ġshe ep
ik an
Ġgrad uation
Ġr al
end e
Ġcapac ity
ab h
Ġpl anner
Ġp k
Ġtom orrow
Ġcontin ues
Ġwind s
Ġnav ig
Ġbul bs
Ġ15 00
ik er
Ġf og
Ġz oom
Ġth urs
ut ch
Ġhydra ul
Ġg es
Ġe z
Ġveget able
Ġmos c
Ġlock down
Ġbe et
al g
Ġpl ated
Ġbam boo
Ġt et
es y
Ġem ma
cl os
Ġfarm ers
Ġmans ion
Ġbeginn ers
Ġdec ision
as an
Ġpe ach
Ġr ated
Ġmont ana
Ġhav ing
Ġmal ay
Ġmole cular
Ġcrit ic
Ġgym n
Ġstr ugg
Ġp ione
Ġbal d
Ġro ast
Ġse am
Ġpharm acy
Ġdis pos
ha ust
Ġc dr
Ġimm un
Ġbe i
az er
Ġbe ard
Ġsent inel
Ġm oss
Ġchar ger
Ġcom bo
Ġat m
Ġpl um
Ġdou glas
Ġcal c
Ġhar bor
Ġbl vd
Ġsand wich
Ġhel ps
1 50
Ġpod casts
Ġg icle
ig i
Ġem ily
Ġf its
Ġmu jer
Ġcoup e
Ġmat s
Ġsugg est
Ġgicle e
Ġmemor abilia
io let
Ġup load
Ġdesert cart
Ġk ota
Ġprad esh
Ġr over
Ġopt ical
Ġbroad way
Ġr f
Ġp ays
Ġphot oc
Ġw ent
Ġback yard
Ġn bc
Ġmich elle
Ġ13 0
Ġfif a
Ġdef e
Ġed in
Ġannoun ced
Ġfr ost
Ġexper ts
r ob
Ġike a
Ġrank ing
Ġd ates
Ġtr u
d ers
Ġex haust
Ġstar ter
Ġn ights
Ġp anda
Ġch ord
Ġus s
b ase
Ġant ib
Ġr ico
Ġcompon ents
Ġad vis
Ġn aj
b est
Ġoper ation
Ġfav our
cast le
Ġman ila
Ġsusp ension
Ġman h
Ġn othing
Ġlight ning
Ġalle g
Ġk ep
Ġl ah
Ġ2 10
as th
ces ter
Ġgarden ing
read er
Ġdav ids
Ġatt end
ut i
Ġn em
Ġpup py
Ġc act
Ġway ne
Ġden im
ia z
ph arm
Ġp p
Ġmiss ouri
Ġcoast al
Ġdet ached
Ġs ach
Ġmas on
Ġqu ebec
Ġdet ailed
Ġhur ric
20 20
Ġgr ain
Ġsyn th
Ġbr ill
Ġnh l
Ġlat er
Ġs out
Ġbe ars
Ġ9 3
k ie
Ġarab ic
Ġfund ra
Ġt ues
Ġcel tic
Ġbud dh
d c
Ġpre vent
Ġb enn
Ġcam b
Ġjo om
Ġinf in
oll o
sh i
Ġharv est
lim ited
ant ine
Ġl al
r in
z one
Ġdraw n
Ġml b
Ġlov ers
Ġconc ern
Ġclass ics
Ġd ock
Ġz ap
ha o
Ġin ner
Ġillustr ator
on ge
Ġn acional
bo ards
Ġm ma
Ġt art
Ġlegend ary
Ġde port
Ġgr ip
Ġsp ots
f ar
y th
ah o
Ġlib re
Ġcan c
Ġstr at
Ġman or
Ġsym pt
Ġwr iter
Ġpr ize
Ġmonth ly
Ġser ious
Ġag o
Ġat om
c ement
Ġruss ell
Ġgu ys
Ġal ice
Ġext reme
und ai
Ġvis its
ow e
Ġa a
Ġtop ographic
Ġdeuts ch
Ġcertific ate
Ġp x
Ġhold ing
ent y
Ġcarib bean
Ġchate au
Ġpy th
Ġal ert
Ġfe es
Ġsyn dr
Ġcoll ar
ann ed
Ġam ber
Ġplay list
Ġd erm
Ġtrav els
Ġlog in
iss ance
Ġbuy ing
Ġoff set
Ġs our
Ġwr ist
Ġ199 8
Ġsex ual
Ġsail ing
c in
Ġmor oc
Ġbotan ical
Ġpar ade
Ġsh ak
et own
Ġrail road
he art
Ġpast a
Ġaff airs
el or
c ity
Ġw ander
ib er
Ġhow ard
ew ood
Ġre op
Ġcocon ut
Ġv ote
Ġpr ay
ron es
Ġww ii
Ġrom ania
aff e
Ġbeg ins
Ġhud son
Ġtelegr aph
Ġhy undai
Ġgraff iti
Ġchar ter
Ġab u
os o
Ġl uke
Ġvari ety
Ġweap on
Ġv w
Ġup s
Ġs ic
Ġhistor ia
z t
Ġc ach
Ġcurt ain
Ġatt orney
Ġen ds
al is
Ġme al
er b
Ġvol unte
al er
Ġunt uk
Ġsp ons
Ġprofess or
Ġj ab
Ġrap id
Ġdi ed
Ġis a
Ġcarr ier
Ġ8 6
Ġs ight
Ġpromot ion
Ġan h
Ġmt g
ud io
Ġg ary
r ant
in ing
Ġair bn
in ter
mark et
Ġw c
ret t
w i
Ġse an
Ġbe ige
Ġros a
m ill
Ġaudi obook
Ġinter iors
Ġflag s
Ġre ef
at on
Ġh aut
Ġfarm s
Ġchar ge
Ġmetall ic
Ġt ables
Ġbeach es
at ural
Ġh q
op p
Ġis h
Ġn asa
Ġhar ga
Ġbak ing
Ġbab ies
Ġful ly
ern o
Ġg iving
Ġstart s
Ġpot ato
Ġrev ol
is o
Ġfr ames
Ġfill able
ia ble
Ġdep art
Ġassess ment
Ġnick el
Ġd uc
Ġpl ates
Ġd ari
en berg
Ġsw ift
Ġd air
Ġvill as
Ġair lines
Ġg og
cl ipart
Ġc zech
Ġc ube
Ġzimb io
Ġpet ers
Ġtr ag
Ġb unny
d ays
Ġla ugh
Ġkn ee
f ix
Ġscholar ship
Ġdia bet
Ġre uters
Ġbo e
et ts
Ġbik ini
Ġtodd ler
Ġle op
Ġbreak s
Ġagricult ure
Ġbeh av
Ġprofess ion
b es
ur as
Ġchar ity
Ġpick up
Ġdesp ite
Ġv ern
Ġx ia
Ġvi jay
ed o
Ġf on
Ġincre ase
Ġwe ird
Ġglas gow
Ġros es
Ġin aug
ah u
Ġy arn
Ġbol t
Ġper man
Ġt iles
bo at
is y
Ġnorth west
Ġpregn ancy
Ġnew est
Ġegypt ian
Ġjim my
ert ility
Ġec u
Ġbr uce
Ġag ents
Ġass ass
Ġh ollow
Ġcollect ables
Ġte eth
Ġto x
Ġrect ang
Ġrecomm end
Ġsk elet
ool s
Ġsur prise
Ġsp otted
Ġexpress ion
Ġass ault
ak an
p ies
Ġland ing
f eld
Ġv iking
Ġmaint enance
Ġs unny
Ġy an
c ards
Ġmess ages
Ġr amp
Ġcom ments
Ġprin ter
Ġgrou ps
at oes
Ġtak en
Ġthom pson
Ġt iss
Ġdrag ons
Ġam ster
Ġadm ission
Ġcond o
Ġmerm aid
Ġdet erm
Ġtrain s
iv os
Ġbl oss
Ġviol in
Ġne ut
g as
y i
Ġres orts
unn el
Ġcent ro
qu in
Ġtr ick
Ġlist ings
Ġcon fl
Ġqu int
Ġmys pace
Ġch en
Ġor nament
Ġ9 1
Ġpr ix
Ġz ee
Ġportra its
Ġkar l
Ġfact or
ott a
Ġshar ing
Ġsh ad
Ġair pl
Ġcush ion
b h
Ġall tr
im m
Ġcur ry
Ġtim eline
Ġd aw
Ġchalleng es
Ġcr an
Ġresid ents
Ġsier ra
Ġv at
Ġmin istry
Ġdoct ors
Ġmar ks
Ġv ess
Ġho a
Ġfil ip
Ġviol ence
k ap
Ġbr och
Ġresp ond
Ġv ista
Ġhyd ro
Ġt ough
Ġa aron
Ġsimpl y
Ġins ect
Ġmed i
Ġch or
om at
Ġet hi
Ġz od
Ġsyndr ome
on ne
Ġcla im
Ġlabor atory
Ġv ibr
l ay
Ġinf ographic
Ġneed le
Ġsen se
Ġbe comes
u ard
Ġz hi
Ġmount ed
Ġun f
Ġall oy
man ia
Ġshow ing
Ġr w
Ġs ure
Ġball oon
Ġkay ak
Ġpress reader
Ġnash ville
iv or
ic os
Ġset ting
Ġor nam
Ġamster dam
Ġmachin ery
Ġbed s
Ġsh ine
Ġbullet in
Ġbe ats
Ġcr ane
Ġresist ance
Ġpng item
Ġsound s
Ġcat ering
Ġrot ary
Ġcelebr ating
Ġst ones
ill es
Ġairbn b
ah am
Ġbu c
Ġste ak
Ġunder ground
Ġhuff post
Ġall posters
Ġdavids on
e on
Ġk ok
Ġtest s
Ġcook ie
Ġn t
Ġl amin
v ia
Ġpubl ish
Ġher m
itter s
Ġresist ant
Ġre el
Ġbehav ior
am ar
Ġpo or
Ġfr agr
ud o
w ill
au er
Ġdis ord
Ġeffect ive
Ġdeal er
Ġthurs day
Ġpartners hip
Ġr ule
Ġstart ed
Ġal arm
Ġfriend ship
Ġd orm
Ġgr af
ir s
Ġconsult ing
m aker
Ġcyl inder
Ġ8 7
ert e
Ġz d
Ġdol ph
Ġg d
ou x
Ġav engers
r ick
Ġsov iet
Ġh amb
Ġr ut
Ġal ien
Ġz hu
Ġtre asure
is se
Ġre ver
ast ics
Ġ ue
Ġweap ons
Ġsch l
Ġsold iers
Ġchev y
Ġne x
Ġj ol
Ġfount ain
Ġr us
Ġn aut
r us
Ġbe ast
Ġstew art
Ġmar it
Ġconnect or
Ġre x
ab y
Ġsand als
Ġgl uten
Ġrach el
Ġch ance
Ġpump kin
Ġmini atures
Ġjoh ann
Ġorgan iz
cr ib
ier a
Ġcut ter
uk ee
ul er
Ġop pos
Ġcre at
Ġbrist ol
Ġare as
Ġfre qu
st own
Ġash ley
Ġemploy ee
Ġph ones
Ġmys ter
Ġaut ograph
Ġball s
cl ub
Ġcorre ct
Ġpr est
Ġk od
Ġegg s
Ġ16 0
f on
Ġis le
Ġmo ist
Ġs ons
Ġwr ight
Ġd d
Ġtues day
Ġz ur
Ġpast el
v ar
Ġ2 40
ra j
Ġfac ial
Ġid ol
Ġcar a
Ġentre pr
Ġwear ing
ab l
j amin
Ġw p
Ġch ase
Ġest ately
Ġburg er
Ġsc out
Ġbor row
Ġovers t
Ġmed pharm
r ent
Ġmedpharm res
Ġmo h
ath a
is b
app a
Ġtriang le
f oot
Ġm oth
er os
a ic
Ġk ara
Ġam or
Ġinv ol
Ġp uff
iat ric
Ġin come
Ġban ana
od el
ot r
Ġpeng uin
Ġm ate
Ġ14 0
Ġk amp
Ġcountr ies
ard i
Ġp all
Ġsun sh
om in
Ġme h
Ġmass age
Ġb ella
Ġbu kal
it os
Ġmerc ury
c ont
op ic
Ġl over
Ġwa it
Ġcan on
Ġalltr ails
Ġgr oss
Ġchild hood
p ower
Ġsal mon
Ġd uke
Ġscre ensh
Ġbas il
Ġtamp a
Ġfac ult
Ġs izes
Ġs ult
Ġcol umn
Ġbukal apak
Ġedin burgh
ic ed
ic ian
Ġsh am
Ġi w
Ġ19 95
Ġprec ision
olog ia
4 00
Ġbelg ium
Ġth orn
Ġh ua
Ġgr iff
Ġlin en
char ge
Ġq ld
ol ine
Ġpurch ase
Ġmor ris
Ġso le
Ġd ir
Ġtransport ation
y d
yl l
Ġgund am
Ġqu ilt
Ġmin eral
cl a
Ġmich el
Ġdair y
anc ing
Ġver d
Ġsurg ical
bar u
Ġgorge ous
Ġem erald
Ġafghan istan
Ġm ong
Ġrum ah
Ġag es
g ard
Ġl m
Ġvamp ire
Ġmult icol
u o
ach us
Ġany one
Ġl ung
Ġshe ph
Ġmov es
ent r
Ġch arts
Ġgu jar
se e
Ġgu it
Ġrest oration
Ġyel p
g m
Ġcl iff
Ġmosc ow
Ġs ort
pt y
Ġalt itude
Ġbet h
Ġindepend ence
ah i
Ġ ich
ast ock
Ġsav ing
Ġas c
Ġfix ed
air ie
Ġle ak
Ġunve ils
' d
Ġaut ographed
b el
k ok
Ġj ug
Ġcr ab
Ġo val
Ġcontin ental
Ġset t
Ġsur pr
Ġfind er
Ġh ul
Ġt yler
Ġpark er
Ġscoot er
Ġact ually
Ġethn ic
h ub
Ġan os
Ġse v
Ġebook s
Ġint el
Ġtow ards
Ġde an
Ġcem et
Ġhaw k
ace ae
em es
Ġa o
Ġdom estic
Ġb d
Ġlip stick
v ents
oll s
Ġosc ar
Ġup on
Ġg mb
Ġmits ub
Ġtib et
Ġg ps
av ed
an as
Ġsch w
Ġdev ices
enc ing
Ġp owers
uc a
Ġb ure
ous es
Ġgr oom
Ġ199 7
Ġv ap
Ġkey s
Ġcoun s
Ġdistrib ut
Ġlin ks
Ġd ag
l am
Ġj ade
Ġl ich
Ġm ing
igh ters
Ġag u
Ġle is
Ġbatt les
Ġchap el
Ġv and
Ġlan tern
Ġoper ations
Ġv et
Ġcre ation
Ġf en
g irl
Ġbroad cast
Ġvin cent
Ġclean er
Ġgif s
Ġact ual
en burg
Ġq ing
Ġarab ia
Ġber ry
Ġj h
Ġpunj abi
Ġhal o
pl ash
Ġven ice
Ġredd it
Ġhydraul ic
ob il
Ġapp re
Ġins ights
Ġr x
Ġseaf ood
Ġp ab
Ġth ir
Ġv es
al m
Ġtransm ission
f ind
i ja
Ġv ice
Ġr unner
Ġsp ice
Ġun ity
Ġmitsub ishi
Ġtr ap
Ġst on
Ġrak uten
Ġdes c
in et
Ġs oy
ot i
h ome
gr ad
Ġtur tle
Ġre vis
r ock
Ġdanger ous
Ġgord on
Ġcom un
Ġcra ig
Ġcemet ery
Ġed itor
Ġstrateg ies
Ġs ushi
um s
Ġarch ae
Ġn ations
Ġlar astock
Ġc out
Ġe j
Ġkn ock
Ġsis ters
Ġal ive
Ġinstr uct
Ġrefr iger
ern ity
6 00
Ġlouis iana
ah ub
ue z
Ġk end
Ġstre ets
Ġacou stic
osc ope
as tr
Ġnewsp apers
ist ani
Ġisol ated
Ġlo an
Ġrh in
Ġbl onde
Ġr ough
Ġfound er
Ġrock y
Ġw en
Ġbuck et
Ġlot us
h at
Ġh ide
Ġgall eries
Ġcolumb us
or th
Ġg in
erg y
Ġmit ula
y tr
Ġg ale
Ġex otic
Ġsac red
Ġtrans it
Ġf aux
Ġol iver
Ġche er
Ġcontr overs
el ect
Ġdam age
Ġch rys
co in
Ġro ots
Ġev ans
Ġv il
Ġbott les
Ġr ash
Ġdu o
ind e
itt ee
Ġmut ual
Ġv ans
Ġshang hai
Ġfant astic
10 80
Ġn it
Ġcamp bell
Ġtransform ation
b ia
Ġadap t
Ġfe ather
Ġjack ets
Ġunt il
Ġte k
Ġp anc
pl an
Ġmethod s
Ġ10 5
Ġl af
Ġk eb
Ġd iving
Ġmyan mar
Ġn elson
Ġde ar
Ġwee ks
av o
Ġsympt oms
Ġced ar
Ġci ud
Ġplat inum
Ġabandon ed
est ry
w ind
Ġphil ip
ul s
qu ote
Ġclassified s
p en
Ġbul b
Ġchar ged
Ġs ick
Ġk ah
Ġtrail ers
x l
w eg
Ġsyn t
Ġpres chool
aw an
j ourn
ip h
ipp i
Ġg ala
ou ds
Ġr oc
ul o
Ġ8 2
Ġrom a
Ġscar f
m ins
Ġt int
Ġar d
Ġg ap
ic he
Ġal c
Ġpregn ant
Ġins ight
j as
Ġph ant
l av
ad an
thr ough
Ġbern ard
st yle
est r
Ġref uge
Ġgov t
Ġh atch
Ġsim ulator
ind ia
Ġsynony ms
Ġa im
Ġr p
d og
Ġconvers ion
cc ion
Ġsus an
Ġph en
Ġ199 6
Ġwr itten
j in
Ġant ig
Ġob l
Ġtherm al
Ġind ic
Ġsu ch
Ġandre a
Ġq atar
j p
Ġmo z
Ġis n
i u
ph ones
bu ild
d ar
Ġpar ish
h all
Ġbel ieve
im ap
Ġsuper h
Ġe w
Ġs ara
Ġinf inity
Ġfigur ine
Ġe ve
e ce
ing en
Ġd ame
Ġkaw aii
Ġout line
b in
Ġaccord ing
Ġentrepr ene
ien ne
z on
Ġmar g
Ġd p
Ġlab els
Ġmed itation
Ġn ay
Ġ 000
Ġf ence
Ġcl amp
Ġus d
Ġkey chain
j os
Ġhairst yles
Ġband s
Ġqu an
u er
Ġz ak
Ġpyth on
ou red
Ġbel ow
Ġd ye
Ġm h
Ġwe alth
Ġb ub
Ġg est
Ġtr icks
Ġ8 3
Ġth es
ath ers
ca a
Ġadhes ive
Ġhapp ened
Ġo ven
Ġtr ophy
Ġg one
Ġn un
Ġadv oc
Ġexpl os
az ar
Ġse asons
Ġpad s
h ard
Ġfo il
ond o
Ġdr ied
iv ely
Ġcommun ities
Ġdef ence
Ġtow el
ec ca
Ġc ac
n u
Ġbl end
dr op
Ġgr en
Ġcustom ized
Ġe ats
Ġe ug
Ġang ry
Ġj ail
Ġcomm ittee
Ġmitch ell
Ġjam ie
Ġspoil ers
Ġbr ow
Ġnew castle
Ġsc oop
Ġon es
t z
Ġf f
Ġwonder ful
Ġoverst ock
Ġrece ives
Ġfrank lin
re g
am on
Ġnur se
in th
Ġl ighth
Ġperman ent
Ġkill ing
Ġhigh est
Ġm ash
Ġiv an
Ġg inger
Ġch ak
Ġy ug
Ġstation ery
Ġs ind
Ġws j
Ġeag les
d eg
Ġb ast
Ġtechn iques
Ġass ort
Ġmat ters
Ġbr ut
Ġsky line
Ġge om
Ġleban on
Ġw ake
Ġassist ant
gu ide
Ġfarm house
Ġf ung
Ġpd ff
Ġmass achus
Ġrest r
Ġch ips
ath i
Ġz o
Ġex ist
Ġpak istani
Ġbear ing
Ġesp ana
Ġs ocks
Ġste em
Ġupgr ade
Ġm isc
Ġzh ong
Ġge ometric
Ġh ugh
ac ia
is en
Ġleis ure
Ġ12 00
ent a
Ġf oll
Ġnat al
Ġk av
Ġmassachus etts
ell es
Ġle o
b ra
Ġnew born
Ġcontin u
Ġ199 4
Ġspl ash
Ġsleep ing
Ġlist ed
Ġ3 65
Ġconst it
j ee
Ġmass ive
uck er
st en
Ġpdff iller
anth a
qu ir
ens on
Ġgmb h
r obe
b d
Ġinj ured
Ġcarn ival
ad h
od s
k at
Ġrob erts
Ġcn c
Ġen amel
Ġwhis ky
Ġfour th
Ġc ork
Ġstr and
ott o
Ġw er
r ik
Ġk op
d aily
Ġm ou
Ġg iven
Ġ ie
Ġtrack s
Ġfr act
Ġv l
Ġmick ey
str om
Ġf eb
Ġinv it
Ġbill y
Ġcred its
Ġmig uel
Ġacc used
Ġbum per
Ġen ough
p on
Ġdi ario
amb a
Ġser ie
g ame
Ġdi x
Ġsh ri
Ġnue vo
Ġcact us
Ġd x
Ġtr ab
Ġsub m
Ġterr ace
ul y
Ġk auf
f olk
inn y
Ġg ain
Ġalumin ium
iv an
Ġven ues
Ġmo ham
l ari
Ġguit ars
Ġd ung
Ġk ob
ope z
ess ions
te c
Ġbi en
Ġhil ton
Ġcoach ing
Ġ ome
Ġy ak
Ġh ass
Ġp att
Ġper th
al on
Ġdest imap
Ġexp ed
Ġir aq
Ġh ose
Ġdownload able
om on
Ġfarm ing
Ġzod iac
Ġfl ora
Ġi le
Ġfin n
Ġintegr ated
Ġcor ps
Ġmu hammad
in ated
Ġsub aru
Ġk yle
Ġ199 2
w ap
Ġh ate
Ġj og
Ġstamp s
Ġmot o
Ġk v
Ġsh an
Ġak t
Ġall ow
Ġhelic opter
Ġhigh land
aur us
Ġk ard
Ġj ava
Ġun limited
ew ell
Ġland s
Ġro ok
Ġwhe at
Ġmil wa
Ġroad s
Ġr ica
Ġter baru
Ġman if
Ġimm igr
y u
Ġwal ter
Ġk es
Ġwal let
iv als
Ġcomp re
Ġis ab
Ġbib li
Ġscr atch
Ġp est
in ct
it ory
Ġpe an
Ġac res
Ġwe i
Ġw n
Ġpract ical
Ġherb al
Ġgu o
Ġth rones
Ġcontr ib
cl es
Ġtown s
Ġto e
Ġsh u
Ġor al
Ġmedit err
ut an
us er
Ġox y
Ġtr iv
Ġinclud es
Ġm ey
Ġphilos ophy
Ġg ly
Ġ978 14
im ages
Ġso il
h ow
Ġth i
oll a
d k
Ġic eland
Ġfun ko
Ġcollect ive
Ġbl ess
Ġ19 40
Ġdyn asty
i ot
Ġmetrop olitan
Ġco ord
Ġciv ic
Ġpr ior
Ġv ib
oc ar
Ġcomp ut
Ġv ip
Ġfif th
Ġdocument ation
Ġpul se
Ġfund ing
asc ular
Ġste v
Ġbe am
Ġfoss il
at z
Ġgr aham
Ġtre as
h of
Ġan gh
Ġsit ting
Ġpr ost
Ġv all
Ġmarath on
Ġdev on
app y
Ġmar co
Ġgent le
et on
Ġhurric ane
Ġk ual
Ġdyn amic
ph y
ott i
Ġ978 15
Ġv ida
Ġsebast ian
Ġdrink ing
Ġgam er
Ġpunj ab
Ġrem ove
l ik
Ġv ille
Ġsunsh ine
Ġtry ing
Ġto ok
Ġhou zz
ac on
Ġdr am
Ġsign ific
Ġtrib al
Ġmag ical
in y
Ġspe ak
Ġj erry
Ġintern al
ic ient
Ġflo ating
Ġt end
Ġk ub
as ters
Ġlev els
Ġv od
Ġcons ole
Ġprocess ing
Ġcre ator
Ġfun ctional
Ġsain ts
Ġark ansas
Ġcom press
ay e
Ġs ights
id ades
Ġconvers ation
Ġlaw yer
iv el
ark et
Ġc ic
Ġflex ible
Ġden mark
Ġbish op
ar ak
Ġabb ey
om en
Ġv y
Ġt old
Ġcongr at
Ġvan ity
tr uct
Ġno ise
Ġad ds
Ġcre ations
and y
z n
Ġf b
Ġac cept
p es
Ġem per
Ġcin c
Ġprotect or
ass y
arn a
qu is
k on
im ir
Ġhom ework
Ġg ong
Ġcor v
Ġentr ance
Ġv ig
Ġsan ct
Ġd n
Ġretire ment
Ġar ctic
Ġfac ility
ij e
b it
Ġfr y
at os
m ate
Ġsh ift
Ġmart ial
ar am
anc a
Ġcy pr
Ġhold s
Ġalum ni
im mer
Ġmilwa ukee
Ġwatch ing
en za
and ra
r ome
Ġsub st
Ġsp onge
Ġgu il
Ġsu its
Ġspir al
Ġcar ved
Ġco il
Ġtw ins
Ġshow case
Ġ199 3
Ġb are
Ġemploy ees
Ġla und
Ġl cd
mus ic
Ġmil itar
Ġder by
Ġgoth ic
s s
in als
Ġbusiness es
3 60
ic it
Ġpan els
Ġv u
Ġmod i
Ġcr es
Ġconsum er
ic ally
il ation
Ġbi j
Ġform al
et i
Ġthe med
Ġhar bour
Ġalf red
urg a
ter ia
Ġalle ged
Ġcoll ins
at ra
Ġimag ing
Ġfacult y
b ee
Ġdisp ens
Ġang els
Ġbo oth
g iving
ad ing
Ġstan ley
d an
Ġsumm ary
Ġrena issance
Ġsh ade
Ġcosmet ics
Ġdiv or
Ġs ik
al an
ok i
Ġline ar
h p
Ġtell s
Ġh oy
Ġcontin ue
Ġpack s
Ġarr ang
iam ent
at em
Ġdig it
Ġbo ards
r ina
Ġing red
Ġm oor
Ġbedroom s
ant o
Ġse k
Ġbrazil ian
Ġap pe
Ġem pty
Ġal am
Ġh ari
Ġb ons
Ġw t
le ction
Ġch ester
Ġz am
Ġe cl
Ġgr up
Ġcl as
z an
Ġn ie
Ġp ork
Ġsup plement
Ġhum or
Ġmur ray
Ġun its
r t
Ġf id
ev es
Ġno i
ill as
Ġarc ade
r ie
z ed
Ġplay station
Ġdoc s
Ġstr ange
az i
Ġbet a
Ġser ge
Ġcub a
mar ks
Ġl up
Ġtel esc
Ġmahar ash
und a
ist ro
Ġste in
Ġiv ory
Ġ199 1
ri que
Ġ3 000
Ġk x
Ġphotos hoot
Ġc air
Ġd us
Ġn ost
ch air
h in
Ġl ose
Ġol x
Ġtrip s
Ġgame play
2 50
Ġhamb urg
Ġsam urai
Ġsh amp
Ġvisit ing
Ġfin als
Ġyu an
Ġgre ens
ary a
h ir
Ġlin ux
Ġmo i
Ġar qu
ig ur
Ġjul ia
Ġauthor ity
Ġv lad
Ġtrad ition
Ġcitiz en
Ġan ak
Ġ19 69
Ġpersp ective
Ġ4 50
Ġp ud
em i
Ġ19 68
Ġg erm
Ġesp n
Ġthous ands
ad ol
Ġp aj
Ġno ir
ic as
Ġhos ts
Ġf y
Ġdr ain
Ġpred iction
f y
Ġy um
Ġl ions
Ġrank ed
Ġp us
Ġg c
Ġkn ot
i q
Ġexper im
Ġab use
Ġtr ac
Ġcar ter
in os
Ġinv itation
od or
Ġhaw ai
anc o
at en
Ġcolon ial
Ġma is
Ġpatr ol
Ġst a
Ġreport ed
Ġp ouch
Ġreg istration
Ġspecific ations
work ing
th a
Ġcomm ander
Ġcinc inn
Ġkee ps
Ġal one
Ġk ut
Ġj ie
Ġinvestig ation
tr ack
b ay
ul um
lo e
Ġmang o
Ġhol ly
Ġpr icing
enc ed
Ġcod ed
Ġev idence
Ġext ended
Ġr uth
sh irts
Ġkar en
Ġw ak
Ġsou ven
Ġph u
Ġl g
Ġwel ding
Ġtr ending
Ġy ank
Ġj elly
Ġman n
Ġt ian
app le
Ġt f
Ġlov es
Ġleg s
Ġor g
Ġairpl ane
Ġn ir
Ġb ian
Ġth umb
i ar
Ġd ice
other apy
as ant
Ġd ys
Ġparl iament
Ġh ag
o ire
Ġl ots
b ad
Ġconnect icut
Ġamb ass
old s
Ġsult an
rel la
Ġh m
ici ency
Ġcla ire
Ġpre f
Ġangh ami
Ġinstr uctions
Ġc ec
Ġcover ed
Ġplay off
pr op
Ġchamp agne
Ġturn er
v ac
Ġpal est
Ġdep th
Ġl j
Ġne o
Ġc age
Ġf asc
Ġadv ance
Ġvit amin
Ġy as
Ġsing ing
Ġfavour ite
Ġan x
anc er
Ġwar ren
Ġf ender
Ġmad h
ann i
Ġdivers ity
Ġt shirt
Ġpal ette
Ġk ia
Ġlighth ouse
Ġut ility
Ġpublic ations
Ġdocument ary
c am
i ate
Ġal s
Ġreun ion
Ġkn ights
Ġstr oke
Ġvoy age
Ġdess ert
j ack
Ġcincinn ati
Ġmob il
b ek
Ġcou ples
Ġchampions hips
ee per
Ġcl ouds
Ġl uk
Ġcha os
Ġr anger
and e
k m
Ġsl ides
Ġfel t
Ġz um
Ġerr or
Ġadd ed
Ġdre w
Ġj unk
Ġsecond ary
Ġter ry
Ġagre ement
usal em
Ġstere o
Ġpo ems
Ġcour ier
Ġam ph
Ġal ter
Ġl oy
ari os
Ġmid i
Ġpik png
Ġnev ada
Ġip l
Ġd ive
cl ass
Ġfor k
Ġev angel
Ġmiss iss
Ġadv ant
Ġj ets
Ġben jamin
Ġf ields
Ġhed ge
Ġp ov
eb e
Ġral ph
Ġjama ica
Ġb ash
Ġaver age
Ġch ad
Ġperson ality
Ġbl ast
Ġne il
Ġsk ys
Ġrep e
Ġper ry
our t
Ġhel m
Ġ198 9
Ġfin land
Ġad or
Ġar bor
Ġpan ama
Ġlind a
Ġpyr am
Ġmathem atics
en y
Ġmediterr ane
Ġla ure
Ġcup s
Ġv ital
Ġaccess ory
Ġt b
in ho
Ġre pt
Ġchang ed
Ġl iga
Ġsheph erd
Ġle eds
Ġver de
Ġam anda
Ġbh ag
Ġexplor er
Ġev al
Ġle ver
azz i
or ph
ign ment
Ġst air
Ġorch id
m ah
d les
Ġnico le
b as
Ġspe akers
Ġrecept ion
Ġne br
Ġsam uel
Ġsn ack
Ġinclud ed
Ġluc as
Ġorthod ox
Ġpin clipart
Ġmat rix
Ġin ver
Ġgl ory
Ġdib uj
at in
Ġcor ona
Ġbe ij
Ġgod s
Ġv iolet
Ġgar cia
u ana
Ġgu ild
Ġuns plash
Ġd ome
ess e
Ġim pl
Ġfeel ing
ern et
Ġbul gar
Ġgradu ate
Ġf erry
Ġqu iet
Ġcl utch
Ġbroch ure
Ġsymph ony
Ġmarsh all
Ġr in
Ġpack ages
n is
Ġw ines
Ġm im
Ġsp ear
Ġabs or
Ġbrack et
Ġt ask
1 10
Ġsup erc
Ġmunicip al
Ġgran ite
on na
Ġchron icles
bl o
Ġnav al
Ġj ake
g ames
ic io
Ġwh ale
Ġmonitor ing
Ġnot re
Ġsp aces
at ur
Ġjer usalem
Ġhe ating
Ġl ime
Ġw aves
l ot
Ġch ibi
Ġp ing
Ġnot ice
Ġras p
Ġpen ins
Ġprof it
Ġtrain er
Ġb ert
Ġgramm ar
Ġel im
Ġsil ent
Ġsh iva
Ġgabri el
Ġdrug s
1 20
Ġmej ores
Ġd t
Ġgian ts
Ġciud ad
ult ure
Ġad ams
Ġgon z
Ġmark er
Ġepis odes
Ġda o
Ġautom ation
Ġev ol
ro e
Ġm ast
Ġorient al
Ġag ed
Ġbarb ie
Ġqueens land
n ell
Ġlight weight
Ġc af
Ġgo at
Ġw oven
Ġcamp s
z h
Ġst u
i w
Ġcool ing
Ġlaun ched
Ġreg ul
Ġr end
Ġrev erse
Ġhoriz on
ar us
Ġbit coin
Ġl v
20 19
Ġx s
pr es
ach a
he et
Ġpione er
Ġdeng an
Ġclub s
Ġcr uc
Ġsymbol s
Ġsnap deal
Ġfal con
all ow
Ġi h
Ġflor ence
Ġburn ing
Ġair s
Ġhamp shire
Ġ19 30
ood les
Ġest e
Ġfut bol
Ġb isc
Ġle ase
w er
Ġp iet
Ġspe aks
Ġbul ld
l io
Ġcover age
Ġem ir
Ġdis app
m ans
Ġcartoon stock
Ġl oud
Ġid aho
Ġr b
Ġcr o
ich t
Ġniger ian
Ġofficial s
Ġlay out
Ġfr ases
Ġz omb
Ġpir ate
Ġclos et
Ġmalay alam
Ġp ue
Ġfed er
Ġdak ota
Ġw v
Ġcir ca
em pt
ew alls
Ġmar i
Ġpist ol
Ġh ac
Ġmay a
Ġbar ry
Ġfa uc
Ġ2 30
Ġbang kok
Ġbob by
Ġclear ance
eg a
Ġbr oo
Ġch ur
Ġwire d
Ġke ith
Ġsuper man
se x
Ġnet works
Ġl ite
se arch
Ġank le
ut ter
Ġmotorc ycles
Ġkun st
air es
Ġsp icy
ev a
br ite
Ġdestin y
Ġout s
Ġbegin ner
Ġte cn
Ġtr ivia
Ġspir its
Ġs ard
Ġmississ ippi
1 000
Ġh ike
Ġind igen
Ġnebr aska
Ġmaharash tra
atch i
Ġword press
Ġs age
Ġfire f
Ġpuzz les
Ġtrack er
Ġal to
Ġc uff
od ia
Ġsuc cul
Ġmos que
y stem
op es
ov an
and i
Ġnor man
Ġj ue
Ġfin ale
Ġtox ic
he e
Ġbas ics
Ġimg flip
Ġlow est
Ġf ellow
Ġ19 67
Ġlow es
es ha
Ġbi od
eng a
Ġc ogn
Ġcott ages
Ġca ught
Ġpor ter
Ġpos e
Ġret reat
un i
Ġtr ong
Ġfr ag
at aka
Ġb erm
Ġd iana
Ġshamp oo
Ġannoun ce
Ġcommun ications
Ġted dy
Ġgr ape
le m
Ġtom b
Ġsuper ior
Ġtrack ing
Ġeur opa
en as
Ġmight y
Ġre vel
Ġminimal ist
Ġprogram me
Ġwis dom
Ġspect rum
Ġsh akes
Ġinfl atable
Ġaqu a
et ime
Ġvi enna
Ġmet e
Ġnear ly
uit ton
Ġtr es
it als
Ġtr ium
s v
Ġd ale
Ġexp and
Ġreal istic
p ir
Ġcr unch
Ġmin im
Ġhapp iness
Ġrecre ation
Ġdem o
Ġbloss om
Ġped ro
Ġinf ras
Ġorgan izer
Ġsuperh ero
Ġlim it
k ov
Ġz ag
Ġhel ping
Ġp ied
Ġse as
Ġtom my
Ġf oster
f re
Ġ19 00
Ġhear ing
k ir
Ġwal nut
Ġtitan ium
Ġord ers
Ġm og
Ġr amb
Ġn ig
Ġv uitton
Ġfix t
Ġpart ies
Ġmax i
Ġmicros c
12 5
c ore
m n
or ld
Ġr ue
Ġsoft ball
eb ra
Ġe au
Ġt iff
Ġlar ry
Ġfly er
g reen
pl ing
Ġf ee
Ġim plement
Ġe id
Ġv ed
Ġsmart phone
d al
Ġsant i
Ġkash mir
Ġc ement
Ġturn ed
Ġproduct ions
Ġ8 1
Ġpeek you
Ġraj asth
ter a
Ġp ne
Ġtok opedia
sh ore
ub s
st ream
read y
Ġn ylon
Ġmod es
Ġmarc us
Ġfl ame
born e
m u
8 00
Ġv ang
Ġcorn wall
Ġg f
Ġbel fast
Ġo ber
Ġw end
co al
Ġprop s
Ġd art
Ġocc up
Ġbach elor
Ġdi w
at r
Ġn caa
Ġphotograph ers
Ġgr a
af a
12 00
Ġk ost
Ġr pg
Ġch uck
Ġprogramm ing
x i
ink a
Ġnas car
Ġd war
Ġw ah
b ound
Ġc atherine
Ġpat ent
Ġsynt hetic
Ġp itt
Ġdeutsch land
Ġstep han
Ġrum ors
Ġtom ato
h orn
Ġkat ie
Ġbuild er
Ġsteem it
che t
om er
st re
es ign
Ġbar ber
g am
Ġhand bag
ang i
pl er
Ġphilipp ine
r od
Ġch eng
Ġalle vents
Ġrepl ace
Ġkn ives
aj an
Ġra ise
ar re
Ġp ope
Ġresp ect
Ġm cl
ac io
hol m
9 00
dr aw
Ġprotect ive
Ġcrim inal
ern al
Ġform ation
f un
Ġ198 4
Ġskate board
Ġboe ing
Ġrou ge
Ġimport ance
Ġpr iest
Ġsid ed
Ġmerc ado
Ġr uff
Ġsel ected
Ġcond itions
Ġcon te
m od
Ġb ard
um ber
Ġbat ter
Ġ9 25
Ġprim er
Ġl ump
m ates
Ġj ia
Ġmat tress
Ġl ets
Ġst ol
am ine
Ġne u
Ġl una
Ġd anny
Ġp ou
ign e
pix el
Ġany thing
Ġbr om
Ġbec ame
Ġle aving
Ġyour quote
Ġcr us
Ġpenn y
Ġy uk
Ġble acher
Ġge ography
Ġcirc ular
Ġeval uation
Ġaur ora
Ġar b
j es
aj o
ew are
3 50
and ez
Ġkle in
g ary
Ġwor ship
Ġ19 88
Ġpers ian
Ġpast or
Ġjosh ua
Ġv or
Ġun lock
Ġex port
ic on
Ġdiabet es
Ġnum er
bo ys
Ġoffic ers
Ġf ax
Ġed u
Ġd ens
Ġm ub
Ġnin os
w he
Ġt ight
b ug
Ġf illed
Ġsc hem
Ġn ol
ic us
Ġjer emy
Ġl opez
he alth
Ġpas o
Ġspecial ist
Ġj p
Ġevent brite
Ġpenins ula
com mer
r ag
Ġlov ed
Ġjard in
Ġworld s
Ġbi om
Ġadmin istration
aw i
Ġh oc
Ġpre vention
Ġstand s
Ġjum ps
Ġh ort
Ġev a
Ġsa atchi
Ġsk ins
Ġsouth west
Ġmons ters
Ġch im
Ġsalv ador
Ġtr inity
Ġearth qu
Ġel f
ank ar
ad ores
Ġassoci ated
Ġse vent
Ġc ure
Ġo ch
sh ot
Ġhud l
Ġat r
Ġprov inc
Ġch ains
Ġbrew ery
Ġmas cot
Ġcas c
Ġex tern
Ġbi os
ys ter
12 3
ab s
Ġexhib it
Ġk obo
Ġd ing
ad ia
on ica
Ġtutorial s
Ġb ree
Ġjul ian
Ġhel en
Ġr r
Ġcard i
Ġconc entr
Ġd ump
ass ic
Ġs aga
Ġfre el
Ġed en
Ġin hib
Ġte ahub
ycl ing
Ġh c
Ġdenn is
Ġdeb ate
Ġsh o
uk h
Ġbe z
Ġshe d
Ġmotiv ation
c ano
Ġbapt ist
journ al
Ġspecial ty
Ġt d
Ġch un
Ġgu ine
Ġopen er
Ġpass enger
Ġla ud
Ġrecruit ment
Ġug anda
Ġmos aic
Ġpe ac
truct ure
Ġa e
Ġch lor
Ġintroduc ing
Ġunder water
Ġkiss png
Ġnost alg
ab is
Ġnich olas
Ġnor folk
Ġre us
ar in
Ġmanh attan
Ġleop ard
Ġhe ather
Ġhung ary
Ġiniti ative
or gh
Ġoxy gen
est i
Ġmon aster
Ġclean png
Ġmod ular
Ġmaz da
Ġfal se
Ġcamer on
Ġtes la
Ġgene al
em ia
of it
Ġd edic
oth y
r it
des igns
Ġbeij ing
Ġflav or
Ġcat er
Ġbas in
Ġk c
l ink
Ġcompr ar
sh an
Ġbar k
Ġsch war
Ġfu j
og ne
Ġcollab oration
Ġq i
Ġ1 78
Ġome ga
Ġrev ers
Ġp g
Ġ<> ,
Ġh k
Ġt ies
Ġrome o
Ġant iqu
Ġoff ices
Ġcart e
Ġbr an
Ġtravel er
Ġse aled
Ġrequ ire
Ġsk u
Ġwal ks
Ġde i
Ġmill s
Ġpng set
Ġj ap
Ġat v
Ġskelet on
Ġthan h
Ġmcdon ald
Ġnord ic
Ġbr isb
Ġphotos hop
Ġen ding
Ġconst ant
it ial
Ġhead lines
Ġm op
Ġm w
Ġh ern
Ġloop net
Ġlink ed
Ġe h
Ġsecret ary
Ġsac ram
Ġsmok ing
Ġmuseum s
at u
are z
Ġ17 0
enc ies
Ġcollab or
if a
Ġpix els
Ġpre ci
Ġlaund ry
Ġturn ing
Ġg av
w ig
Ġf ell
Ġbh k
o ja
Ġou ter
Ġdead ly
ed ing
Ġdest roy
Ġbrisb ane
Ġt unnel
Ġt ing
Ġpol ic
Ġp oc
Ġd ab
Ġre ject
Ġtur qu
t imes
st an
Ġset up
Ġkee ping
Ġgas tr
Ġengine er
ink le
Ġlong er
Ġveter an
Ġtw ytr
Ġtem p
Ġne p
Ġl c
b b
Ġx ing
ur ies
ib re
Ġre ed
ew ear
Ġbj p
Ġkarn ataka
Ġwin n
Ġhood ies
Ġicon finder
Ġtr ent
Ġfl our
Ġbell y
Ġtrium ph
Ġexp o
Ġvolt age
Ġdep ut
Ġconfl ict
Ġt aj
Ġthanks giving
Ġf x
Ġm iy
Ġbill board
Ġmix er
est rian
Ġtop per
Ġkenn edy
Ġno ah
Ġsy ria
Ġkur t
or u
Ġtig ers
man uel
Ġ3 20
Ġdispos able
Ġr oth
Ġdirt y
av n
c io
Ġi q
Ġmod ified
Ġpup pies
Ġy ah
Ġw ise
Ġm ia
Ġrod rig
Ġchar ges
Ġs amp
ub er
Ġopportun ity
Ġleg ion
Ġdel ay
Ġplay ground
Ġch ow
Ġd ed
Ġz w
Ġpet e
ices ter
k w
oty pe
p ol
Ġswed ish
Ġgi ov
h ra
Ġath ens
y am
Ġtour ing
Ġod d
Ġbrand on
Ġfle ece
Ġmatch ing
ul us
Ġ16 00
Ġmov oto
Ġjo el
Ġ11 5
Ġemper or
Ġant enna
em or
Ġr ams
Ġelect ions
Ġw im
Ġdi en
Ġc ine
Ġsch m
Ġpass es
Ġward robe
ace ut
Ġus ers
Ġfr uits
Ġc ai
Ġcompre h
Ġbank er
Ġle ast
Ġtur ismo
Ġrecord ing
Ġveter ans
Ġall ah
Ġjag uar
Ġinspir ing
p ear
Ġkind erg
ian ces
Ġsl ov
v or
Ġhe b
ass o
Ġbung al
Ġst im
Ġgr un
m edia
Ġbr itt
Ġro h
Ġax is
Ġpa id
esh ire
Ġho op
Ġred uc
t ober
Ġtr io
Ġrem ains
Ġwell s
Ġbr ides
Ġmal ta
Ġf is
Ġn athan
Ġsam ples
Ġsh ots
Ġprep are
Ġid le
Ġessential s
Ġz ar
Ġtap estry
Ġst ir
Ġgu an
Ġh ier
let ter
Ġd ah
Ġdoc uments
Ġlab s
s g
Ġphant om
Ġa ston
ym ph
al p
Ġq uran
ist le
Ġexperi ences
Ġpl umb
Ġvess el
Ġout look
Ġ198 7
Ġman us
Ġfed eration
Ġtrend y
Ġpne um
Ġsail or
Ġwrit ings
w here
Ġh ers
Ġkl ipart
Ġgu ided
ill ion
Ġneg ative
Ġcatal ogue
Ġeur os
Ġgr os
Ġed die
ous ly
Ġcitiz ens
Ġen ch
Ġfi esta
Ġrena ult
ens en
Ġg ates
k es
Ġred uce
Ġ198 5
Ġneed ed
Ġest im
Ġoak land
Ġpar as
er et
Ġdr iven
Ġnear by
Ġmes a
et ics
Ġtown ship
am iento
Ġreprod uction
Ġde pression
Ġklipart z
Ġstart up
Ġsad dle
ol in
Ġlamb orgh
Ġcon vention
Ġbay ern
Ġgen esis
Ġalp ine
Ġsche me
he y
Ġtem porary
et z
Ġsc o
Ġopportun ities
Ġcup c
Ġhigh light
Ġ10 2
Ġinject ion
Ġsu icide
Ġsp art
Ġ198 6
Ġmargar et
Ġbene fit
ib o
Ġbild er
l ang
bet ter
Ġlic ens
Ġv ag
Ġl uz
Ġph osph
Ġmagaz ines
Ġp orts
f p
Ġshr imp
ph is
Ġper c
Ġcout ure
Ġtiss ue
Ġl ug
Ġsl ot
Ġmap quest
Ġmeasure ment
Ġbure au
Ġmechan ism
Ġal ready
Ġneckl aces
Ġador able
ob s
Ġmur ah
Ġj igs
Ġecu ador
Ġfac ilities
Ġbons ai
Ġcamp ground
Ġz ep
Ġpat ches
Ġir is
Ġ10 8
Ġcow boy
al ty
Ġsom ers
Ġdiagn ost
Ġskys cr
Ġm ould
Ġbr ah
en zo
ern ess
Ġlamborgh ini
Ġintegr ation
Ġflu id
Ġsec ure
b ike
at ore
Ġtr in
ud es
Ġmarit ime
Ġn gh
Ġtr oy
Ġchar ging
Ġhosp itals
uck land
Ġsp are
Ġh ib
phot os
Ġwhis key
z hou
Ġhe ath
Ġcirc us
Ġph r
Ġp ound
Ġfr es
Ġev o
Ġcoup on
Ġfac ing
an j
on ce
Ġbr u
Ġch alk
Ġdirect ion
il ion
Ġlav ender
be at
Ġsap ph
inn ing
Ġproc ed
Ġk itty
us ing
Ġn air
Ġrece iver
m un
ch ing
cept ion
Ġs amb
Ġplay a
Ġtrib e
Ġfor get
pr od
Ġe ater
Ġsk ip
Ġcas as
Ġav atar
Ġd au
ic ular
Ġcent ers
Ġut tar
Ġjac qu
Ġnot ting
Ġse es
Ġmy r
w ave
ge ar
Ġfar mer
Ġn ha
Ġplay ed
Ġz l
Ġf iat
Ġcar ri
Ġfr anch
Ġk omb
Ġgo a
t n
Ġf ang
g ang
Ġp ang
Ġsn acks
Ġk ult
ict ed
Ġro z
le g
Ġind ie
Ġharv ey
Ġrank ings
Ġp umps
Ġqu il
Ġ5 000
c as
Ġleon ard
Ġrad ar
Ġhon ors
osaur us
Ġda isy
Ġsh ades
Ġwel comes
Ġs ist
Ġach iev
Ġbab a
Ġexerc ises
Ġjul ie
Ġmel an
Ġvan illa
Ġcre ed
ul ate
Ġdivor ce
qu ar
or an
Ġcre m
ann ah
Ġrel ations
Ġgl ac
Ġdr ivers
Ġex it
Ġexcell ent
Ġa uckland
Ġ10 4
Ġ19 66
s ka
Ġsub ject
Ġcaps ules
let te
Ġval ues
Ġlik ely
Ġpharm ac
Ġatt acks
Ġsim s
act ic
Ġconce pts
Ġc ere
Ġn ab
Ġsur rey
Ġind uced
Ġse ats
Ġel astic
Ġl gb
Ġmon ter
Ġpropos al
ep t
Ġbeet le
Ġanx iety
Ġcon e
Ġs ull
Ġmap a
Ġcond os
Ġsanti ago
Ġspe aking
Ġj ad
Ġch ant
Ġkinderg arten
Ġle icester
Ġbar ewalls
Ġscen ic
am y
Ġjac ques
Ġt ires
Ġespan ol
ee z
Ġsw ims
z illa
Ġv ape
Ġmar cel
Ġinfras tructure
Ġz hao
Ġesp ec
Ġgr ac
Ġk yl
Ġfut ur
at ches
Ġtrad er
Ġst ations
Ġ19 65
Ġj ian
ac ular
q s
Ġbou quet
Ġmor ph
Ġday ton
Ġas i
Ġj okes
Ġwork er
h urst
Ġtr am
ion i
Ġkann ada
el ey
Ġrob inson
Ġgu atem
as aki
Ġcl uster
Ġpract ices
Ġme i
p ic
Ġmult imedia
im er
ist on
Ġsh en
az ione
Ġtwe ets
Ġwor n
n el
Ġcall ing
Ġappr oved
ac co
Ġgu ang
Ġan yr
Ġtin h
itt a
Ġjur assic
Ġproduc er
Ġmult if
Ġcru iser
lev ard
ak k
Ġtrou ble
Ġess ex
r io
l ord
Ġmulticol or
Ġbus y
ic z
Ġz ach
Ġel m
Ġbrit ann
m ons
ill ac
Ġd ana
az ine
Ġvict ims
es o
Ġfl ights
Ġha unt
Ġanyr gb
Ġsim pson
Ġlist s
Ġrav en
Ġmediterrane an
uch i
Ġmoroc co
Ġtw itch
Ġbr ock
y st
ge e
Ġ erg
Ġ12 8
Ġy ach
Ġc w
Ġscrap book
Ġdis aster
Ġod ds
Ġol ivia
Ġey el
ew ater
ann ers
l ich
Ġclos er
r il
Ġwa iting
Ġb ers
Ġk ii
Ġoffic ially
ell ation
Ġdecor ating
Ġk is
an os
Ġrun s
Ġcol ours
3 65
Ġgar lic
Ġshow biz
Ġreb el
Ġcool er
m are
Ġpur s
Ġn ano
h art
Ġdemon str
Ġpr airie
io h
Ġextern al
Ġstyl ing
Ġwiz ard
in f
Ġpr obe
Ġscient ists
Ġcut s
Ġexp edia
ak en
Ġear l
Ġsurr ound
Ġped al
Ġab road
Ġforg otten
Ġ3 30
Ġst all
Ġal ley
Ġexp ected
Ġinter face
Ġprov ide
00 1
Ġbut tons
Ġk oz
Ġn ancy
Ġnew ton
an za
f ree
int a
ov al
w iki
Ġsup ports
uy en
des ign
Ġin itial
Ġem br
Ġal v
Ġc ove
ung en
Ġbrill iant
it ors
Ġsof ia
Ġpab lo
Ġseek ing
art e
Ġap ollo
Ġob j
Ġjersey s
Ġcamer as
Ġmodel ing
aceut ical
Ġbw c
Ġf ict
Ġchar coal
ios a
Ġott awa
all i
ell s
Ġinterview s
Ġn es
Ġbe a
Ġs ue
p as
aw are
Ġtrans f
Ġtr ang
ann on
Ġhung ama
ern e
Ġar s
ient e
Ġlut her
ur r
Ġr ival
Ġnice png
Ġacc ent
Ġf as
y x
Ġhim al
Ġrasp berry
Ġpng find
Ġmel issa
Ġn erd
Ġabd ul
Ġharv ard
Ġloc ated
Ġpo ison
tr ib
Ġbuild ers
iv as
Ġad a
ensh in
iy e
eb ack
Ġb ail
Ġantib ody
av ia
Ġcr af
k op
Ġturqu oise
oc hem
Ġf et
Ġbe au
Ġrou ter
Ġpr at
ile y
Ġperform ing
Ġsee ks
olog ie
r if
Ġtw il
Ġinf ection
f w
Ġn han
Ġluc y
Ġwill ow
Ġg os
Ġn ina
Ġest a
Ġmess i
Ġme adow
Ġm ild
Ġcustom ers
Ġairs oft
Ġdiv ine
Ġmun ich
Ġte es
n an
Ġexpl ains
Ġport o
Ġph d
Ġj ub
ob l
Ġband ai
Ġstad t
ale igh
Ġindigen ous
Ġc attle
Ġw agon
Ġwe ed
o it
Ġcl own
Ġstep h
Ġmin er
h z
Ġfit z
Ġval le
Ġn pr
Ġg io
Ġlag os
Ġameric ans
Ġgat eway
ent i
Ġj d
sc he
Ġampl ifier
Ġad ela
Ġstick s
Ġt eng
Ġhawai ian
Ġbl ush
ant on
om atic
b age
Ġvoc ab
Ġle y
Ġexc av
Ġmid night
Ġr j
Ġathlet es
Ġg osp
Ġhar ness
Ġpet it
Ġb av
Ġexper iment
Ġgl ad
Ġcor r
7 00
ap se
ari us
Ġronald o
Ġconvert ible
Ġlibr aries
Ġbak ed
as ma
Ġem por
Ġsim ulation
Ġpresident ial
Ġrad aris
ipp ers
l os
Ġvol vo
Ġbon us
Ġmart ha
Ġauth ors
Ġdel ight
Ġscreen ing
Ġbed ding
ros se
Ġi x
l ane
ent es
Ġfail ure
Ġmet ab
Ġfort une
Ġb ing
Ġtack le
Ġdet ection
Ġreb ecca
Ġharr ison
Ġk ale
Ġl oft
ge ons
Ġsell er
Ġeconom ics
c ode
Ġins ert
Ġman uel
Ġcann abis
um en
Ġre charge
ib u
Ġnar r
Ġsal em
Ġanal og
Ġhaber leri
l b
Ġengr aving
Ġch au
Ġrac er
Ġmon ica
Ġsher iff
Ġset tle
Ġbou levard
Ġv ad
Ġp w
Ġur b
Ġpap a
Ġsc ary
Ġnue va
Ġsed an
Ġcam el
m t
Ġornam ents
n ames
Ġkual a
Ġk eto
Ġfeed ing
Ġdibuj os
Ġmur phy
Ġphotoc ase
Ġviv o
Ġm ish
Ġcres cent
b ing
Ġhon est
its u
Ġha us
ig ure
g il
Ġgu er
Ġstrateg ic
Ġl ash
Ġdiagn osis
os i
Ġh if
ur f
Ġu w
Ġhen ri
ak o
Ġglam our
Ġdevelop er
m x
ok en
ow y
Ġsub mar
Ġinsp ire
Ġjo an
Ġshel ter
od o
Ġh oll
Ġbl ake
Ġx u
Ġrap per
Ġtr il
and ro
ac ter
Ġtag s
azz o
ys on
er ic
ov ich
Ġh g
Ġinaug ur
Ġo br
Ġbever ly
Ġroof ing
Ġbe ans
Ġent ire
Ġpos es
Ġste ering
Ġappl iances
Ġsou ls
Ġ19 64
br ush
ier i
Ġ10 3
Ġgem stone
Ġv ars
Ġlyn n
Ġbac on
Ġr ating
Ġrug s
Ġcur s
Ġconfir med
Ġj y
m emes
Ġmod a
und y
Ġremember ing
h og
Ġcar ving
Ġdee zer
Ġtrans ition
x iv
Ġp ug
sm ith
ste ad
Ġg ucci
Ġmicr ophone
Ġcypr us
Ġnew port
Ġj ed
osph ere
Ġd unk
Ġfilip ino
Ġun us
Ġcalcul ator
Ġad visor
Ġval uation
Ġwal t
Ġcapit ol
Ġpl ym
enn y
Ġassort ed
Ġpaul o
ian i
t w
Ġconfir ms
Ġstruct ures
os ci
Ġfon ts
b ot
Ġal mond
Ġdish es
Ġund ert
br and
Ġb amb
Ġvap or
Ġbm c
r ist
Ġmanual zz
Ġco aster
Ġpol ished
Ġal ger
Ġpoly ester
Ġexpl ain
Ġd ough
Ġquant um
Ġcoll age
Ġident ification
Ġfranc ois
Ġmar e
Ġlandsc aping
Ġest r
Ġprofession als
ivers ity
Ġp is
ong s
un s
Ġh ull
it en
Ġseek png
Ġwood land
Ġsurv ivor
Ġpik ist
Ġgreet ings
Ġwat son
Ġse o
als a
Ġse oul
in ator
Ġk ag
Ġtun ing
Ġwar n
Ġlo com
Ġdi or
Ġappl ied
Ġg le
Ġcrow d
Ġmeas uring
Ġph illy
Ġob ama
if l
Ġvers us
Ġsen ate
Ġinflu ence
eb u
Ġmal t
et to
p n
uff y
stad t
Ġx t
Ġpok er
Ġcl an
y z
v r
Ġs os
Ġrajasth an
Ġexcell ence
Ġmutual art
Ġdress ing
Ġlim a
e an
Ġit iner
Ġde x
Ġar uba
Ġj asm
Ġatt ach
k k
g os
Ġentreprene ur
Ġ ille
Ġt asting
ig g
Ġbo hem
Ġm unch
Ġvol can
Ġopt ion
Ġsilic on
Ġcosmet ic
Ġcharl eston
Ġverm ont
Ġcurt ains
Ġtel ep
Ġu h
Ġjackson ville
Ġst ap
Ġdad dy
Ġpredict ions
ins ki
Ġste fan
Ġtax i
Ġsout heast
Ġsoph ie
ad d
Ġreus able
Ġgeom etry
Ġb ould
Ġalbert a
Ġneut ral
st ep
Ġdur able
fl ies
p ec
Ġdesign ers
st and
clus ion
g om
Ġf ay
Ġagricult ural
Ġpos it
Ġn itr
Ġambass ador
Ġdr ift
Ġh of
Ġ10 24
Ġfin ished
gu ard
Ġpay ment
Ġacc eler
Ġvict im
og an
Ġvenez uela
Ġsusp ect
Ġrece ive
Ġhe in
f ertility
Ġr aleigh
Ġfl ute
Ġm err
Ġnotting ham
it led
Ġx ian
Ġb ore
Ġmal d
en ne
Ġrook ie
Ġorb itz
Ġdan i
Ġim pression
Ġjigs aw
iel o
Ġam r
Ġm apping
aza ar
Ġarm en
Ġprod uce
Ġ19 79
Ġscen ery
Ġgrav ity
Ġmem phis
oc ity
z ie
Ġtop ps
on ics
Ġsus sex
Ġpean ut
Ġdest r
Ġtre m
Ġh ale
Ġdiamond s
Ġtom atoes
Ġident ify
Ġnovel ty
rup t
Ġastr ology
Ġcomp ound
Ġethi opia
ec o
Ġtop ics
ib an
Ġadmin istr
Ġtuc son
Ġshe ff
commer ce
che ck
Ġmir ac
Ġsp encer
Ġindian apolis
Ġcal gary
Ġva ult
Ġt owers
Ġel ek
Ġwir ing
ang ler
Ġm f
orn e
w ara
at ro
up p
Ġprod uk
yl an
Ġcr os
n oon
Ġpar all
Ġpro x
Ġd ors
Ġwestern fertility
m ith
h eld
Ġch att
Ġmus ica
Ġprot ocol
Ġsy mp
Ġl om
z u
Ġmar l
haw k
Ġcompos ition
Ġgujar at
Ġfall out
Ġtw ice
Ġfall ing
Ġsh aft
Ġsar as
Ġliv re
Ġroast ed
p it
Ġdi aries
Ġd ill
Ġod ys
Ġfragr ance
Ġh od
w es
Ġ13 5
com p
Ġrenov ation
Ġk ane
Ġdep end
Ġhab itat
Ġt une
Ġwe iss
Ġz om
Ġn go
Ġtext ile
Ġterm s
Ġlac rosse
Ġlog an
Ġv h
Ġdise ases
Ġch amb
Ġkard ash
Ġ2 25
id ade
Ġfre ight
Ġbarn eb
Ġmur als
Ġtr ied
Ġser um
Ġngu yen
Ġprotest s
Ġin ews
Ġrodrig uez
Ġd ow
Ġbut ler
um ar
Ġchan el
Ġc erv
m and
ic ana
Ġs are
Ġsacram ento
Ġs op
Ġv oor
Ġacc ur
ite ch
Ġ ull
Ġtwil ight
Ġcryst als
head s
on ey
Ġemp ower
Ġgr ave
Ġatt empt
Ġbo ho
if ting
Ġkh al
Ġd op
Ġll oyd
Ġaccount ing
un o
press o
Ġmc m
Ġstr ipe
Ġhab it
Ġcorv ette
Ġmotiv ational
Ġs j
Ġnew ly
Ġsapph ire
Ġshakes pear
Ġseam less
Ġf ert
Ġtechn ique
Ġr ar
y ers
ith a
Ġarn old
Ġvoc al
Ġfel ix
Ġ ips
Ġmean ings
Ġf eng
Ġdyn amics
Ġbr ave
Ġbarneb ys
ane ous
Ġmas c
Ġun cle
Ġgand hi
Ġc yr
Ġp ew
Ġped iatric
Ġask ed
Ġkauf en
Ġopin ions
Ġmete or
at he
Ġcur ly
off icial
Ġlgb t
Ġstrip ed
Ġcl ient
Ġdraw er
Ġtr ash
Ġk b
ht ml
Ġhann ah
Ġesp orts
Ġimag en
Ġreb u
ey e
Ġdr ake
Ġc yn
ont al
ason ic
ac cess
Ġarm ed
Ġzh ang
Ġlisten ing
Ġ10 9
op us
Ġwallpaper better
Ġmus k
20 18
Ġsk yr
Ġmart ine
Ġperson a
Ġfrequ ency
el ets
ful ly
Ġdisc ip
Ġaff inity
Ġdiffer ences
Ġsent ence
n ew
Ġcurr ency
Ġmer ry
Ġskyscr aper
Ġwash ing
Ġfav im
Ġcarol ine
c orn
Ġpar ity
Ġm uff
Ġp ige
n ya
Ġtan ks
b org
Ġconstr uct
Ġ ounce
av al
Ġsign ing
Ġtr en
Ġbr yan
u ter
Ġlog istics
t es
Ġcomb ination
Ġearthqu ake
Ġk ry
Ġwonder land
Ġback drop
Ġgu ess
Ġb org
ir as
Ġmak ers
ag as
w ash
Ġt amb
Ġcar amel
Ġplym outh
Ġh aj
ag l
ist as
Ġme in
Ġpost cards
Ġzel da
cla im
Ġl ack
Ġhe els
ab ar
Ġnou ve
Ġfict ional
Ġbring ing
Ġfotograf ia
est ate
Ġ19 78
Ġhost el
Ġfab rics
Ġlearn ed
ik u
Ġwin ery
Ġadela ide
ate ur
Ġf erg
ari ous
Ġbuddh ist
Ġinter p
Ġis o
Ġact ing
Ġplumb ing
Ġconc ord
Ġjun ction
Ġlov ing
Ġcos ts
Ġtor ch
Ġsl oven
ia k
Ġdr unk
Ġderm at
Ġoff ering
che m
Ġhe el
p art
p d
Ġstu art
Ġpan ther
sp ot
Ġer ik
id ian
Ġcongrat ulations
Ġgu id
Ġa is
act ions
Ġell en
Ġsh ab
Ġad rian
r h
Ġv ale
Ġprop ag
Ġenter pr
Ġk are
Ġho ch
Ġme ad
Ġdiw ali
Ġup hol
Ġsh ou
Ġlamp s
Ġr aff
Ġappoint ment
ots w
Ġk uch
Ġguatem ala
Ġstruct ural
Ġdi as
Ġtem por
Ġcb d
Ġb ake
op ath
Ġbah rain
iz i
Ġg up
med iate
Ġpar rot
Ġ978 19
Ġrivers ide
aw l
Ġk us
Ġshap es
Ġmyth ology
om ing
Ġwood working
Ġt ide
Ġbe be
Ġangel a
Ġf ing
Ġtr ol
Ġpv t
Ġguil ty
Ġone file
Ġal fa
Ġstr ipes
af ia
Ġmin ne
Ġso x
Ġg im
Ġvo ices
Ġh in
Ġin vis
et ric
iff e
Ġn ed
at as
Ġor ang
Ġraf ael
Ġexped ition
Ġraz or
Ġgamb ar
ony m
Ġraj a
all ery
Ġst ur
Ġdi j
er es
Ġm j
Ġd iver
Ġbeginn ing
Ġbe coming
Ġsc orp
Ġwit ness
Ġm ous
Ġtrig ger
Ġros ter
Ġchord s
Ġmeet ings
Ġsc an
Ġgr im
Ġassass in
arm s
Ġja ipur
h ay
Ġj c
Ġtrav is
Ġam it
Ġgem s
Ġpharm aceutical
Ġill umin
Ġb ant
Ġwinds or
Ġtr as
Ġf ury
Ġdef ender
g ag
Ġr ai
Ġmath s
Ġcold well
Ġ6 50
Ġhaut e
Ġher man
Ġ19 72
m ax
Ġar en
Ġplan es
Ġsanct uary
Ġb its
Ġscholar ly
Ġadm ir
d l
Ġsk ill
Ġ198 3
Ġsi em
Ġas ter
Ġy in
Ġc inn
Ġcl im
Ġorig ins
Ġb ones
v c
Ġx iao
Ġt ao
ex p
eng kap
Ġpyram id
Ġth y
Ġpla que
Ġp bs
Ġinc ident
Ġg arn
b ill
Ġme gan
omb re
Ġv f
by e
Ġhur t
Ġleg isl
ot el
Ġka a
Ġinnov ative
Ġgymn astics
Ġgm c
Ġser bia
ut ed
ip se
Ġfund s
ob al
emb re
Ġt ata
Ġpat ric
Ġpoly mer
Ġmc g
Ġr ogue
im iento
Ġwater front
Ġumb rella
Ġb au
Ġc ens
Ġble ach
Ġp uts
Ġf ak
aw ays
Ġveget arian
Ġdefe at
Ġs ocket
Ġte aser
Ġpast e
ing a
f am
Ġpir ates
Ġc ote
Ġap oc
Ġover watch
pr imo
ad v
x in
Ġte ens
Ġeng ines
Ġt ien
op al
Ġser ve
Ġs ok
Ġhom est
Ġveget ables
Ġbulgar ia
Ġsuperm arket
Ġmac ro
Ġ198 2
Ġe e
Ġfire place
h ab
Ġbright on
Ġb oc
r og
box ing
Ġ19 73
Ġb ha
Ġbel ie
Ġs ank
Ġbroo ch
Ġobject s
Ġpo et
Ġahmed abad
Ġb f
ial s
Ġdep os
Ġh ail
Ġes l
ie c
Ġbom ber
ph oto
Ġw b
Ġcom eback
Ġvis a
is ions
Ġste primo
Ġra ises
m akers
Ġultr as
Ġcre ates
Ġens emble
Ġg aut
Ġdur ham
Ġfir es
Ġre yn
Ġue fa
Ġtr ulia
Ġcomm it
Ġdiff icult
a an
Ġafter noon
Ġg ee
s el
aa a
Ġbr ent
Ġt eller
Ġa uss
Ġtw enty
Ġdo om
Ġ19 75
Ġde ploy
Ġcol in
Ġwal d
Ġgeneal ogy
Ġunus ual
Ġst o
Ġpe el
Ġfreder ick
Ġbrad ley
Ġt ass
Ġr iz
Ġcar avan
Ġmin if
ic ity
Ġshin y
Ġv g
Ġstat ues
Ġ7 20
Ġf us
Ġpool s
Ġspring field
Ġwork place
Ġnews letter
Ġdis co
Ġisrael i
aj es
Ġintroduc es
Ġd ire
Ġst abil
Ġ10 6
Ġte c
Ġp ots
uc he
Ġtravel ing
Ġh uss
Ġk p
we ather
od i
Ġcar lo
iss on
Ġshakespear e
Ġsomers et
Ġfab ulous
Ġjo jo
ul ary
Ġt oll
1 40
Ġmonaster y
Ġb ong
back s
Ġcelebr ations
Ġsc ent
wr iting
ac ed
Ġg ave
Ġstephan ie
Ġatt ention
Ġhand held
Ġsne aker
k om
ac an
Ġrelation ships
Ġtr oll
Ġvol cano
Ġcare ers
Ġpr iy
ur ved
Ġmej or
Ġexp ensive
enc ils
Ġsheff ield
in us
Ġtav ern
Ġsam antha
Ġtun is
Ġpersonal ised
Ġkardash ian
Ġgall on
Ġod isha
y k
Ġveter inary
Ġv era
Ġcoc o
Ġadvert iser
Ġcom ed
Ġbiz arre
esh ow
Ġnews break
gr oup
Ġfern ando
Ġabsol ute
Ġconver ter
Ġs ubl
Ġart isan
c ap
eb o
Ġsne ak
Ġweb inar
Ġm iz
Ġser p
Ġbh arat
Ġk and
Ġtr unk
Ġe uc
Ġpubl ished
Ġap i
Ġge o
Ġ19 45
Ġmon roe
Ġhu i
Ġupload ed
Ġann ie
t est
10 5
Ġtelegr am
Ġinsp ection
Ġskin care
Ġ19 63
Ġbow ling
Ġbh ar
Ġland mark
Ġpr ague
Ġbo o
Ġst al
Ġcar re
Ġleg g
Ġbank ing
Ġcandid ate
Ġmar qu
Ġcollect ors
le ton
ga e
Ġma id
ic er
ill ing
Ġsp at
Ġfact ors
Ġf iver
se c
Ġ19 71
Ġbo oster
Ġent hus
f uel
Ġpar f
ig u
atural ist
r oll
Ġen clos
Ġwild erness
Ġcad illac
or um
Ġcl aw
Ġrev ista
Ġstr ain
Ġtob acco
Ġg ed
Ġcapt ure
Ġcle ans
Ġlanc aster
Ġext rem
Ġblanc o
ag em
st ate
Ġsk et
im ov
Ġhaunt ed
Ġs oda
Ġh inh
Ġac ne
Ġap ex
land er
ock ets
Ġco zy
r ak
Ġsat is
Ġchron ic
ek t
at um
Ġfem me
Ġwar ns
Ġlog ic
Ġrec over
Ġcaps ule
Ġat let
Ġb unk
an u
Ġher mes
st a
Ġdeb t
Ġb ans
Ġsound track
Ġlou ise
Ġd ok
m d
Ġ100 00
Ġrev ival
en ko
Ġbr ows
Ġge ographic
Ġsmith son
ry l
Ġnad u
ch el
f urt
Ġe up
Ġnar row
Ġfront ier
Ġv iz
rup tion
le igh
Ġpetr ol
Ġfamous fix
f al
Ġsle eves
Ġpier cing
Ġt ung
Ġtr ous
Ġpeac ock
Ġm tv
Ġclos ing
h as
Ġesc al
Ġlaur ent
Ġwalk through
Ġm av
Ġcontr a
Ġol iv
gre g
Ġred iff
eg o
Ġk ills
Ġru ins
Ġbr o
Ġdiscover ed
Ġsl av
Ġemir ates
g age
gr ade
Ġinfin ite
Ġdan ish
Ġnort heast
Ġla x
ij uana
Ġaz ul
Ġsor ry
Ġaz ure
ic ts
Ġin aturalist
Ġpe g
ill ery
Ġcert ification
end i
Ġku wa
Ġval encia
Ġen f
ia b
Ġh ok
Ġw ien
Ġhapp en
Ġmich elin
am os
Ġcho ir
Ġnic olas
Ġenterpr ises
Ġday day
x x
Ġas ks
Ġguine a
Ġl umin
Ġbl iss
Ġhamp ton
Ġpoll ution
Ġdanc er
m ail
Ġben ed
Ġcam o
Ġprincip les
Ġbrac elets
Ġmoist ur
Ġengine ers
Ġbig g
Ġscand al
ist o
iz en
Ġman o
ho le
Ġdwar f
Ġpres id
Ġhop es
Ġb ite
Ġaut oc
Ġs ug
Ġswe ets
b ler
Ġ11 2
Ġlin ed
Ġtreas ures
st op
Ġfiver r
j ec
Ġper cent
Ġca o
Ġdayday news
ar ing
Ġsw ap
Ġrog ers
re ds
Ġa q
Ġ10 7
Ġpl ast
od er
Ġiv y
Ġn il
Ġfranc es
Ġn k
ad al
Ġlump ur
Ġg unn
Ġv ita
Ġdem ol
Ġm ab
Ġsh ack
gr aph
i ia
ee ping
Ġ9 11
Ġ978 08
Ġg ou
Ġv adel
az ed
Ġadm issions
Ġl ugg
Ġsever e
as hed
Ġsu ede
Ġbloom berg
Ġr n
Ġarm our
Ġle vi
Ġr gb
Ġle an
Ġdolph in
rah am
Ġdr ives
Ġpriv acy
Ġmil ano
Ġ978 16
h ouses
Ġwe igh
Ġpain ter
Ġngu oi
ung s
Ġec os
Ġdes car
Ġk yr
Ġzom ato
Ġbur r
Ġprosp ect
Ġed ible
Ġtrav eller
Ġ19 76
il is
Ġpl aid
Ġthrow back
Ġsa uc
Ġy ester
c ons
Ġphill ips
Ġsl am
Ġ19 77
he arts
Ġcoded wap
Ġbund es
v s
Ġdirect ions
Ġknit ting
ell ar
Ġn uts
Ġspoil er
Ġpar c
Ġ00 1
Ġpad dle
Ġvolunte er
Ġw d
Ġinvit ations
if ies
Ġprim el
Ġb inding
Ġax e
Ġk und
Ġvars ity
Ġmon ogram
w ise
Ġli u
Ġclos ure
Ġcondition er
m ere
n ica
Ġvik ings
Ġch loe
Ġgum tree
Ġj ou
Ġm illed
Ġx en
Ġmont gom
Ġy un
Ġo o
Ġarm enia
Ġpar que
Ġpre fer
re p
Ġkar ate
Ġext ensions
Ġfire d
Ġh ing
t ors
12 1
Ġhospital ity
Ġ2 80
sp orts
l is
Ġfl oyd
Ġath lete
ion es
Ġk ed
Ġm itt
in ian
m ers
Ġsil ence
Ġp b
i em
Ġpine apple
ib li
Ġwar ner
Ġjeff erson
Ġprepar ation
n ar
Ġd k
Ġd oodle
Ġy ong
Ġjourn als
Ġstar b
ath lon
Ġf j
Ġhor r
Ġb ie
Ġt and
m or
Ġcur ric
Ġt otten
Ġrobert o
Ġn l
Ġp amp
Ġh ims
Ġest ates
Ġprimel ocation
Ġsub ur
Ġliv est
Ġpron ounce
Ġtan z
Ġhe ard
Ġaff air
Ġter ra
Ġw ur
Ġal ess
Ġz amb
Ġpop screen
Ġv iva
Ġn ah
Ġsal man
Ġmanufact ure
Ġ18 00
Ġag ing
Ġgy ps
for um
Ġra ising
Ġed wards
ert as
Ġpl y
Ġtre ats
Ġharm ony
Ġpix ers
10 2
Ġnap ole
Ġfauc et
Ġp oul
Ġy ing
Ġbur st
ops is
er ian
Ġn ib
Ġenc oun
Ġco a
Ġ198 1
Ġodys sey
Ġindian s
Ġpromot ional
Ġd ud
l ake
im en
Ġthous and
Ġenc our
Ġdis m
Ġmusic ian
Ġgr own
for est
yc led
Ġcre atures
Ġpanor ama
Ġsa us
Ġbl ades
Ġrec ycling
Ġh itch
Ġcho os
Ġto ast
Ġp og
Ġte ars
Ġcon sc
Ġst om
ut z
Ġpil gr
Ġshe er
Ġma a
Ġrel ay
Ġminne apolis
Ġp ert
Ġgen etic
ul in
ib ly
Ġpr z
Ġrh yth
Ġfirst post
Ġnight mare
o que
Ġliqu or
Ġench ant
Ġc et
Ġsak ura
Ġdu a
Ġpu ja
1 60
Ġappe al
ar ra
Ġtr act
p aper
Ġl h
Ġprov ence
Ġrecord er
Ġsustain ability
Ġgl ou
r av
Ġst ern
Ġfr an
Ġrecogn ition
Ġwol ver
Ġgr ind
ik s
Ġred e
Ġarr ival
Ġsmithson ian
Ġgood bye
Ġhigh ly
Ġsav age
ad u
Ġju vent
Ġceleb s
ape ut
Ġfl ush
Ġmat ic
Ġlugg age
Ġrem ain
ort ion
Ġra ised
Ġequ al
Ġannoun cement
Ġmerc adol
Ġhe ater
Ġ5 50
Ġpic fair
Ġq c
Ġpar s
Ġmir acle
Ġn ets
Ġbar on
Ġwre ath
Ġdead line
Ġw oo
ost i
Ġrecent ly
Ġfr idge
Ġtur t
Ġ19 74
Ġdel aware
uk o
Ġph ong
ov i
Ġrev enue
Ġaut onom
t b
Ġn ao
Ġnavig ation
iz o
Ġmug s
Ġav ant
Ġprob ably
Ġappre ciation
Ġmontgom ery
Ġnh ung
Ġanth rop
Ġuk rain
Ġn ude
uct ive
ad ed
c ro
Ġvent ure
Ġlouis ville
Ġyug ioh
in ate
Ġcol a
Ġappear ance
Ġther ap
Ġag ua
Ġd ove
ac ing
Ġbeng ali
Ġball oons
Ġcla ude
r oc
Ġbut t
our g
Ġat elier
re z
Ġcla ud
Ġingred ients
Ġk icks
Ġpan ch
Ġu i
Ġkid ney
Ġl ips
Ġemb assy
et es
ag g
Ġletter ing
Ġtus c
Ġcl over
Ġchair man
Ġstand ards
Ġcod ing
Ġme ghan
Ġh ond
Ġsp end
Ġglou cester
Ġmem br
Ġvari ant
Ġmarath i
Ġt g
aw ei
Ġsay ing
Ġsur at
ign on
es ville
Ġag enda
Ġel le
b at
Ġt j
Ġequ ity
Ġaf l
Ġtr adem
Ġdere k
Ġlangu ages
Ġme als
ul ing
Ġaff ect
Ġcult iv
h ari
h omes
mins ter
Ġwel sh
Ġbrid ges
Ġsk inny
Ġexperim ental
Ġfe ast
Ġandre as
Ġjum bo
Ġlux e
Ġshe ikh
Ġdemocr acy
Ġfundra iser
sh mi
Ġem il
Ġdu ff
ost card
Ġv ick
e j
Ġsand y
at ica
Ġfor tress
Ġfl ies
Ġs ip
11 5
ome z
Ġd ug
Ġch il
Ġd ic
c ott
Ġvine yard
Ġbu gg
Ġland marks
Ġsm s
Ġmamm al
Ġmand al
Ġsin h
Ġhipp ostcard
Ġbuc ks
Ġexplos ion
Ġkr is
Ġth ong
Ġdeput y
Ġm ourn
Ġsh ake
al us
Ġprop er
Ġlo ch
man i
Ġel k
br on
h aven
Ġcon cer
ple ments
uz u
Ġbu enos
Ġr ides
Ġfun ctions
Ġn ok
Ġk ra
Ġro chester
Ġav oc
Ġround up
sh aw
b one
est re
Ġfe ver
b ud
Ġsouven ir
ur ah
Ġjenn y
Ġ ust
Ġtotten ham
Ġchrist ine
Ġpur se
10 8
b uy
Ġno el
Ġtriv ago
Ġdisord er
Ġcompos ite
et as
Ġbord ers
Ġcob ra
Ġbl essed
m oon
Ġa ar
Ġhoriz ontal
iv i
res p
e ad
Ġwrit ers
ull ah
Ġep id
Ġocc asion
Ġblog ger
Ġcav al
Ġhon ol
re k
enn es
Ġcant on
Ġp ee
Ġcult ura
Ġuse ful
us on
Ġprincip al
Ġshr ine
Ġpeters burg
Ġj ah
Ġmen g
Ġdet ective
Ġmerc y
Ġref lection
Ġwre ck
d oor
Ġhapp ens
Ġbah amas
Ġoffer ed
Ġfl oat
ry n
Ġag gr
Ġgl ue
Ġh w
cart a
Ġj oker
Ġhims elf
Ġline up
Ġvlad imir
ac art
z ar
Ġbal c
r ine
Ġsc iss
ble d
Ġn el
Ġbrook s
Ġimm obil
Ġmid west
Ġsy rac
Ġbud ap
t an
Ġisa ac
Ġcolle ges
f ork
Ġarr ives
w at
Ġmos qu
Ġt asty
orn o
Ġdr iv
j v
Ġob sc
Ġkam en
Ġchrist ina
Ġn ang
ij k
Ġst l
Ġuniform s
Ġst ella
Ġpap el
ass er
n est
Ġgr anger
Ġtrial s
ic ate
Ġmay o
Ġl omb
Ġhead ed
Ġw av
r ison
Ġcon ven
Ġpav ilion
Ġbrun o
Ġhonol ulu
Ġl ai
Ġcol ony
enh agen
l est
Ġbuck le
Ġpng aaa
Ġinf r
Ġvocab ulary
Ġlab our
Ġresp ir
Ġsweat shirts
ict ions
Ġly on
Ġch ili
Ġh orm
Ġlex us
Ġsyrac use
Ġsculpt ures
use um
r ice
Ġre cl
c amp
Ġkuwa it
Ġteen age
Ġpn as
Ġsever al
Ġsh awn
Ġcharacter istics
Ġk ud
Ġvat ican
Ġd iz
k le
Ġgan esh
Ġy ok
Ġgive away
Ġb itter
r c
it on
Ġprov ides
in ations
ur ious
Ġincl ude
Ġhar per
Ġaut ism
Ġengr aved
Ġhu awei
Ġmot el
Ġmt b
Ġinvent ory
ens a
Ġsav annah
Ġy ad
ox y
ep ik
osc ience
Ġk aj
Ġcond omin
Ġphilipp e
Ġhaz el
Ġgosp el
av ian
Ġd and
Ġh l
Ġfat al
Ġ19 62
ab we
uss ion
Ġrol and
Ġw igs
Ġnu w
y ar
Ġh ain
Ġven us
1 99
Ġflor es
Ġsl id
Ġdiam eter
Ġbungal ow
pr ints
Ġchr om
Ġwar fare
Ġthr iller
Ġbean ie
m int
ond uct
Ġcamb odia
Ġpres erv
Ġscr oll
em o
Ġansw ered
Ġbik er
Ġadop tion
Ġsit uation
st ed
Ġover flow
Ġdv ids
Ġbir ch
mon ton
Ġkh ong
Ġb ites
Ġr ode
Ġet han
Ġbever age
Ġg is
Ġb azaar
Ġshe t
ir m
Ġbl az
Ġd uk
Ġhom eless
Ġag ar
Ġher z
Ġaub urn
Ġlag una
quir y
up e
Ġk aly
Ġal gor
Ġsub way
Ġburg undy
Ġca es
Ġqu inn
Ġhomes chool
Ġn b
Ġbe es
j al
Ġbor is
Ġco ated
Ġpo oja
Ġcomm emor
Ġjeff rey
Ġtest ed
r ish
un ciation
Ġecl ipse
Ġmanag ing
wes tern
Ġer in
Ġstarb ucks
ath am
Ġc ous
Ġdeb uts
Ġval id
Ġz ah
Ġliter ary
c us
Ġmess enger
Ġsket ches
Ġo asis
enc ias
ul as
Ġcabin ets
Ġlad der
Ġho i
Ġbirth days
Ġa ure
Ġh off
Ġ2 60
Ġab raham
Ġg enshin
Ġmartine z
Ġcook er
w n
Ġbry ant
Ġlos ing
Ġmaur it
Ġlif etime
Ġpack ing
Ġmand ala
Ġf iji
lin er
cul es
Ġsup ern
Ġbu k
Ġadd ition
Ġsh p
Ġberm uda
Ġwe ich
Ġfr aud
Ġtr out
Ġjump ing
Ġbr ace
oc ole
w ald
cr ibe
Ġsp ook
Ġsch ol
Ġmon k
Ġche es
Ġtreat ments
Ġess ence
Ġcontrol s
Ġev an
Ġhul k
Ġro ch
Ġyester day
Ġcamp er
Ġr g
Ġfit ting
Ġprom ise
Ġa in
b ian
Ġil ustr
dr ive
Ġmau i
Ġdo o
Ġl ent
Ġpro j
Ġo yster
Ġk ell
Ġhard y
Ġlib ert
Ġm others
Ġbrow se
as u
Ġcompress or
Ġreh abil
Ġd well
Ġhung er
Ġn and
d n
Ġhum ans
Ġple asant
Ġb ip
Ġ2 12
Ġmap carta
Ġinc or
Ġf az
el yn
all o
Ġwell ington
Ġbudap est
Ġb k
Ġpe els
Ġred uction
Ġmar ian
Ġcrypt o
Ġom an
Ġart if
Ġcow boys
Ġexc ited
Ġfall en
Ġhead phones
Ġchann els
Ġk any
Ġst uck
Ġnouve au
w ari
Ġcree py
Ġmon aco
Ġap ost
Ġconcer ts
i ola
l it
Ġx r
Ġwar rant
Ġhome page
Ġri ot
Ġwr angler
ma id
Ġcr ay
Ġqu it
pl y
ber ger
Ġrem over
Ġlaw yers
em pl
Ġtit ans
os en
Ġmob ility
m r
Ġaz erb
Ġexplor ation
Ġbengal uru
Ġzip per
Ġcar ne
Ġjenn er
an ya
Ġap t
Ġfram ework
Ġpic nic
Ġgal erie
at y
ell ers
Ġg omez
Ġay urved
Ġl ies
Ġh ik
Ġdu ch
Ġarqu itect
Ġdevelop ing
Ġk ov
ect ions
Ġz ig
Ġsee ing
Ġsol ve
Ġbar g
Ġl of
Ġstock holm
Ġswims uit
Ġfar ewell
Ġev ac
Ġch is
Ġdisc ography
Ġbr uss
6 50
sh ow
sv g
Ġoff shore
Ġst encil
Ġp ern
Ġcand les
Ġhead band
v ic
Ġom n
Ġevery pixel
Ġst ove
ys s
Ġe a
Ġhd mi
Ġn itter
und e
Ġass ets
Ġnaut ical
Ġnuw ber
in ia
Ġtibet an
ag ua
Ġed monton
Ġg om
Ġon c
Ġmas ala
s ay
Ġchrys ler
Ġmom s
Ġhil arious
Ġa ero
Ġh ew
ocole ccion
Ġo y
Ġpost al
ik y
Ġchur ches
ij n
Ġcass ette
Ġtod ocoleccion
Ġray mond
Ġalexand ra
ya a
Ġs ot
Ġg ag
Ġjess e
ab o
Ġcard inal
is ters
x it
Ġk ec
Ġdeath s
Ġam en
t able
Ġass et
Ġscreensh ots
Ġf itt
3 20
e ver
Ġdes i
Ġatt itude
Ġver b
Ġd umb
Ġfr anz
Ġav ent
Ġal d
Ġpr as
Ġj ill
Ġst ool
Ġlin er
build ing
v ale
Ġco y
el ines
Ġtod o
Ġac et
Ġor acle
Ġnor weg
Ġsword s
ier es
Ġbet ty
Ġwe ak
Ġback s
Ġdownload s
Ġart works
Ġaw a
Ġc ud
Ġc br
Ġdo i
Ġbrown s
Ġp emb
s u
Ġcann on
arch y
Ġbr us
Ġo ste
Ġs othe
Ġcer amics
Ġconnect ed
Ġtorn ado
th i
Ġold er
Ġgib son
Ġw ast
Ġv log
Ġcomment ary
Ġdal am
Ġbai ley
Ġd it
ograph ics
Ġcheck list
Ġhairst yle
Ġp se
Ġcomplet ed
Ġsing les
Ġcl one
Ġt ara
Ġram adan
Ġu x
Ġun i
Ġt ud
Ġcreat ivity
un es
Ġdent ist
Ġqu i
Ġroy ale
Ġemploy ment
Ġchand elier
Ġj l
oy o
gl ass
Ġseg ment
Ġex amin
Ġlib er
Ġpng key
Ġc app
Ġlandsc apes
Ġrecept or
Ġcontrol led
Ġl ance
ar ks
Ġsur ge
Ġly ric
Ġsp elling
Ġbo is
Ġburn s
Ġw ound
Ġsupport ing
Ġscient ist
Ġant o
Ġmagaz in
1 30
Ġjohann es
Ġman age
Ġz inc
k ha
Ġ io
Ġl uf
Ġimmigr ation
Ġstr anger
Ġd read
Ġkaw asaki
Ġscr ub
Ġd ylan
ery l
Ġv og
Ġsare es
Ġn aw
Ġsp ike
Ġinterp ret
Ġpe er
Ġm ell
Ġpull over
Ġdis eno
Ġeug ene
r ose
Ġs ark
Ġte al
Ġrun way
at al
Ġdet ect
Ġchrist ie
Ġlob by
Ġlif ting
ch in
Ġ0 11
Ġn od
Ġpr ism
b ys
Ġo str
id d
Ġsand al
u w
Ġhead quar
Ġm ice
Ġfor ge
Ġk ett
ans on
z k
Ġinst acart
in ating
f old
Ġaff ili
Ġsl ing
le ment
10 9
Ġnex us
Ġs ack
Ġre acts
Ġrob ots
10 4
Ġstock s
Ġco x
Ġor n
m ot
Ġdispl ate
Ġv ive
org an
Ġold est
Ġcab les
Ġdisp atch
Ġscand in
Ġmicr obi
Ġconf ident
Ġt ad
v ol
we alth
Ġliz ard
Ġdis k
Ġdec ade
Ġfil ters
Ġdent istry
Ġout f
n ote
Ġmigr ation
Ġom aha
Ġgad gets
er as
Ġclipart key
Ġd ap
cion es
Ġn im
Ġch h
Ġphys iology
Ġrecharge able
Ġo sh
Ġhund reds
Ġant ar
Ġbr oc
Ġhold ers
Ġther apeut
Ġattract ion
Ġlos es
Ġbould er
r ol
a ul
Ġspect acular
Ġsab er
Ġl akh
Ġgu idel
Ġg q
Ġalgor ith
Ġk ha
Ġkr ak
Ġhook s
Ġpr ol
Ġor o
Ġmin h
Ġsav ed
Ġrebu ild
Ġhelp ed
Ġcomfort able
r ight
ind ra
Ġpre vi
Ġenc aps
Ġsant os
Ġn ieu
Ġzimb abwe
Ġtrans cript
Ġspar ks
gh ada
Ġkn ox
Ġgiov anni
l oo
Ġazerb aij
Ġdedic ated
Ġper ez
Ġmake over
Ġsothe by
Ġacqu is
Ġah mad
af er
h is
Ġab le
Ġk ant
Ġaddress es
Ġv ox
Ġhood ed
Ġdou g
Ġf ighters
Ġfranch ise
Ġn p
Ġhur ghada
Ġlion el
h ara
ad ora
Ġcel est
Ġmort al
b ob
Ġca ul
Ġstrugg le
Ġbu gs
ass is
Ġbath s
Ġcal le
y al
Ġmyster ious
Ġok tober
Ġ195 9
Ġguidel ines
Ġvers e
Ġpx fuel
Ġed t
Ġnostalg ia
Ġc ip
Ġc aj
Ġgr illed
Ġos ter
Ġpatri ots
ivers e
Ġmil it
Ġas os
he ter
Ġl r
Ġmultip l
Ġeff icient
Ġon ion
if olia
fil m
Ġcur ved
Ġbar u
ad ers
Ġv hs
Ġvang uard
Ġunt itled
Ġcop enhagen
Ġr ender
Ġinst al
Ġ4 20
Ġeff ort
ad en
an an
Ġes presso
w eek
Ġkr aft
ail le
2 20
Ġkup it
Ġra id
p ill
Ġsant o
Ġre z
at el
Ġan onym
Ġr otten
Ġm ere
Ġpiz zer
Ġth o
st ones
Ġ17 5
Ġlib eral
id ia
Ġdest ro
ay o
Ġper ennial
ent ry
Ġsc ream
Ġcur ve
Ġcle m
em po
Ġb ills
ie k
Ġrecon str
Ġsc ope
ik en
Ġrad ical
Ġaward ed
10 3
Ġmal a
Ġl le
Ġcheap est
Ġvill ain
Ġmind s
Ġhomework lib
Ġin clusive
Ġs ally
Ġreg ulation
Ġatom ic
Ġing les
Ġh ue
re ich
Ġwar craft
14 4
Ġinst ead
v ine
Ġmat ches
Ġji u
Ġbene f
Ġdun geons
Ġed iting
Ġcompreh ensive
Ġsal am
Ġper e
Ġj ain
Ġsh eng
Ġorigin als
Ġread ers
Ġ2 11
Ġy osh
Ġstar ring
ap i
Ġbal m
Ġd ac
Ġqu at
Ġwy oming
Ġc au
Ġb ump
Ġhand book
Ġzur ich
Ġh ick
ag ent
Ġrefr esh
og e
ale z
Ġtanz ania
Ġher bs
iven ess
Ġwond ers
Ġs ous
Ġhas bro
Ġbud dy
l ain
Ġcru ises
Ġsch we
Ġquar antine
Ġshar on
Ġcurric ulum
Ġf ior
Ġob st
e aux
Ġr uler
Ġgo ose
Ġt ester
Ġe commerce
b id
que z
Ġly st
Ġc isco
Ġpet ite
Ġbig ger
Ġ19 61
Ġimag ine
Ġmiss ile
Ġlon ely
Ġsp iel
if iers
Ġk la
Ġcur ios
oop y
Ġschl oss
het ics
cont act
Ġro lex
Ġhand ling
Ġad ding
Ġsl ash
Ġbl azer
Ġmad agas
Ġtiff any
Ġpige on
iv ot
Ġo e
Ġopt ic
Ġl bs
Ġhend erson
Ġim am
en stein
e as
Ġterr ain
k ah
Ġb aw
Ġpatric ia
Ġrev enge
or ie
oc ese
Ġdispens er
hy dr
Ġtake out
Ġap olog
Ġnatal ie
Ġbas k
Ġbl ur
Ġ25 00
Ġba it
Ġmarri ott
Ġglac ier
Ġott oman
Ġgal van
Ġintern acional
Ġ4 000
Ġan and
Ġbook store
cr oss
t oday
Ġw l
Ġt up
Ġconf idence
Ġb ok
Ġastron aut
Ġcl o
s d
Ġk ne
fr ame
Ġven om
Ġjack ie
Ġres ol
Ġapp et
ak ia
Ġapoc aly
Ġr ok
Ġbl ender
Ġwallpaper access
in form
Ġ11 9
Ġwik id
oc e
Ġtot ally
Ġdek or
y ms
Ġex act
Ġpik best
com b
Ġdemocr atic
Ġ19 55
Ġhung ry
Ġed itions
gre p
Ġhol mes
Ġfamil ia
Ġmotors port
Ġreport ing
Ġspecial ists
Ġapp art
Ġbed ford
Ġconn or
Ġma qu
Ġlaz y
Ġsub t
Ġsun flower
Ġch ong
Ġre ich
Ġpresent ed
Ġrecommend ation
Ġt ash
Ġro x
as ian
a us
able d
Ġrectang le
Ġsens itive
og er
ons o
Ġbrad y
Ġed mund
Ġdet ector
Ġbod ies
Ġmodes ens
Ġinstit ut
Ġbre xit
Ġk ung
Ġsocial grep
Ġchief s
Ġcl inton
Ġtelesc ope
rah im
Ġfert il
Ġcoach es
Ġbritann ica
Ġclos est
Ġactress es
Ġh af
Ġdecor acion
Ġrequ ired
est ro
Ġcolour box
ion a
Ġarmen ian
Ġtong ue
r un
Ġdes de
Ġnd eg
Ġv ec
he as
Ġn en
Ġi j
ks h
Ġc tv
r ab
b ak
Ġps a
ag gio
Ġbarr ier
Ġb istro
Ġgl enn
av ier
Ġpizzer ia
os ts
ow l
Ġinj uries
Ġv ander
Ġd angan
Ġn ip
Ġfoot wear
Ġaltern atives
Ġpal mer
Ġshot gun
Ġf ue
Ġr ave
Ġcoal ition
Ġn ih
Ġmil ton
Ġber kel
b ah
Ġse gur
Ġhart ford
Ġst able
Ġtah un
Ġind y
Ġgroup on
Ġcre ature
Ġchair ish
Ġs ides
j ak
Ġeff iciency
u jo
Ġyog urt
Ġhydr ogen
heim er
Ġan ast
Ġcat aly
Ġbead ed
co at
yl a
Ġparall el
Ġbas ement
men u
Ġspark le
Ġcart ridge
Ġj ong
Ġbu ch
Ġkar achi
Ġter l
u let
Ġconcern s
Ġgil bert
re ats
Ġfac il
Ġprom ote
Ġaut os
Ġbur ton
Ġcle ment
Ġbow ls
Ġtru ong
Ġp ah
Ġpros ec
Ġantig ua
e er
Ġacc ounts
Ġfl int
Ġa se
Ġfranc ais
Ġwor cester
Ġ195 7
Ġb p
c ars
ame o
Ġgod zilla
Ġthe ft
Ġrectang ular
Ġremov able
Ġst ing
ip ts
Ġfur ther
Ġl inger
Ġac ute
Ġlib ro
Ġaw s
Ġs ask
Ġmilitar ia
Ġsqu ir
Ġp uma
ur re
Ġsc ots
Ġrhyth m
Ġoper ator
Ġl ans
Ġz ab
Ġmix t
Ġaw ak
vers e
Ġaut ob
Ġguar ant
y de
Ġlov epik
Ġme hn
Ġreserv oir
Ġg oku
Ġse ating
cent ral
Ġcur ious
Ġb az
bl ade
Ġsud an
Ġdin h
Ġuz bek
Ġsup ers
Ġst up
Ġproject or
Ġmey er
Ġcandid ates
Ġjasm ine
Ġn ish
es ters
k as
Ġ2 70
gr ass
Ġdh abi
for cement
ol ph
Ġhac er
Ġj up
Ġtem po
Ġartist ic
ugu ese
Ġpr ove
ov sky
Ġsl ams
Ġk ac
Ġout put
Ġsell s
Ġdark ness
Ġlast ing
ys ide
v illa
Ġg ud
Ġsal a
Ġcar men
Ġself ie
Ġsl iding
Ġus c
4 50
Ġparent ing
Ġille gal
Ġrout ine
Ġstr ict
he ed
Ġport uguese
Ġcoc ina
Ġh wy
ets u
Ġ19 39
Ġpra ise
Ġlah ore
Ġcomp ilation
Ġlor enzo
Ġset h
Ġbm x
Ġsix th
Ġse aw
Ġw ip
Ġun esco
Ġreg al
Ġwr apped
Ġjo ey
Ġr aph
Ġco ating
Ġrepr int
g le
Ġheadquar ters
int o
yl ene
Ġbar at
Ġz ac
Ġan o
Ġpng tree
Ġt ender
Ġw m
et ed
Ġ5 12
Ġbox er
Ġme z
od ore
Ġfigur ines
Ġpand ora
Ġhom bre
es ia
Ġh acks
Ġsynth esis
Ġmadagas car
ad r
Ġfilm ing
Ġa pl
Ġn f
Ġbi har
Ġel s
Ġmal ik
Ġidle hearts
ad io
Ġman ip
Ġmad ness
Ġmar ion
20 17
Ġtar gets
Ġzd jec
Ġag encia
q i
Ġcard board
Ġpath way
ac re
Ġa ims
old er
Ġcam aro
Ġshould n
2 000
cent er
Ġmet a
Ġr ath
ch ild
Ġmoc ah
Ġdesign ing
Ġgrat uit
te k
Ġbalc ony
Ġrefriger ator
Ġz ir
ar as
ct v
Ġk k
Ġh ank
1 80
Ġh b
Ġar du
Ġstan ford
Ġ14 5
anche z
Ġvo i
bl ue
Ġell is
Ġpharm a
Ġp az
j on
y p
cel eb
Ġth ang
ud ge
Ġking ston
Ġunder wear
Ġdiagnost ic
Ġbra un
7 50
Ġth a
Ġr ish
Ġinvis ible
r ens
Ġt ate
Ġfond o
ild a
Ġlegg ings
stre et
Ġlap ak
Ġbet ting
Ġgr az
sc ape
Ġhedge hog
Ġfa ire
Ġres il
Ġug ly
or ious
Ġf ool
Ġprogress ive
Ġtable top
Ġvill ages
olog ists
Ġrem ed
Ġnak ed
Ġy en
Ġstar k
re cht
Ġkind er
Ġpreci ous
Ġstr ikes
Ġj orge
Ġh ast
Ġup i
mark ing
r aft
j ung
Ġsand ra
Ġprof iles
Ġstain ed
al ds
Ġtit les
13 5
Ġcann ot
Ġmy ers
Ġreg ard
Ġlaure l
Ġ4 80
Ġn oodles
Ġjournal ist
o an
Ġlot ion
Ġlens es
ost ock
Ġco ats
Ġschwar z
Ġrem ake
Ġdon na
Ġcam is
Ġcan e
Ġt out
Ġobs ervation
Ġradi ation
Ġpl anned
t one
Ġsav ings
Ġmuse o
et imes
Ġin tro
pl ate
Ġzomb ie
Ġp ard
Ġshp ock
Ġres ervation
Ġph i
Ġn ana
Ġgar land
Ġintellig ent
Ġs ends
Ġl er
Ġk ite
n ot
Ġadd iction
Ġkara oke
Ġb im
Ġp ada
Ġmald ives
Ġcal ameo
Ġet ernal
Ġbroadcast ing
om as
Ġrav i
Ġdrill ing
t ails
Ġd sc
om bo
Ġk ish
otech n
24 7
Ġint ens
Ġk itt
Ġcon vent
ont in
Ġr oles
Ġe ars
en ess
ic l
Ġalb a
og i
Ġweich ert
ar f
por ters
Ġmar ca
Ġb ind
ogen ic
Ġcop a
od on
Ġsett ings
Ġhead set
yc at
im eter
Ġmaxim um
Ġg ore
Ġval or
Ġmill ions
Ġfranc o
Ġbuff et
Ġsch n
Ġ19 44
Ġpix ar
str ong
Ġemerg ing
Ġb ale
Ġk ip
Ġt ens
h um
ad ar
d el
Ġqu a
Ġfood ie
Ġc us
Ġw aff
ib us
r ov
Ġsaus age
itar ian
ann el
Ġhug o
Ġcorn ers
amp s
Ġadvant age
Ġear ring
Ġfrank furt
Ġsal ud
Ġax le
Ġmond e
Ġk obe
it ung
Ġsy rian
Ġar lington
Ġst ag
l at
ur er
Ġale ks
Ġd ose
Ġur s
uk an
ov el
Ġjal an
Ġtrust ed
Ġcan opy
fl u
Ġf ailed
Ġban quet
Ġbrid g
e ers
Ġlaws uit
Ġfundra ising
Ġfel iz
Ġcan oe
Ġl ikes
pe ed
Ġ2 15
Ġshow room
Ġm ie
net t
Ġriv iera
Ġm ua
hel m
it ra
Ġmot if
Ġfried rich
Ġx p
el led
Ġmad onna
Ġut il
Ġplant ing
Ġall a
Ġis k
Ġtelep hone
Ġal o
ort al
Ġdram atic
Ġt aco
ib ia
f ab
Ġg ok
Ġd han
c ats
Ġ11 4
Ġlum ber
Ġair bus
j id
Ġb ats
Ġqu ir
ell en
Ġmat a
g t
Ġhands ome
Ġtim er
Ġflower ing
Ġs anchez
m ac
ast o
ass a
Ġel ena
Ġmehn di
Ġdo ord
Ġj ee
Ġrequire ments
Ġoak s
Ġfor ced
Ġpin n
Ġmy st
Ġko i
Ġfest ivals
Ġj iang
7 68
Ġcom pression
Ġreg istry
Ġshut tle
Ġbent ley
ist ory
Ġj amm
Ġtu ong
ess ive
Ġnetwork ing
Ġpl asma
Ġdens ity
w orm
Ġp ension
Ġgreen house
Ġsl ayer
Ġc inder
Ġcl if
Ġpet ition
ink i
Ġflip board
Ġpersp ect
Ġski ing
Ġsod ium
Ġshop good
Ġsw eep
Ġox id
Ġbat ch
Ġre gr
Ġret ired
Ġf d
Ġj s
Ġ195 8
Ġb urs
Ġpass port
te en
Ġy ar
Ġun de
led o
ow ie
Ġhot test
Ġr ao
ent h
Ġleon ardo
Ġang ola
Ġma iden
az on
Ġins ects
Ġd und
Ġwor m
ob ao
Ġmo j
Ġc ouch
2 10
Ġshopgood will
Ġsl ate
Ġinvol ved
de v
Ġfr ies
Ġnap les
Ġros en
Ġdel i
Ġsle e
Ġclar ks
Ġl ust
Ġitiner ary
Ġmagn ific
Ġtro ops
Ġshock ing
ong a
Ġnorweg ian
Ġle b
Ġcrim son
Ġadvert is
anc ia
Ġjul iet
f ir
Ġneg ro
Ġjuvent us
Ġsubmar ine
Ġparf um
Ġxia omi
ip a
Ġcigar ette
Ġ11 8
Ġbad ges
art i
p unk
Ġpre h
Ġcustom s
Ġreturn ing
Ġell i
Ġyach ts
Ġc j
Ġed gar
Ġwe in
w yn
Ġtac oma
Ġsw ivel
Ġsk ating
Ġtar ot
c reen
Ġb ingo
ur d
Ġot aku
Ġcontr actor
Ġhigh lands
Ġam g
Ġc k
Ġabsol ut
Ġgener ic
op ol
Ġmy stic
Ġtr ic
Ġps yc
Ġan te
ii i
Ġaqu atic
Ġalleg ro
Ġfranc a
Ġq b
Ġpor ch
f ather
Ġsubs cription
Ġ3 70
Ġhand les
Ġsnow board
Ġdev ot
Ġpublic ation
Ġlate x
Ġvan essa
ie z
Ġtrad esy
Ġro oft
vel le
Ġprepar ed
Ġj el
Ġiran ian
Ġle p
Ġs essions
Ġsh ree
b ull
Ġof icial
Ġkenn y
Ġbruss els
Ġbu ys
Ġbod ys
Ġardu ino
Ġstaff ord
Ġt uf
Ġst ake
Ġbuild s
z ing
u ate
Ġt ension
Ġra iders
Ġe ure
ica a
Ġsh own
Ġtat u
Ġfixt ures
Ġclark e
Ġinvest ing
Ġexc urs
Ġfr a
Ġrid ers
Ġvac ations
Ġsc uba
Ġcarr oll
ham s
con n
Ġconfir m
Ġcarry ing
Ġfold able
Ġair es
ble don
at ura
Ġcounter top
Ġd ich
Ġenh anced
Ġha ul
end ale
Ġurg es
Ġop h
Ġint ake
Ġdess erts
ron pa
Ġfe els
Ġmy cast
Ġd ots
Ġr aces
Ġsh ik
Ġhon ored
m aj
Ġarchae ology
ert ip
Ġj ig
Ġread s
ari at
Ġimp oss
Ġl akers
Ġscreensh ot
ith er
Ġd uct
Ġcere al
Ġhom este
Ġsl ime
Ġ14 4
Ġaf ro
al og
Ġl enn
Ġcr ank
Ġp eb
Ġsur real
Ġcay man
m aking
im as
Ġreal estate
Ġj b
br es
Ġoil s
Ġm erg
qu otes
Ġflip html
d as
Ġwr aps
Ġsuccul ent
l j
Ġsearch ing
Ġlis bon
Ġguarant ee
gar h
Ġberkel ey
Ġmiss ed
Ġgreg ory
Ġl ago
heas tern
Ġsl ice
x a
Ġn erv
20 1
Ġprov ider
Ġcinn amon
Ġd f
Ġscre ens
Ġwis ata
en eg
Ġins ulated
Ġamb ul
Ġbohem ian
Ġdangan ronpa
Ġatt ic
Ġof ic
Ġpat ron
Ġtrump et
Ġinfr ared
Ġver ge
th y
Ġradi ology
if ter
Ġreflect ions
Ġbel arus
Ġyank ees
Ġf iance
ess en
Ġins ulation
Ġab r
Ġconte xt
Ġgu ia
id t
Ġrav ens
Ġmaster file
Ġgar ment
Ġchir opr
Ġmotors ports
Ġz menu
Ġpc b
ve z
Ġw ad
Ġ8 50
Ġhous ew
Ġf aster
Ġj ai
Ġbutter flies
Ġber k
t ur
Ġinfl amm
Ġbelg ian
Ġbar re
Ġon g
op ed
ah aw
Ġn ook
Ġhand ed
Ġm ina
Ġind igo
Ġcon fer
Ġbatter ies
Ġequ estrian
Ġc umb
Ġsuff olk
Ġtempl es
Ġinfant ry
Ġx yz
g art
Ġcroc od
Ġrem odel
Ġsul f
Ġcomput ing
Ġdu ong
Ġmic row
Ġadm its
og ie
Ġexpos ure
Ġtor re
Ġch es
Ġbr unch
Ġz an
19 0
Ġtwist ed
Ġn ast
Ġkat y
Ġbr ought
Ġng ay
Ġadvoc ate
Ġcar mel
Ġwikid ata
ly fe
Ġsy rup
Ġburn er
Ġes per
Ġdun can
ab us
Ġup c
im ar
Ġcycl es
Ġd amp
Ġpag ina
char ger
Ġher r
ash ion
Ġpropos ed
Ġsp or
Ġwol ves
l c
Ġh enn
ac s
Ġm ih
Ġass am
Ġasp ir
ens ional
or al
Ġvisit or
ot ics
Ġsloven ia
Ġta obao
Ġmushroom s
ch ron
Ġst ages
ud er
ie ur
Ġgl uc
Ġre tract
Ġrec ycled
Ġ11 7
Ġky oto
Ġw oj
Ġal ta
Ġarch ery
Ġmol ly
Ġpron unciation
Ġste f
Ġwall ace
Ġsem inar
Ġdinosaur s
Ġh are
Ġbad en
Ġest ab
Ġhard wood
Ġsie ge
t u
Ġt aw
Ġcon go
att y
Ġg erald
Ġcl are
Ġopen ed
Ġbiod iversity
Ġbeh avi
Ġem manuel
Ġexp ands
Ġcl ad
ick ing
Ġj dm
Ġle c
Ġs aj
Ġsp ine
Ġk erry
Ġcond ens
esc ore
cl oth
1 78
Ġr ims
Ġres et
Ġser gio
ort e
Ġop al
Ġfred dy
Ġspr int
Ġcard iff
Ġv m
Ġ19 11
w oman
Ġd urga
Ġp ile
Ġcontinu ous
Ġclos es
Ġblood y
Ġf p
it ched
Ġkim ber
Ġcondition ing
Ġ195 6
Ġkaz akh
umb a
Ġdim ensions
Ġadd ict
Ġcondomin ium
Ġhost ing
Ġf ights
Ġin e
com be
Ġjew els
i ale
Ġm ister
Ġfre ak
Ġbr icks
Ġbel ize
Ġex o
Ġsup plements
Ġpe qu
Ġd ino
Ġass urance
id an
Ġing en
d ir
Ġwedding wire
Ġsw ag
Ġz er
Ġsqu id
Ġib rahim
Ġbull s
Ġp ace
st age
Ġfl oors
Ġencaps ulated
Ġtradem ark
Ġscar let
Ġl oon
Ġstr ips
k im
Ġconnect ions
Ġmand ir
bl ock
Ġj adi
rad er
Ġs ized
Ġart es
Ġfam ili
Ġinvest ors
Ġte ar
og l
Ġw iel
Ġr ant
Ġtrans plant
Ġc ull
Ġav on
Ġconnect ing
Ġh els
Ġextra ord
Ġto c
Ġnest oria
ar ov
Ġex cept
Ġhr s
Ġr ape
Ġfear s
Ġsouth ampton
Ġalb ania
em ap
Ġbloom ing
Ġj awa
Ġarab ian
Ġind uction
Ġleh enga
or ca
Ġmat ernity
Ġt au
Ġvar iable
Ġdoord ash
ay i
Ġop s
Ġultras ound
Ġsell ers
Ġp isc
Ġlamin ated
Ġshel ves
ast on
Ġm oy
Ġand ers
Ġmal i
Ġhum id
Ġrob e
Ġeas ily
Ġbe acon
w en
Ġres ep
Ġj j
Ġhom me
Ġmount ing
Ġsurf ing
wr iter
z es
12 8
r itis
Ġmeas ures
Ġros em
Ġoper ating
Ġquotes lyfe
Ġwim bledon
Ġsen ator
Ġ24 7
Ġimprov ed
om ag
Ġsur plus
or r
Ġ12 4
il an
Ġl ars
Ġfr at
Ġk ata
Ġind o
Ġelectric ity
Ġd ik
Ġdak ika
Ġdash board
Ġwar wick
Ġc ebu
an h
ac adem
Ġlet t
as ive
Ġz ebra
Ġpat el
n ap
Ġanonym ous
Ġsit u
an ian
Ġcomplet es
ocr oss
Ġorch ard
Ġj ok
Ġgl ove
Ġelev en
Ġunivers idad
Ġbattle field
Ġser en
h unt
oph ys
Ġr ene
Ġsh out
ph ere
im ento
Ġmoham med
d ec
Ġh es
Ġcell ular
ov ision
Ġrap ids
Ġc en
Ġart em
Ġch assis
Ġp ach
Ġpl ains
Ġexc iting
ro le
ber ra
op athy
Ġgas tro
Ġf ails
Ġtom as
Ġsusp ended
Ġ3 80
st anding
Ġj od
h il
Ġmort gage
Ġqu oc
m os
Ġsil va
Ġcontain ers
11 4
Ġju ven
b eck
Ġb aja
Ġdeals an
Ġpow ell
Ġdel ivers
Ġam i
Ġchar ms
ost a
Ġac ron
Ġs x
Ġchar ming
Ġ12 80
Ġh ust
Ġt ant
Ġg ull
Ġmom my
Ġhem p
Ġlinger ie
el n
Ġmac ed
Ġdiscuss es
Ġn ac
Ġbul ly
onom y
b read
st orm
ob r
Ġbu ick
und o
Ġmeth yl
ain a
Ġhold en
Ġgr ate
Ġkenn eth
m ies
Ġw f
sh ield
10 7
Ġvib es
Ġconf igur
Ġchop ra
Ġb v
ag na
Ġsuperst ar
Ġrec ip
at eral
Ġload ing
Ġv ila
Ġcar m
Ġr ana
ord er
tr acks
Ġpist on
Ġ11 1
Ġar ist
Ġrah ul
ih u
Ġheb rew
Ġsk yl
Ġdisord ers
e au
Ġwes ley
ar et
Ġsh al
Ġstev ens
Ġsuit able
Ġexhib itions
ar c
pie ces
h ound
p ton
Ġhand craft
Ġha iti
Ġsh red
ch io
Ġind i
Ġpue blo
ish ment
Ġmer it
Ġhaz ard
Ġcit rus
Ġknow s
sw ick
Ġcour ts
Ġgr inder
Ġyear book
bo ot
ps ons
Ġnob ody
p he
eg er
Ġattract ive
ita ire
Ġste amp
ob y
Ġe is
h on
Ġfill ing
Ġmcl aren
Ġf w
if ts
ok ee
Ġbang la
Ġmah al
c ks
sk ie
Ġcard igan
Ġsn iper
Ġminer als
Ġps g
Ġwid ow
Ġmaurit ius
Ġof ten
Ġcomplet ely
Ġrand y
es or
Ġel bow
Ġaltern ate
t ies
Ġazerbaij an
ific ations
Ġgu adal
Ġb oca
Ġno j
ic ians
Ġpip eline
y ards
le en
Ġpop py
Ġk ou
ily n
ir an
Ġgonz alez
h ana
Ġclass ification
Ġal ign
Ġfitt ings
Ġber kshire
Ġj orn
Ġd ost
irt y
Ġnom ad
Ġcater pill
Ġmist akes
Ġ6 40
Ġblock chain
Ġstol en
ob ili
Ġhar p
Ġterr ier
Ġmiddle ton
Ġp ike
Ġvi i
Ġcub an
Ġn our
Ġcar son
Ġn n
Ġtr amp
Ġtyp ography
Ġfn af
Ġinter mediate
end or
por ter
Ġch eshire
am oto
Ġk ali
ach al
Ġsh ane
Ġsurv ive
Ġpan ini
Ġ11 3
Ġwheel chair
re a
Ġexpos ed
Ġmetab ol
Ġcross over
Ġf uck
Ġg eb
Ġreg ulator
Ġwash er
Ġfun k
he k
Ġalb any
gur u
Ġprinc eton
Ġdod gers
Ġ19 14
Ġgrup o
Ġvt g
Ġeuros port
Ġukrain ian
Ġout break
Ġop el
Ġbarb ec
Ġtrous ers
Ġpres ence
Ġsch ne
Ġcast ell
Ġgam ers
Ġcosm ic
uck le
Ġlicens ed
ip eg
20 5
Ġperfect ly
Ġfr aser
Ġhu ang
Ġcompl iance
Ġbos ch
Ġsh it
Ġfin est
Ġles lie
Ġbac ter
qu a
Ġlun ar
Ġcal vin
Ġey esh
Ġj ov
Ġunve iled
f ors
Ġtum or
bir ds
Ġwin ston
Ġref lex
Ġ2 75
Ġsen iors
Ġpoly gon
Ġmaur ice
Ġcre me
Ġsand ers
Ġn ct
ink y
el ic
Ġpilgr im
Ġb g
Ġwend y
Ġca used
Ġuzbek istan
j ana
eg g
Ġac com
z yn
ull a
Ġrestaurant e
Ġvi en
Ġdors et
Ġmon och
Ġbah n
Ġseason al
Ġrain forest
c aster
Ġcontrovers ial
z as
Ġ19 10
Ġpneum atic
Ġf ier
l iga
Ġtel em
Ġpub s
Ġbh att
Ġb ew
Ġkyl ie
Ġ14 8
Ġnik on
Ġbour bon
Ġjas per
Ġk ern
r ap
fl owers
Ġelect ro
Ġref urb
Ġscot ts
ic ios
enz ie
Ġu y
Ġl ymph
Ġshad ows
Ġspr zed
Ġphys i
Ġmar ijuana
g el
Ġun o
Ġtr ung
Ġp ia
Ġsp inning
Ġre ign
ch urch
j iang
Ġr age
Ġey ed
Ġfac ade
Ġj k
Ġant io
Ġrehabil itation
Ġair line
Ġbron x
Ġmad era
Ġman it
Ġcast les
Ġtr uly
Ġchall enger
Ġpr eston
Ġf iy
Ġbor ed
Ġrever b
Ġreg ina
Ġcontrovers y
m obile
Ġun boxing
Ġden is
Ġsurpr ising
ern a
ile e
Ġtrek king
oc l
Ġstr ay
Ġtam an
Ġconsc ious
Ġinstruct ables
Ġpatri ot
Ġle bron
Ġjohn s
Ġactiv ated
Ġk een
Ġa ts
it able
Ġreported ly
Ġc affe
abil ities
Ġgal eria
Ġa ids
Ġgu err
Ġev alu
Ġcafe press
us i
Ġwiki how
Ġun ter
Ġcr on
Ġfr on
Ġdial ogue
Ġgr is
Ġcb se
Ġlocom otive
Ġp ai
Ġche w
Ġmas jid
Ġpres erve
u aries
Ġ15 5
Ġstory t
l ag
Ġbrok er
l ap
Ġd nd
Ġdry er
Ġmercadol ibre
Ġmust ard
Ġcas ey
h arm
Ġactiv ation
Ġferg uson
Ġref ill
Ġec ology
Ġsan it
f our
Ġac ura
Ġcan ter
Ġz oe
Ġyah oo
Ġsk id
ew a
Ġcub s
Ġstat ic
Ġot to
Ġwinn ipeg
Ġnews room
Ġim o
Ġpitch er
Ġnatur ally
Ġalexand ria
Ġmon o
Ġy ao
Ġtrib un
Ġl ill
Ġem oj
Ġsoph ia
Ġd g
Ġdomin ican
p ub
er on
Ġy t
Ġinv asion
Ġtub es
Ġyork er
Ġkn ob
Ġnort e
Ġal ps
Ġco hen
00 2
Ġst am
Ġair ways
Ġdraw s
Ġl d
Ġ12 7
Ġmem oir
Ġtusc any
Ġey ebr
Ġtai led
Ġrooft op
Ġhom etown
Ġdun geon
Ġvacc ination
Ġv uel
Ġar jun
Ġdev ast
il oc
d em
Ġhund red
Ġad ri
Ġge off
Ġplan ter
Ġcurt is
Ġl und
Ġfav ors
Ġum a
Ġh ary
v ik
Ġcan berra
99 9
Ġ978 18
Ġvod ka
Ġwallp ap
Ġk atherine
Ġres on
Ġpain ts
Ġhir ing
Ġo sw
Ġsp o
Ġphil ips
Ġcooper ation
ol le
Ġmo han
Ġpov erty
Ġmembr ane
Ġreyn olds
Ġbus es
erm o
Ġever green
Ġr ous
Ġhif imov
Ġbr oke
Ġstr ings
Ġp ipes
Ġtransform er
p edia
Ġal ge
Ġgrun ge
Ġf os
Ġsteamp unk
12 4
Ġs ich
Ġsand s
Ġn is
Ġbre tt
ag le
Ġdrum s
Ġsc am
Ġgriff in
c ell
10 6
it ate
Ġlat ino
Ġign ition
Ġjumps uit
b ang
in is
Ġlag oon
Ġmen us
al le
Ġam an
Ġbree ze
ag ara
Ġmicrosc ope
f le
Ġovers ized
Ġresid ences
Ġal a
Ġdisapp ear
ch u
uc ion
Ġdirect ors
Ġcomb ined
Ġmultif un
re b
Ġcrist iano
Ġviet names
Ġdia z
Ġfold er
Ġc ory
Ġg ai
Ġg ond
Ġlyn ch
tr ip
Ġnov i
Ġes qu
Ġecos ystem
Ġp iper
Ġc ig
Ġrepubl ican
Ġj oke
ul ui
Ġsp it
az o
Ġhun ts
Ġch iff
Ġr uf
Ġstr ang
Ġgeorg es
Ġpred ator
ay am
Ġconv ey
ir os
ec he
Ġfern andez
Ġbrut al
osp ace
Ġburg ers
Ġh ert
Ġfire arms
Ġno zz
Ġf uss
Ġl act
k or
Ġbr end
Ġsw atches
Ġimposs ible
Ġcl ara
Ġne cess
Ġrob b
Ġdeliver ed
opter a
Ġn ath
Ġk itten
Ġvietnames e
Ġbenn ett
st alk
Ġgrat u
Ġda ugh
Ġb em
Ġguest s
ge ek
Ġow en
Ġoutf itters
Ġsull ivan
Ġtrin idad
Ġph a
Ġm ets
ov ascular
Ġig les
Ġbald win
Ġcelebr ated
r ail
Ġa ust
Ġsecond s
Ġd err
Ġimm une
p ink
Ġmirac ulous
Ġme c
Ġlith ograph
Ġch ung
Ġcream y
Ġmagn olia
Ġdiagram s
Ġmant ra
us u
our se
el ocal
Ġroy ce
Ġeco le
Ġbol ivia
af i
Ġregister ed
Ġsubst it
Ġreb orn
Ġt ug
Ġprest ige
Ġhol es
Ġmatt el
Ġelli ott
Ġschem atic
ash ire
Ġarm strong
aze era
Ġkir by
Ġsp okes
Ġthe or
Ġelder ly
Ġe gl
Ġl yc
Ġye h
Ġv ascular
Ġcard iac
Ġ11 6
ors hip
Ġposts cript
app s
are a
Ġliter acy
ind o
Ġmark ers
Ġr opa
Ġse ater
Ġte qu
Ġcontract ors
Ġskyr im
Ġautom obile
Ġv c
ins ky
Ġhand ic
Ġget away
Ġfu ji
ism e
Ġtal iban
Ġeff orts
Ġbr oom
Ġx ue
ograf ia
Ġcan nes
Ġla o
Ġcul inary
Ġfeed back
Ġ ers
Ġgh az
Ġph at
Ġsc anner
Ġpass word
Ġpublish er
ac om
Ġend ed
Ġgu ards
Ġad el
Ġmind en
Ġreg ions
Ġn ino
Ġplayoff s
Ġflood ing
Ġovers eas
p se
Ġ195 4
Ġpan thers
Ġtril ogy
Ġwel t
Ġbac teria
Ġz ara
het ti
Ġalex is
Ġcamp o
Ġdup lex
Ġdib ujo
Ġt os
Ġdiffer ential
am ed
Ġlanc ashire
Ġwag ner
ab el
Ġpont iac
Ġed g
p oke
Ġred dy
Ġarch daily
Ġc x
Ġl itter
sh ell
Ġm ew
Ġswim wear
ie ves
Ġm uc
Ġm ok
Ġtur f
Ġmet als
Ġc bn
Ġl iam
Ġav al
Ġr ama
Ġmac r
r ade
r iver
Ġsw amp
Ġar che
we ed
Ġkar an
Ġmin es
Ġundert ale
Ġk ens
Ġg ains
Ġhass an
Ġphr ases
Ġst ops
Ġbie ber
Ġhaw ks
Ġrespond s
Ġz y
Ġinstrument al
Ġterl engkap
Ġsw ami
Ġtra uma
Ġgl oria
Ġvis ited
ie ver
p uri
Ġhair cut
Ġw ie
Ġper d
Ġtrol ley
Ġrhe in
Ġoff ensive
Ġbloom s
c up
oss a
q l
r ika
z in
Ġsens ory
Ġresearch ers
Ġgr ips
u is
1 70
r ated
an ks
Ġy r
Ġfree ze
Ġest ado
il m
Ġh umb
Ġhugh es
Ġz oop
h ad
am al
Ġfoll owers
im ation
Ġh ap
Ġpl aster
Ġo yo
em ption
star ter
m ind
Ġsc ram
Ġfle ur
Ġlud wig
Ġcouns eling
Ġj azeera
Ġshel by
Ġstr iker
z ig
Ġ195 3
Ġbreak down
Ġram en
Ġxx l
Ġh iv
Ġdispl ays
Ġpe op
hun ter
gre gor
Ġche ek
Ġy ap
Ġd io
y ang
Ġhist oire
11 8
Ġsqu ee
Ġkn ew
Ġw ii
Ġn ull
Ġfire works
og lu
t alk
Ġguar ante
Ġmosqu ito
m all
Ġway marking
Ġpro y
Ġmo ose
Ġsur ve
Ġact u
Ġsat urn
Ġtid al
ud din
Ġpriy anka
Ġb err
Ġom ar
Ġb anned
c ur
Ġnapole on
Ġestab lish
Ġchoos ing
f ields
em br
Ġdl c
Ġneur oscience
Ġno ct
at iva
Ġ16 5
Ġur ugu
il k
le by
Ġband ung
Ġarr ay
Ġrecruit ing
Ġdisney land
Ġ ombre
Ġses ame
Ġman e
ri ed
Ġsc or
Ġde gre
Ġt ina
Ġsteel ers
k ers
Ġmc d
Ġger ard
Ġric ardo
aj u
Ġtrad itions
Ġcupc ake
Ġmin istr
Ġshar ks
Ġnic elocal
Ġprov idence
Ġb ally
Ġfor ged
Ġcard inals
val ley
Ġadvis ory
m inton
Ġ12 9
Ġsn ork
Ġco op
Ġvill ains
Ġbord eaux
Ġmon uments
Ġgi org
Ġminim um
Ġperc ussion
ul f
Ġast ro
Ġturt les
Ġsig ma
Ġguide book
cr im
Ġkrist en
v est
Ġt ess
th alm
Ġimprov ing
Ġdress ed
Ġinvest or
Ġtrag edy
Ġanat om
Ġcarb ure
Ġtul ip
go ing
Ġdam aged
Ġcher okee
Ġterm urah
Ġhut ch
Ġcor ruption
Ġsettle ment
Ġcour age
Ġoper ated
in en
Ġg obi
Ġss d
t c
Ġl ure
Ġmys elf
emb ourg
Ġt una
Ġleg it
in ates
Ġindones ian
Ġwallpap ertip
Ġty ph
Ġs alsa
Ġput ting
Ġjup iter
ing u
Ġtext ured
up a
Ġmont ess
op ian
of er
Ġn og
Ġx inh
Ġun le
Ġ19 41
Ġrob ber
s r
Ġhon our
burg er
Ġmyr tle
Ġaud ience
ag os
ik k
Ġcompan ion
Ġ3 40
uff le
Ġwhit ening
iy ah
Ġmanag ed
Ġgen eva
Ġsim psons
Ġbreak er
Ġlob ster
Ġn oodle
Ġpng kit
Ġhelm ets
av ers
Ġh ams
Ġap a
Ġk ron
Ġchal et
Ġreview ed
h ive
Ġj aya
Ġmon et
Ġbre eds
Ġpass ing
Ġatlet ico
b k
Ġcr ust
Ġdown s
Ġsch on
Ġal g
Ġv p
Ġcompet itive
Ġc ag
onom ic
ud h
Ġlux urious
w ith
Ġprepar ing
Ġfor s
Ġass ignment
Ġglobal news
Ġprim a
m ington
Ġv erg
Ġwid th
Ġflu or
Ġas he
Ġ97 98
Ġfor bes
Ġline a
f ight
Ġmon arch
Ġtim othy
Ġend anger
Ġo j
Ġtah oe
or ters
Ġmac book
Ġsi oux
Ġ2 35
Ġarr ive
k ill
Ġpal azzo
Ġsy ll
Ġfab rica
st ra
2 30
Ġc ans
Ġc is
Ġzh eng
os lav
d irect
ct ure
Ġun exp
ay ama
Ġstra its
Ġequ ation
ach es
j it
v ir
Ġc ider
Ġearn s
Ġe un
Ġemb oss
Ġtow ard
Ġan i
Ġprot esters
Ġhung arian
Ġar iel
Ġgr izz
Ġorthod ont
Ġbarbec ue
1 12
Ġbee ch
Ġwater mel
Ġemb ell
Ġchatt ano
n om
p df
Ġreprod uctions
Ġel is
Ġren o
Ġk err
Ġin put
Ġsh annon
r unner
Ġgup ta
Ġg ao
Ġfa q
or ian
Ġenv ato
Ġlock s
Ġrece ived
Ġg ow
Ġpa ula
Ġf itted
Ġl x
Ġon s
Ġc ah
Ġs unn
p aint
eneg ro
Ġd ion
Ġref in
Ġst airs
Ġm aver
Ġassist ance
Ġcop s
Ġsem ic
Ġconc erto
Ġzep py
Ġh anger
Ġut d
Ġover t
Ġmontess ori
Ġe en
Ġo at
Ġmat r
Ġsun s
Ġpop corn
c ases
Ġse ctional
Ġmar ines
on ian
Ġl one
Ġkitch ens
Ġvisit ation
Ġc ertain
Ġg ec
Ġgift ly
Ġnap a
Ġrat io
ot on
Ġ4 40
Ġn ass
Ġmix ing
Ġrh od
f ound
otsw ana
Ġm our
Ġbrun swick
Ġlim its
Ġalb erto
od ing
Ġsponge bob
comm un
Ġf g
igar h
Ġlith ium
Ġinter s
iz ers
Ġspark ling
Ġb any
20 16
Ġengag ed
Ġl us
Ġrh odes
Ġr ays
Ġneigh bour
Ġar a
az u
Ġco eur
ud en
Ġpap ua
Ġer up
Ġappoint ed
Ġa ap
is ons
Ġel vis
ic um
Ġpr ak
Ġsah ib
Ġhu ong
am u
at ri
Ġme ch
Ġdevelop ers
Ġcoup ons
f ax
Ġf use
Ġmar r
Ġk d
Ġcar ic
Ġadv ances
Ġma e
Ġd unn
Ġsequ ence
Ġcoll aps
Ġimpress ions
Ġkal am
Ġelev ator
Ġbe aver
Ġbad minton
Ġh ips
Ġ19 42
ur ia
Ġaver ages
Ġunexp ected
Ġmind ful
Ġsol omon
eg al
Ġkr as
Ġarch ite
Ġe cr
Ġjon as
Ġoct opus
Ġappr ox
ond er
Ġmont enegro
Ġfib re
Ġall an
Ġrhin estone
Ġmed als
Ġsquir rel
Ġm oll
Ġext end
Ġdyn am
Ġam us
od ies
Ġtele com
Ġwick ed
Ġb otswana
Ġany flip
Ġnoj oto
11 3
Ġreact ions
Ġastron omy
ov y
Ġos s
Ġkr oger
Ġnap oli
Ġbeat les
haus en
Ġreach es
Ġavoc ado
academ y
Ġpas try
Ġpent ru
Ġdel eg
Ġhun ters
Ġgear s
Ġris ks
Ġc aves
ch ang
Ġ19 18
Ġfresh water
Ġmagn um
Ġexp orter
Ġos aka
Ġgad get
Ġrem aster
Ġbrows er
Ġal oe
Ġto ken
Ġperspect ives
Ġtr ace
Ġrecommend ations
Ġm ies
Ġll p
s ters
Ġbund les
Ġph an
Ġsp urs
Ġcu ad
Ġkomb at
Ġlaugh ing
20 2
Ġdec ades
Ġt anger
Ġdian e
Ġo ls
Ġdat as
af rica
Ġco ch
Ġ19 48
Ġharm on
Ġch ai
Ġom nia
Ġcon j
Ġrept ile
erd ale
Ġex clus
Ġres ign
Ġn hi
Ġbib l
Ġbi ograph
Ġinn oc
Ġred esign
Ġfest ive
Ġlux embourg
Ġsab ah
Ġconsult ant
enes is
Ġdipl oma
Ġbulld og
Ġit v
Ġu j
Ġmicr ob
g les
Ġfellow ship
ass en
e h
Ġjum per
Ġ2 16
Ġcar ab
Ġindic ator
Ġmicrow ave
ent ly
Ġv ort
un an
p orn
Ġnov els
Ġ3 25
Ġsu o
b ild
Ġhum ming
Ġspec imen
Ġeth ics
ow o
Ġadop t
Ġn oc
m aps
Ġir rig
Ġcont our
ern er
Ġbo z
Ġput in
Ġwr ench
Ġbrus hed
ou fl
n ation
Ġaud it
Ġdec can
Ġnord strom
Ġmag gie
Ġout standing
Ġf uz
Ġkick starter
Ġvent e
Ġwars z
Ġbrad ford
Ġw j
com ic
Ġblue berry
Ġm ord
Ġcount down
ang ana
Ġy p
Ġdistribut or
Ġt yson
que en
Ġadd itional
Ġkett le
th ink
Ġdu vet
anth rop
n ah
Ġm ba
Ġsh ank
ent on
Ġwebs ites
Ġc ults
Ġquart et
Ġcop yr
3 30
v il
Ġtol er
et he
Ġz ay
Ġph on
Ġ2 14
Ġlady bug
Ġpear ls
ier o
Ġe ck
Ġpol yn
Ġche at
Ġ12 2
Ġcross body
Ġkany e
Ġf ist
Ġmub arak
Ġto ledo
Ġgl ock
Ġbl uff
Ġturb ine
Ġsmok ed
it he
Ġess ays
Ġprot otype
Ġr ih
f iles
Ġlex ington
Ġp im
n as
Ġnov o
Ġlab r
Ġman ic
Ġhy pe
Ġz immer
bo a
Ġl oot
vel ess
Ġem in
Ġtre vor
ee ing
Ġreg ency
pr ing
wood s
Ġjournal ism
Ġpink villa
Ġy ay
Ġl ore
Ġprim era
Ġmon oc
c uts
Ġhandcraft ed
Ġtrad ers
Ġt k
ar g
Ġber ita
r age
Ġa aa
Ġspecial s
Ġtor res
m ount
Ġam br
Ġv ast
Ġstick y
Ġr att
w ah
Ġnic ola
l k
er ge
us z
b uzz
Ġt ense
Ġbened ict
Ġhunting ton
Ġth ur
erg lass
Ġmyth s
ul ating
Ġd ucks
olog ic
Ġth al
Ġacquis ition
re view
Ġ$ ,
Ġtim ing
Ġp he
plan et
Ġf ah
Ġreg ener
Ġgloss y
Ġmas cul
Ġkoh li
Ġfl ock
Ġpic ryl
Ġjewel ers
Ġz ona
Ġib m
Ġc aut
k ent
Ġcam oufl
Ġcook book
Ġbet t
it ri
Ġpal let
Ġfocus ed
Ġz hen
Ġ19 38
Ġko le
Ġ ella
Ġvolunte ers
uc o
ap ix
Ġl ava
ar ity
n ick
c ule
Ġk ew
Ġel i
aj ar
Ġbir ding
Ġhy un
Ġsq ft
r r
Ġvul ner
Ġy er
Ġsc al
Ġhome coming
ym es
ut sche
ard y
Ġter esa
Ġwin chester
Ġl ys
Ġaer op
Ġpr i
Ġ19 47
Ġten er
Ġj iji
Ġback up
Ġpre z
ass i
Ġnw t
Ġgrand ma
Ġre i
Ġterr itory
Ġt ux
Ġreg iment
Ġma o
Ġwith draw
Ġass emble
Ġcaterpill ar
kins on
Ġwed ge
Ġrad ha
Ġn us
Ġid i
Ġuk ul
ial a
Ġdet ox
00 3
Ġslee veless
Ġoppos ition
Ġhead ing
Ġter re
Ġwatermel on
Ġover all
if ica
Ġcraw ford
Ġsm iling
Ġdaniel le
Ġy ash
Ġlo om
Ġluc ia
Ġb oul
Ġbuy ers
unn ers
Ġact s
Ġmay be
Ġpend ants
iz u
ag s
Ġf alk
Ġr ita
Ġflor ist
og any
d orf
p acks
h ops
Ġhand y
Ġbr at
Ġcoc a
af ari
up er
ide o
Ġs aff
Ġb ae
Ġquad r
13 3
Ġvot ing
Ġmathem at
Ġy ale
2 40
Ġmet ers
ang or
Ġx c
Ġj n
ch aft
Ġaut or
Ġspart an
op olis
Ġy m
Ġcl ocks
Ġse als
Ġmir a
Ġbl itz
Ġp ash
Ġencoun ter
Ġop ent
Ġlong est
Ġmy c
Ġarch er
Ġpres ervation
Ġ6 000
s im
Ġr und
p el
Ġsain te
Ġdiv a
Ġrevers ible
og p
Ġre claim
Ġ3 10
Ġhapp ening
Ġd ont
Ġlo ire
Ġan j
Ġcor b
ii y
Ġgen es
Ġg k
Ġoph thalm
Ġfib erglass
Ġfavor ites
Ġseas ide
Ġtr ench
Ġbl aze
Ġal z
Ġun se
ev o
els en
Ġth igh
c ock
Ġg it
Ġtul sa
if ty
Ġover night
Ġlif ts
Ġw ides
Ġformer ly
est own
est ar
Ġmar ilyn
Ġmeasure ments
Ġsel ena
Ġs ikh
un ts
Ġmir anda
Ġendanger ed
Ġd end
met al
b ilt
Ġcommon wealth
Ġtact ics
Ġwh istle
Ġre vision
Ġad r
Ġcris py
ial es
Ġdim ensional
Ġjan et
Ġne b
Ġpot atoes
Ġappl iance
Ġpl c
Ġmalays ian
Ġpant alla
Ġhomeste ad
Ġwh ose
Ġviv id
Ġgro ove
11 6
Ġriver a
Ġend less
Ġmar se
Ġbach chan
Ġv om
Ġdem i
crib ed
Ġill ness
Ġle igh
Ġmagn ets
Ġrem ark
Ġam end
Ġfl aw
Ġk uk
Ġfl uffy
ag ers
Ġv os
Ġwil helm
Ġbes poke
Ġcam ino
yn n
Ġib iza
Ġbreed ing
Ġsh or
st y
Ġtown house
Ġpre v
Ġd ov
Ġmus ee
Ġd ort
Ġk ats
Ġam d
Ġson oma
am ing
ibe at
Ġc erc
Ġprop het
Ġdy ing
Ġbr awl
Ġisol ation
Ġvern on
Ġhal al
ill ance
ood o
Ġnat o
p ages
Ġa eg
Ġd ict
Ġsciss ors
Ġexpl an
Ġrecomm ended
le ys
ik on
Ġf erm
Ġwes ter
Ġremed ies
Ġs iv
te x
Ġsim one
Ġl ugar
Ġman ia
Ġex ams
Ġc un
Ġel e
j ah
11 7
Ġ11 00
Ġ20 5
Ġrichard son
Ġmead ows
w u
Ġsoc iet
Ġdar ling
v ey
Ġ2 90
Ġfif ty
Ġme hr
Ġgee ks
Ġimpress ive
Ġdef ine
Ġcon an
uts u
Ġalp es
Ġmujer es
Ġcr iter
Ġem otion
Ġreserv ations
n agar
Ġk ont
Ġsp ill
Ġlo af
Ġd ora
Ġcla us
Ġmah ogany
Ġh anna
ro en
Ġlo ans
q a
Ġ3 16
Ġwest minster
Ġpair s
Ġcompos er
Ġg yn
Ġhandbag s
Ġb ows
Ġcal ab
Ġt ic
Ġkend all
Ġfilm ibeat
ay ette
ba um
unt u
Ġneigh b
Ġabsolut ely
Ġchick ens
ut or
Ġt ari
f red
Ġsc ales
Ġguarante ed
Ġpic xy
Ġcr ock
Ġtr on
Ġanim ados
Ġscot ch
Ġg g
Ġn ey
Ġi ot
ari as
Ġp ans
Ġmanif est
m k
Ġcost co
Ġfranc esco
Ġre k
Ġcord less
Ġsom etimes
Ġrit ual
ind i
Ġam al
Ġd dr
Ġk ast
Ġs art
Ġbrush es
Ġ19 43
Ġever ton
ament os
Ġin vert
Ġstory board
Ġsp ending
Ġun ite
Ġconsult ants
Ġz al
Ġdul uth
or ig
bo oru
Ġh vac
Ġzoop la
Ġt ast
Ġn ess
Ġden ies
atch er
Ġsquad ron
Ġne pt
Ġl w
Ġspeed way
Ġf ug
Ġl ighter
Ġsur geon
bn ation
Ġl ures
p ell
Ġg ild
Ġill usion
Ġchattano oga
Ġfr inge
Ġser ena
ec cion
Ġpant ry
Ġp orn
Ġpe int
Ġdu el
Ġe ks
Ġsic ily
Ġcopyr ight
Ġbasil ica
Ġreflect ive
Ġmoz art
Ġpeop les
Ġre ward
Ġrestr ictions
Ġimp orts
Ġsyn c
Ġb ought
Ġclin ics
Ġlak shmi
Ġs ama
Ġinstr uction
iel der
bur st
tr avel
Ġb inh
Ġbritt any
Ġr iley
Ġtac os
Ġkey word
Ġhog ar
Ġrh ino
Ġhar ass
Ġa vis
Ġspiritual ity
Ġr ibb
Ġsem if
Ġcinder ella
Ġrac ism
Ġpromot es
Ġpul s
m oor
Ġhost ed
c oun
ink er
Ġbell s
en ers
Ġp j
Ġbos nia
Ġwear s
Ġka iser
m other
Ġal iment
Ġf bi
ity a
Ġwheel er
Ġwarrant y
Ġs ush
iky uu
Ġst ard
Ġmir r
Ġpros per
Ġsatis f
Ġdon ation
Ġcountr yside
Ġem m
Ġmod er
Ġkim ono
Ġreop en
b ish
Ġdepend ent
Ġwik iloc
Ġcarr ie
Ġfl ames
Ġmechan ics
Ġministr ies
ad in
ves ter
ub le
Ġd af
Ġcock tails
Ġmc cl
Ġscandin avian
w ani
tr ay
Ġgener ations
12 9
Ġk ek
Ġz ul
Ġhotel contact
Ġsupern atural
j ang
Ġcr uel
Ġ19 49
Ġb unch
Ġth uc
15 5
Ġandrew s
Ġappr oves
walk er
eb ol
Ġpath ology
j en
Ġl op
Ġtr acy
Ġcair o
Ġkult ur
Ġeur ovision
Ġappr ent
Ġpo z
Ġni agara
est y
Ġvig il
prod uctions
yt he
len inka
Ġag ree
Ġnob el
Ġdaugh ters
Ġj our
Ġthr u
Ġdr es
Ġb oun
am ich
at ie
Ġachiev ement
th am
11 1
Ġw ong
Ġdeport es
Ġ202 3
Ġhex agon
Ġbar oque
Ġrest ore
Ġcp u
Ġload er
Ġeyesh adow
Ġnik ki
Ġincor por
Ġdes ire
Ġimag ens
Ġde ere
Ġgrav el
Ġcharm board
ol or
c re
Ġsw irl
Ġsqu ash
Ġcle ver
Ġp ey
Ġlaud erdale
Ġcor rid
Ġcoll apse
Ġdep op
Ġsign aling
ch os
Ġsq l
Ġluck now
Ġdayton a
p arts
Ġproduc ed
Ġbar rett
Ġbrand ed
Ġj edi
Ġo tr
Ġn iz
Ġboard ing
Ġhij ab
Ġcal f
Ġbey once
Ġtatt oodo
Ġst abb
Ġpre l
Ġ2 17
Ġsp ur
Ġhapp yc
Ġtour ists
Ġ30 4
Ġis la
step s
s y
iel e
k id
p ay
list ed
Ġproc eed
Ġab dom
Ġconnect ors
at che
Ġlind say
l ak
Ġspook y
Ġh bo
Ġauss ie
Ġstore y
Ġobit uaries
Ġemb ed
Ġa am
Ġcons ol
ind y
Ġcer am
Ġmich ele
Ġsr in
ol and
Ġmar ry
fe ed
Ġve il
Ġguid ance
f el
Ġkazakh stan
Ġcorn ell
Ġmot ogp
on al
cl iffe
Ġatm osphere
id al
Ġy os
Ġth ro
ri um
Ġred uced
us o
Ġav en
Ġherb ert
d ig
Ġrod s
Ġor ph
Ġar v
Ġtim eless
Ġac re
d ham
Ġsurve illance
Ġd la
Ġtop o
Ġmor rison
il and
Ġhe pat
Ġtel angana
Ġa an
ad aily
ak ar
Ġshop style
om ics
Ġtrav elling
Ġangel o
Ġiss ued
Ġmel ody
Ġcount ing
Ġgr ays
Ġmck in
as in
Ġdi ocese
Ġproced ure
Ġmoham ed
Ġ19 37
Ġf um
ian e
Ġblack well
Ġnort on
Ġrem od
Ġw ich
Ġbart leby
Ġcol um
Ġp au
Ġvalent ines
Ġnik ola
Ġre id
Ġth ames
ch ia
Ġload ed
Ġf ou
Ġhal aman
Ġmerch ant
iab ility
Ġlaf ayette
Ġj amb
t as
at ivo
m eme
str ing
Ġsh ub
Ġcrypt oc
Ġab erd
Ġs oo
Ġar un
Ġcell o
Ġsel angor
Ġincre ased
Ġflu ores
and ar
Ġval u
Ġprovinc ial
Ġfre estyle
Ġpr ab
is al
Ġper cy
an us
Ġalleged ly
Ġwh isk
Ġnair obi
Ġasp en
Ġshoot er
Ġarr ivals
Ġx v
Ġse ab
Ġrode o
Ġvin ce
en k
Ġcour s
Ġfl a
Ġtransf ers
Ġstar r
Ġinter action
Ġ14 9
Ġweb er
Ġaer ospace
iz ia
Ġst utt
Ġdon key
Ġmagnific ent
Ġrail ways
Ġlabor ator
Ġx avier
Ġcancel led
Ġha ikyuu
Ġtre ad
13 4
Ġmembers hip
Ġox ide
Ġco imb
20 4
Ġcrem ation
Ġc ep
ar oo
yl um
Ġsh ui
Ġm aw
Ġpill ows
Ġbl air
Ġas ph
Ġcho i
Ġv ign
Ġacc ents
Ġcook s
Ġos lo
Ġk all
int e
Ġcho ices
Ġpen alty
Ġwolf gang
w erk
Ġant hem
Ġpropag anda
Ġsc are
Ġchron ograph
Ġtam ar
n ov
Ġa al
Ġw ade
Ġdisapp oint
uss ia
att o
Ġ195 2
Ġukul ele
Ġrevolution ary
Ġrest ored
em ann
Ġwe aving
er ick
yc z
Ġcoron ation
Ġanaly st
Ġser a
Ġnation als
Ġdr ip
Ġsn ail
im ag
Ġty re
Ġpray ers
Ġbel i
Ġover look
19 5
maj eur
Ġoppos ite
Ġfreel ancer
Ġtrain ers
eb ox
Ġart majeur
Ġremov ed
Ġcomp ens
Ġim plant
isc us
Ġsalt water
yc ar
Ġsp ag
00 5
Ġport ug
Ġstr aps
Ġanto ine
Ġel sa
Ġdes eret
Ġr ov
12 2
v re
re ach
Ġameric as
Ġalge bra
Ġmar x
Ġk ya
ig ue
Ġgu ill
Ġank ara
Ġl any
qu id
Ġhappyc ow
Ġaz ur
on aut
Ġsignific ant
Ġb ids
Ġr ats
Ġ2 24
Ġm ower
act ory
let a
od yn
l ong
it el
Ġcol t
Ġflav ors
gr en
Ġa unt
Ġk ush
Ġh enna
uc c
Ġbik emap
Ġsil vers
Ġy on
iy o
ig ator
00 7
Ġrepair s
d ia
Ġsy mm
ul am
Ġgr ades
Ġr app
Ġmaj estic
Ġassist ed
Ġrick y
Ġ12 6
Ġperform s
Ġb ola
Ġm sc
c ements
Ġbuy er
Ġmaster piece
Ġc ctv
Ġviol ent
Ġmusic ians
Ġmad ame
ber ries
Ġste al
Ġle ap
Ġpalest ine
Ġche z
Ġki wi
Ġcrocod ile
Ġbl o
st udio
Ġmin news
Ġgrate ful
Ġ2 18
Ġh ound
Ġchest nut
Ġbo ating
Ġmill enn
Ġho ops
Ġbr av
Ġa yr
Ġwaterfall s
Ġw ai
ost at
hn a
et um
Ġal ly
Ġfa ult
20 3
Ġconstit ution
Ġneg oti
Ġraph ael
Ġsights eeing
Ġaut ot
Ġgen etics
Ġfurn ished
r aw
Ġdess in
Ġbuddh ism
Ġdistr essed
Ġpreview s
j m
l ift
Ġi heart
Ġappear s
est hes
Ġval ves
Ġal it
Ġ20 8
ograph er
Ġwor ry
Ġbel ts
Ġposter azzi
g is
ish er
Ġground s
Ġflam ingo
Ġp ax
Ġpath finder
us ep
Ġt oul
Ġsh il
Ġsubur ban
Ġcar av
Ġchiff on
Ġne cr
Ġdegre es
g ent
Ġclaud ia
oc on
Ġn ied
Ġspons ored
Ġar iana
Ġextraord inary
Ġlong s
Ġf are
Ġpublish ers
ic ious
Ġyad av
em p
gr ove
Ġsa at
Ġsp here
Ġpass ed
Ġg x
Ġx mas
Ġdis ability
Ġtur ist
vel ope
Ġdin er
ain ts
Ġc il
Ġdev ils
Ġcrash es
ag us
Ġen emy
iy or
Ġal ber
ig l
Ġtodd lers
h ail
Ġspr ink
ib al
Ġcalc ium
Ġorig ami
fri ed
Ġimplement ation
Ġmoroc can
Ġrec alls
Ġdan booru
Ġj at
Ġwh irl
Ġd ank
Ġtwe ed
Ġfres no
Ġscr olls
Ġvers a
Ġal ma
Ġr ani
om al
h av
Ġsn akes
Ġhuman ity
Ġcamoufl age
ig ation
v ana
Ġpol aris
Ġse h
Ġfac ed
Ġgr aves
Ġc ale
Ġacron yms
Ġges ch
em os
Ġadmir al
Ġplan ets
Ġcab ins
Ġen forcement
Ġapr on
Ġwc w
aw atch
Ġpsyc hed
Ġsc ielo
Ġs eng
ug an
Ġbic ycles
Ġrep os
o ys
Ġres urre
ol ith
ch y
Ġprint ables
Ġall ergy
Ġshe ar
Ġpoul try
Ġwh ip
Ġmy l
Ġcogn itive
Ġj ugu
Ġpol ka
Ġpul p
Ġchild rens
Ġg iv
Ġgr ows
amich elin
Ġvi amichelin
Ġcompar ed
Ġgyps y
or us
Ġdirect ed
or ous
op en
rec ipes
ey er
Ġshet ty
Ġpan ic
Ġleak ed
Ġed m
Ġl ara
Ġmar a
Ġcover ing
Ġgown s
Ġpale o
Ġpun ta
Ġimm ers
Ġs izz
Ġpr ist
Ġgo alk
Ġcheer le
Ġtourism e
Ġhuss ain
Ġde pt
Ġche et
Ġpub g
Ġins ign
Ġkh o
Ġmin nie
Ġf aw
ac ja
Ġ ert
Ġgarden er
Ġmirr ors
Ġperforman ces
j am
Ġpr og
Ġtr if
Ġ4 30
Ġsud den
ish es
Ġalex a
od end
Ġclay ton
Ġevery where
iss y
Ġmethod ist
Ġf da
Ġyoun ger
Ġtre ated
Ġh eter
Ġye ah
d iv
Ġde utsche
Ġg ant
Ġn eder
Ġhom er
Ġn au
at ron
Ġ5 30
ach u
il en
Ġale j
Ġanc est
Ġnik ol
Ġt ern
s tery
Ġv n
Ġre wards
Ġhop kins
al id
Ġplant ation
Ġg org
12 7
Ġopent able
Ġra e
Ġfor ks
13 8
Ġb ess
Ġt aper
Ġach ieve
Ġfa una
Ġb ion
na a
Ġt osh
Ġhimal ayan
Ġtur ki
Ġhel ena
Ġurugu ay
Ġch it
Ġgl adi
Ġb ets
11 9
Ġjud y
Ġcyber leninka
Ġlabr ador
Ġpill ar
Ġhans en
Ġcritic ism
Ġcoc oa
Ġtod os
Ġdol ce
Ġcycl one
Ġp ills
Ġsh ankar
Ġc ds
Ġst ub
ab out
Ġz ones
Ġextrem ely
Ġtel ec
Ġx vi
Ġf erd
Ġcor olla
Ġ19 36
or ks
Ġcook pad
Ġblack pink
Ġsal z
air a
Ġincre asing
yt es
Ġam o
Ġstock lib
ri j
Ġling u
Ġj f
ald i
Ġdolph ins
Ġt ae
Ġcollect ing
Ġd ine
Ġh ig
Ġfur ious
Ġgor illa
el ves
Ġcy t
Ġslov akia
Ġpul mon
r ington
app e
Ġkaly an
Ġba um
Ġar i
Ġbab u
Ġdocs ity
esh war
ie p
Ġscholar ships
ad ena
Ġsun der
Ġgentle man
Ġpa olo
Ġy ards
Ġexcav ator
Ġdef end
Ġfl ac
Ġfree art
Ġalit ools
Ġgr as
Ġsh all
Ġmon op
Ġint elle
Ġjo hor
ant an
14 5
Ġpack ers
13 9
Ġrang oli
Ġalt ar
ug s
Ġn erve
Ġre ch
p ants
Ġ erm
Ġdescar ga
Ġkee per
Ġgeorg ian
Ġis is
Ġschne ider
ment ed
Ġcompon ent
Ġ13 9
Ġby z
Ġchemical s
Ġfl ap
Ġaest hetics
Ġin clusion
Ġsu a
Ġp ong
Ġj w
Ġpar aly
Ġsid ew
Ġgroom ing
it ely
Ġtumb ler
Ġhoriz ons
Ġshell s
el ong
Ġmunicip ality
op ing
Ġambul ance
Ġad en
en ary
Ġpreh istor
Ġz ai
Ġsymp os
Ġmus ings
Ġalgorith m
v ill
Ġmut ant
Ġal k
Ġdestroy ed
Ġrefer ences
Ġreb els
Ġhoney moon
ij o
ta a
it ian
Ġfl op
col i
Ġgar rett
iosa avn
Ġint ent
d ock
Ġwan ita
Ġrel iable
Ġluther an
Ġang er
Ġdaily hunt
Ġpresident e
ce ed
Ġoff line
Ġdar ren
Ġbon nie
Ġcow ork
Ġne ph
Ġch uan
Ġest ilo
Ġca uc
id ents
Ġ19 35
Ġcharacter ization
Ġinv asive
Ġbo iler
Ġpup pet
l v
12 6
Ġr ises
Ġgal way
Ġbr avo
Ġtumb ex
ard en
Ġrec all
Ġtun es
Ġmc gregor
Ġmor al
z r
otechn ology
Ġpanor amic
Ġshaw l
st all
Ġpic asso
Ġp ob
o ints
Ġhy de
Ġy and
st uff
Ġnar c
Ġinvest ments
Ġv ue
Ġswitch es
Ġst ays
Ġd une
Ġol imp
Ġla id
Ġpin oy
Ġball er
Ġback ed
Ġ ery
Ġcab o
Ġamb ient
00 4
Ġuphol stery
Ġact ions
ro z
at ile
Ġy ol
Ġv ibe
k ids
Ġa es
Ġent ers
tr ader
Ġmc n
Ġranch o
Ġand hra
Ġspin ner
ind ers
Ġsch ul
Ġhe p
haw ks
Ġmus ik
Ġrobot ics
Ġh ms
Ġpen ang
Ġbh ai
end en
Ġdef ends
Ġe ase
Ġb azar
Ġsl a
own ed
Ġg us
Ġcateg ories
Ġsign age
Ġaudiobook s
Ġ978 17
Ġbodys uit
Ġnews day
Ġsp ent
m useum
Ġpolit ico
as co
Ġosc ill
Ġprosp ects
Ġhar old
Ġey ewear
Ġf encing
Ġk au
Ġgraph ite
Ġep oxy
Ġmal ibu
Ġdr ac
Ġslid eshow
Ġse ga
whe el
Ġgu i
Ġ ure
le p
Ġrele v
Ġbon hams
Ġfutur istic
Ġunivers ities
Ġw k
Ġinfant il
Ġmil estone
Ġo de
Ġgen us
od en
ount y
Ġ3 35
Ġe ph
Ġproy ect
Ġlap el
w ed
ipp o
Ġbless ing
Ġk aur
Ġch ia
Ġble u
Ġcar ey
Ġh ath
Ġesc ap
Ġstre ak
Ġbel oved
Ġc ody
Ġgar bage
Ġtrans par
Ġjane iro
Ġprom ises
Ġla ut
Ġbron cos
Ġint ense
Ġbak ers
Ġthr ill
Ġin m
e et
Ġout comes
Ġappr oval
Ġgi usep
Ġt ach
Ġ3 15
Ġluc a
Ġne al
Ġcer emon
Ġfabric ation
Ġg aur
Ġem s
Ġbe k
Ġcum ber
elect ric
Ġguy ana
Ġtequ ila
oph il
Ġmock up
Ġmanus cript
ad ay
Ġjacob s
n m
Ġhond uras
Ġcl ients
Ġb ov
3 80
Ġco o
Ġed el
Ġgrad ient
Ġa uk
Ġchak ra
Ġbehavi our
Ġshin ing
Ġcit roen
Ġcatch ing
Ġz hou
Ġvel ocity
Ġmarc os
Ġen velope
ust a
Ġj iosaavn
ir k
ill os
Ġaccur ate
Ġp lex
Ġmud ah
m atic
enc i
Ġpier ce
Ġcole man
Ġwand ering
y at
Ġphilos oph
Ġactiv ist
Ġallow ed
Ġw art
Ġhead light
Ġserp ent
Ġrefuge es
Ġcontr ast
Ġcr ate
Ġcr ore
co on
Ġdim ension
Ġdon ut
Ġuc la
Ġrich ards
ism a
Ġwil mington
yl la
Ġge ology
Ġch iang
ol ina
ug er
Ġnam ibia
Ġlibr os
Ġdoll ars
ac les
Ġtc g
Ġmal aga
Ġrespons ible
Ġdie u
Ġwat ts
am at
Ġoff s
ground s
Ġat p
Ġradi ator
ieg el
Ġl umb
ar ina
an er
Ġn ix
Ġworks hops
Ġcan h
Ġth inks
Ġr ans
Ġdun ia
Ġsign als
Ġht ml
Ġt ilt
Ġc im
Ġdecl ar
cl air
Ġ2 19
h ampton
Ġarquitect ura
bre aker
eb urg
l al
Ġsm iles
Ġo pr
Ġng he
Ġdr ought
c ie
Ġwhit ney
7 20
Ġdes per
Ġpref ect
Ġte ak
el ope
Ġthe o
Ġlot tery
Ġlat itude
Ġpo e
hor se
Ġsut ton
Ġh h
al ah
Ġup sc
en ic
is ers
Ġte as
amm ed
Ġmonoch rome
Ġor i
Ġrih anna
Ġb air
Ġord inary
Ġ13 8
ri ers
Ġpay ments
z l
Ġhab its
Ġamus ement
Ġwo hn
Ġk j
ind le
Ġne ural
v ie
Ġcol oured
Ġdemol ition
Ġab er
Ġbillion aire
Ġro oster
Ġgr ams
Ġrepe at
p oon
Ġpart e
Ġeyel ash
Ġ195 1
Ġern est
b uch
ochem ical
el ve
Ġfor ex
Ġbran ches
Ġpl ank
Ġdam n
Ġwars aw
Ġpe gas
Ġfurn ace
Ġwood y
Ġthr one
d t
Ġy uri
Ġshow down
Ġscorp ion
qu are
g ic
Ġwin nie
Ġsilver ado
it ative
Ġsid d
Ġfree zer
he el
Ġph older
Ġgl ut
Ġf uk
Ġjav ier
Ġprocess or
ud u
Ġal ison
Ġmv p
Ġzir con
Ġpres cription
Ġam our
Ġj ans
Ġvar ieg
Ġjourney s
Ġsens ors
Ġmc gr
Ġth ak
Ġscot ia
Ġch asing
n eck
iling ual
Ġdol ly
Ġoptim ization
Ġtr ich
Ġf k
Ġwing ed
Ġhall s
yn th
Ġopt ics
m ay
Ġbreath able
Ġre boot
Ġm ee
Ġbr aves
Ġint imate
Ġcry ing
Ġbl ing
Ġman uals
Ġethi opian
ut ation
urga on
emb ers
Ġs int
Ġbrig ade
Ġnurs es
Ġpl ots
17 5
Ġprepar es
Ġsmile y
Ġh ao
Ġcapt ured
Ġgoth am
pe ople
Ġquick meme
Ġcanc ellation
Ġstrong er
Ġnu oc
Ġdestr uction
m ak
Ġwebs ter
Ġthes aurus
Ġat trib
Ġap ache
m ist
y our
Ġper g
Ġmus escore
Ġjoin ing
Ġalb u
Ġcour ty
Ġd ile
Ġz n
Ġdeep ika
Ġinflu encer
Ġcontr oll
Ġsen egal
Ġquick ly
en ant
ott le
Ġpr un
Ġsk irts
Ġbor ough
Ġrespir atory
Ġfeel ings
Ġdis crim
Ġwas n
Ġgig i
Ġresid ency
ch art
Ġstom ach
Ġ3 75
Ġnation wide
Ġprevi ous
ch ief
Ġfl ux
ung a
st icks
an ze
her oes
Ġh ock
Ġsubt it
Ġdel le
Ġchop per
Ġtooth p
c or
Ġreconstr uction
Ġand res
w on
Ġtor que
Ġsch um
Ġgr ants
ep ad
d ue
Ġinc ense
Ġar ter
Ġz ion
Ġirrig ation
Ġcon qu
Ġcomp ost
uel le
Ġkat rina
Ġse ine
c ad
re v
p us
Ġfe ud
Ġfamili ar
Ġweb b
f ashion
er u
Ġpres by
Ġg mo
Ġcol ogne
ess o
Ġher cules
Ġ7 70
Ġash ton
Ġgr om
b ahn
Ġne gr
Ġins ane
Ġap e
Ġch inh
amer ica
Ġpar r
Ġfeed er
Ġdesc end
f x
Ġtim ings
orn a
Ġwork book
Ġshut ter
ag awa
Ġel y
k ot
Ġsemic onduct
Ġp iaz
Ġst ok
Ġretr osp
Ġrif les
Ġdi os
sh ots
Ġp ivot
Ġwatercol our
Ġang l
Ġcanter bury
Ġse ar
ho e
Ġf let
Ġko ch
ur us
Ġeduc acion
Ġphys ician
Ġsh y
Ġsympos ium
Ġcoll ision
Ġmund ial
Ġx e
Ġbl ond
ipe i
pos ed
Ġsh aker
Ġru led
Ġtrou bles
Ġel ig
ag ues
Ġzdjec ia
14 8
Ġd over
5 50
Ġf ade
Ġmar uti
Ġbow ie
Ġpay ing
Ġgard ner
Ġd ota
Ġgovern ance
Ġhus ky
iz ado
Ġperiod ic
Ġbox ed
Ġadvant ages
Ġ oud
Ġcur se
40 1
Ġdism iss
Ġ4 60
Ġhor oscope
Ġwr ites
Ġshare chat
Ġen field
Ġc att
Ġsequ el
Ġl oll
Ġhan uman
Ġbook shop
Ġannoun cements
Ġv itt
Ġjul ius
Ġk oy
Ġby e
Ġx uan
qu el
ce k
Ġeth ernet
Ġcr ick
dr agon
Ġcourt ney
Ġt ere
Ġc ung
Ġxinh ua
Ġc net
Ġfly ers
Ġprehistor ic
Ġbr am
Ġg urgaon
d or
Ġwe ave
quer que
Ġst oke
bys hire
ebe ast
ung an
Ġlock er
ros c
Ġsaras ota
c ourt
er en
Ġinstant ly
Ġyum my
Ġsl ab
Ġcart el
Ġjul es
Ġapocaly pse
Ġvis c
Ġserious ly
is u
Ġsim mons
Ġsher man
et ube
Ġfl oss
Ġmodel o
Ġresc ued
Ġattach ment
Ġnew ark
Ġmah indra
l p
Ġsk ies
Ġpass ive
Ġq r
c zy
Ġup set
k re
Ġgre ene
Ġmonter ey
ian ts
Ġcommission er
Ġb ax
l ery
u ania
Ġcontain ing
Ġdon ate
Ġnor wich
w ant
Ġmall orca
Ġa ad
Ġacc u
Ġinstit ution
ac c
Ġus age
Ġm ga
Ġmillenn ium
f one
30 1
Ġdar az
Ġ19 46
Ġwh ist
Ġle a
Ġautom ated
l ust
Ġbog ota
Ġsau v
oph ile
Ġna omi
Ġy emen
Ġvibr ant
Ġz im
Ġab e
Ġg ma
Ġtrip od
ag ement
Ġaustr ian
Ġcov entry
Ġk ail
Ġaud itor
Ġlu igi
Ġchef s
Ġind uct
Ġorgan ized
00 6
Ġspag hetti
Ġnou velle
ans k
zz i
Ġam ir
Ġbe ir
Ġcor resp
Ġdiss ol
Ġbras ile
Ġrw anda
gam ing
Ġs ash
Ġlub ric
cin oma
Ġt etr
Ġb ere
Ġbl a
Ġb anco
un ir
Ġmart yr
Ġgeorg etown
le af
Ġvish awatch
Ġlat he
Ġhyp ebeast
Ġjacqu eline
Ġti eng
Ġmetabol ism
Ġsh enz
v os
Ġross i
Ġforest s
Ġ13 2
Ġr enn
vel t
te in
Ġme k
Ġva ug
Ġs ow
Ġpiaz za
Ġt uck
Ġphil harm
Ġduc ati
Ġfram ing
Ġamph ib
Ġorch ids
Ġcarl ton
Ġ9 99
Ġe go
Ġby pass
Ġh j
Ġtemper ed
iv ar
Ġaf c
Ġdiv is
Ġsuccul ents
Ġpet t
it re
Ġrac ist
Ġroy als
che on
zz o
ph a
Ġreh ab
Ġprof es
Ġbra ids
Ġcurrent ly
30 5
Ġp ockets
ac l
Ġcomb ine
Ġre aper
ogr ad
Ġdou bt
Ġcrop ped
Ġwyn dham
Ġnok ia
Ġpil ots
Ġpull s
Ġtitan ic
Ġappl ique
Ġmelan ie
Ġun official
30 4
Ġok ay
Ġan ita
n or
20 8
Ġprov iders
Ġhern andez
ok s
Ġgas ket
Ġr istor
Ġdis inf
Ġst i
Ġpeng u
in ction
Ġpurs uit
u ve
Ġt ired
ev olution
up pl
Ġ ^
Ġconse qu
Ġml ive
Ġhyp n
Ġart ofit
Ġconvers ations
Ġgobi erno
Ġhall mark
at l
Ġthu ong
Ġcyber punk
Ġsib lings
Ġsteak house
Ġisab el
is ka
Ġob t
Ġide es
Ġkrak ow
Ġum oon
f oto
Ġint im
Ġkep t
Ġsuper b
Ġw ey
Ġs ass
Ġha ar
Ġpoint e
Ġpse ud
Ġy eni
en co
Ġb ounce
Ġbol ton
Ġbr od
Ġmo hammad
Ġumoon productions
Ġl iao
Ġbook sh
Ġa ura
Ġcan ary
Ġraj put
Ġbrook e
ib ur
Ġbe eth
Ġrelax ing
Ġmar che
Ġch ua
Ġportug ues
Ġintelle ct
Ġrec ur
phot ography
Ġfre eman
if ax
Ġzamb ia
Ġ13 4
Ġpar agu
Ġrid g
ug i
Ġexam ination
Ġprot on
ac r
Ġlock ing
Ġas us
ich te
b ear
Ġbr ien
Ġy v
Ġder byshire
ment ation
Ġcompar ative
Ġsav es
Ġb ain
net te
Ġsan jay
Ġwash able
Ġbur lington
Ġdh aka
Ġsing ers
Ġqu ite
Ġfid get
ric ts
Ġbaj u
Ġh ive
Ġpud ding
j our
Ġc unning
Ġv ino
eth yl
Ġtake away
Ġts un
Ġmar oon
Ġbill ie
am ins
Ġb oll
Ġr k
Ġgr ille
at ia
20 22
uch t
Ġornam ental
ac as
Ġcom erc
Ġdis abled
Ġbl ends
Ġle f
Ġtr akt
Ġrepubl ica
op t
Ġrah man
Ġbra ided
Ġpyr ene
y ah
Ġy us
Ġta ipei
Ġk arma
Ġlgbt q
Ġtart an
Ġjud g
Ġcirc ulation
Ġreop ening
Ġ18 5
Ġtash kent
Ġb olog
Ġcre te
Ġed mond
oup e
Ġdec ide
Ġlam ar
Ġsh ing
Ġv ous
Ġcl air
Ġbra id
r m
Ġred s
Ġbrides maid
aw at
ough ton
Ġflood s
y ing
Ġs og
Ġspider man
Ġ12 1
Ġpan asonic
on ews
Ġall ison
Ġphen omen
Ġme ille
Ġsah ara
Ġmount aine
Ġvine yards
Ġsw allow
Ġever est
Ġw ink
Ġrevis ed
Ġmark le
Ġwitch er
Ġhar sh
Ġfr ig
Ġpers ons
Ġpra ia
Ġl ond
Ġprom oc
Ġbik ing
Ġj m
Ġco asters
Ġgl i
s f
Ġunder way
Ġinstal led
Ġmand arin
Ġcarp enter
Ġalbu querque
Ġcomed ian
Ġp ines
Ġscr ib
Ġprogram mer
ey s
Ġtext iles
Ġdon uts
Ġconfigur ation
Ġgujar ati
Ġje z
Ġcrown ed
em outh
y ani
Ġrh ode
Ġsevent h
14 3
Ġbum ble
Ġst ance
id u
ich es
Ġsev illa
Ġy uc
ou k
Ġbeeth oven
p ath
Ġsp inal
Ġsalv age
Ġcart ier
33 3
Ġbas el
n otes
Ġband ana
k ad
Ġk ro
ce e
Ġan un
it te
Ġmunch en
Ġsp ok
u ide
Ġresil ience
Ġc ue
Ġun h
Ġask ing
Ġnor se
Ġcomp ete
Ġga a
Ġv aux
Ġenjoy ing
Ġtr un
Ġreb ell
Ġsol ving
Ġchamp s
rad ar
Ġmov ed
ot eca
w ala
Ġlivest ock
Ġlif es
Ġg sm
bour g
13 2
eb a
Ġer ie
st art
Ġl ank
Ġnic ar
Ġam a
Ġsp ut
Ġgh ar
4 80
Ġgl a
10 24
Ġlith uania
Ġeditorial ist
Ġp aving
Ġvir at
Ġgreen wich
Ġcalcul ate
Ġcorresp ond
Ġex quis
Ġq t
Ġn ell
ands lang
Ġacronyms andslang
Ġoce ans
l ite
on ie
Ġv iper
Ġhe al
onn ect
Ġh n
j av
Ġn al
Ġm ow
Ġfind ings
Ġte kn
Ġg ilt
Ġd arth
ne ur
Ġpeace ful
Ġun g
Ġel op
itt le
Ġbav aria
Ġvacc ines
40 5
Ġpol ls
il let
Ġbi or
Ġgratu ita
s n
Ġhum ble
Ġx a
Ġgon na
Ġhad id
Ġcrafts man
s burg
Ġstreet wear
Ġpick le
Ġa ish
Ġgiusep pe
Ġf oli
Ġplan o
Ġr pm
Ġassoci ate
Ġeas ier
Ġtran h
Ġmor i
Ġcomun ic
Ġng on
Ġed ited
ag ens
Ġdav ies
le ctor
Ġshe ath
hard t
Ġwolver ine
Ġeleg ance
Ġa ik
av era
Ġclass y
Ġn id
Ġno ida
Ġc ual
el an
le an
Ġchamb ers
Ġbask ets
ol it
Ġple asure
Ġorganiz ations
Ġwhis per
st ars
anth us
Ġem pres
Ġad oles
Ġapproach es
Ġbh oj
Ġd ach
Ġc og
Ġdi em
Ġnozz le
Ġsurv iv
Ġmed all
Ġt erc
Ġt uk
Ġbond s
Ġk ib
Ġry u
Ġcent res
Ġkath y
Ġcryptoc urr
ag her
r af
ord s
Ġcr ook
Ġcs s
Ġdef ensive
Ġbal tic
f j
Ġ13 3
Ġrefuge e
r ier
Ġn ant
ab ra
Ġbat ik
Ġconf eder
Ġti enda
Ġsent ences
ac ic
Ġduch ess
Ġsh ipp
Ġpas adena
Ġdia blo
h istory
Ġview ing
Ġmah esh
Ġpet erson
Ġgem ini
Ġg v
Ġ19 29
Ġm aze
Ġpon te
Ġut ens
Ġbu ku
Ġview er
Ġcult ures
20 15
Ġshim mer
ace a
Ġpe a
Ġstrict ly
Ġde z
gi ene
y et
im os
Ġ urn
id y
Ġy ue
ag io
Ġth uy
Ġblanc a
Ġdec ks
Ġk iz
Ġun com
Ġlen ovo
Ġhe idi
Ġtext ures
Ġcourty ard
Ġf athers
Ġrot ating
Ġchristian ity
Ġonc ology
Ġpolic ies
k ow
Ġn ing
Ġmot ocross
Ġpref ab
Ġsem ana
Ġachiev ements
Ġbapt ism
Ġfin ishing
imon io
tr ation
Ġsv et
bre aking
Ġrenew able
Ġawak ening
ar ay
Ġtim ur
cript ions
Ġdort mund
Ġcr imes
Ġconvers e
Ġcaes ar
Ġto ad
Ġlay ers
Ġle i
ob ic
Ġsl ippers
Ġfilm ography
v ee
Ġpad ded
Ġam eth
Ġhol ster
Ġes k
Ġdem ands
18 5
Ġosc ars
le eve
ush ka
Ġjol ly
Ġey eg
ah ua
Ġretail ers
Ġ14 6
Ġkur ti
Ġl ien
Ġhem at
Ġtr ies
Ġz on
Ġb arth
Ġcons ort
Ġunc ertain
Ġsiem ens
Ġwill ie
Ġso ho
iz able
Ġfan atic
Ġcons pir
Ġday time
Ġnr l
is man
Ġp um
road s
Ġdiff user
Ġl ama
Ġimmun ology
ab u
Ġdom ingo
Ġdix on
ap at
om ic
u ent
Ġscrapbook ing
Ġeur op
Ġstat ista
ach ing
ic ated
Ġl ul
Ġlat ina
Ġadapt ation
Ġsp ade
Ġam mon
Ġmid lands
Ġcir cles
Ġinnov ations
Ġar p
Ġreal tors
Ġsusp ected
id erm
eng o
Ġcy press
Ġequ ations
at oon
Ġfur ry
Ġab o
Ġk ik
Ġanth ology
Ġarm ored
Ġrenew al
Ġhy giene
ald o
he er
Ġbr une
Ġadvertis ement
Ġno xin
Ġst alk
Ġpom pe
is chen
Ġpe uge
Ġz or
78 0
Ġdress er
Ġcum ple
ar se
Ġet o
Ġcal der
ele on
ind en
Ġk of
Ġme gh
Ġexpect ations
Ġkh i
Ġdemocr at
f ill
Ġpar v
Ġcab r
Ġbur ke
h ua
re x
pr of
h igh
Ġmah ab
Ġin her
Ġk inh
s an
y ear
Ġgreen ville
Ġr acks
Ġgradu ates
Ġcarbure tor
Ġdemocr ats
Ġscrew s
c p
Ġfor te
Ġsh ire
Ġtunis ia
pl a
ir ing
Ġpeuge ot
Ġg aga
Ġproduct ivity
flu encer
Ġt aur
Ġr ies
Ġde bor
Ġpr abh
Ġj ays
Ġcon or
Ġkon st
Ġs ari
orig inal
Ġinf ographics
Ġpalest inian
Ġapp oints
orm al
Ġc err
ant ra
Ġuss r
Ġred emption
Ġext ends
Ġat e
Ġnaz i
en heim
ys h
Ġbl ad
Ġr itz
Ġt is
Ġdes en
Ġemot ions
Ġvort ex
Ġrap tor
Ġblind s
Ġfasc inating
Ġobsc ura
Ġde af
ald a
Ġarch ivos
Ġmicrobi ology
Ġtract ors
Ġdar win
Ġameric ana
he a
ard a
Ġacqu ires
Ġg ott
Ġt elling
Ġcam den
Ġprocess es
Ġson ata
Ġpom p
Ġcollabor ative
and es
Ġshenz hen
Ġperf ection
Ġdel ph
Ġincre ases
Ġr ia
th ouse
est ones
Ġits elf
os os
Ġr na
Ġst unt
Ġany where
Ġk af
Ġobserv atory
Ġkos her
Ġp ane
Ġsh ores
Ġdo h
um o
70 1
ep ool
Ġmax well
Ġam mo
Ġbr im
Ġfr ustr
ak is
aut o
k ol
Ġh v
tr op
Ġkel ley
Ġpag an
hr an
Ġis uzu
e us
h ya
Ġsent enced
Ġg han
Ġlit etube
on et
ek er
Ġveg a
Ġs ana
Ġy az
ion g
Ġcasc ade
ine e
Ġmer lin
Ġes cr
ert own
Ġimport ed
Ġl ena
ore a
Ġdestro yer
Ġsuff ering
Ġnh s
Ġbah ia
Ġchar ters
Ġauction eers
Ġwr apping
em ont
Ġot ter
Ġam ateur
Ġste alth
Ġnarr ative
Ġac up
me x
Ġjuven ile
Ġfair field
ak ti
Ġgr on
Ġl igne
Ġgl azed
Ġdisp ute
Ġal icia
em aker
el en
gh z
Ġfing ers
Ġf arn
Ġfe athers
Ġrid d
Ġpack et
Ġr ong
Ġsc aff
Ġfinish es
oc y
im ony
Ġn ong
Ġphot og
Ġchand igarh
opath ic
Ġro ose
Ġmyster ies
Ġfor kl
Ġ19 17
ov ina
Ġremod eling
and r
Ġh over
Ġn ga
Ġcooper ative
Ġpat agon
Ġel o
Ġnight club
Ġt arn
ipp y
Ġl att
bus iness
Ġnoxin fluencer
Ġv eb
Ġlag er
Ġjer ome
Ġac er
Ġner f
Ġvh v
Ġwhe ther
Ġpar e
Ġsur ab
Ġolymp ia
Ġequ ality
agr aph
Ġ19 33
k us
Ġsports man
Ġth irty
Ġcorre ction
l ifting
Ġtow els
ol ite
ode on
v ue
Ġmarse ille
Ġmull er
Ġmac ar
whe els
Ġaberd een
Ġsc all
cr est
Ġpass age
Ġm ounts
Ġg j
Ġliv ed
Ġspell check
Ġtrag ic
88 8
Ġrig id
Ġver onica
Ġfin ch
Ġwater loo
70 5
Ġg iao
og enesis
d ad
it us
Ġfertil izer
Ġturb os
Ġfixt ure
Ġmisc ell
Ġimag ery
Ġmahar aj
Ġquar ry
Ġfram epool
Ġbreath ing
Ġpan zer
Ġdus k
Ġwest on
Ġfe i
fri ends
Ġcarr ot
Ġspar row
Ġhydr op
Ġplatform s
Ġjose f
Ġaz tec
ug es
Ġearn ings
Ġg arm
Ġstair case
Ġguard ians
Ġh f
Ġj ae
60 5
Ġports mouth
col m
Ġaugust ine
x p
Ġmal awi
Ġint ouch
Ġal ia
Ġhary ana
tr ans
grad uate
35 5
Ġdomin ic
am ental
Ġdelay ed
Ġdisc ontin
Ġmill ennial
Ġrac ial
Ġworth y
Ġcomp ounds
Ġv ows
h ma
Ġjul io
Ġc az
Ġsup erg
Ġbat on
Ġbrand y
Ġrot or
Ġjoy ce
Ġspin ach
pl atz
Ġow ens
Ġcon quer
Ġ14 3
Ġarm chair
Ġameth yst
Ġcivil ization
Ġmich a
ab oo
Ġgan esha
Ġconserv ative
Ġs ings
Ġtherm ometer
ol t
Ġt ons
ig ma
es on
Ġaer os
Ġevery body
Ġd ante
Ġmicro f
Ġmod elling
Ġom g
Ġstorm s
Ġes ter
Ġub untu
Ġh ikes
end orf
Ġm afia
Ġpsyched elic
Ġocc as
am ous
Ġpais ley
th ia
Ġcamer oon
Ġfemin ist
Ġtw elve
Ġfisher man
Ġd are
Ġ19 15
Ġmu j
Ġdom aine
Ġquot ations
Ġmult ic
Ġchristian book
Ġcr icut
Ġre iss
Ġcr ad
Ġblue print
Ġkid n
Ġse ite
Ġinv ite
Ġcol oss
Ġa ire
Ġcame o
Ġto on
Ġgem e
Ġfan f
Ġarr ived
Ġb als
Ġsup porters
Ġm oo
Ġmem o
Ġautot rader
aw ar
Ġrock er
Ġcar at
ding ton
Ġtele fon
Ġconsider ed
Ġfinn ish
Ġ18 90
16 5
Ġlil ac
Ġbeir ut
Ġh ora
Ġz han
Ġkur d
Ġdebor ah
Ġal ain
b ig
v l
Ġcl ap
Ġrem embers
Ġde ux
Ġpur i
Ġg iz
Ġb hi
Ġgr ig
lin ks
Ġarth ritis
s ite
Ġfor ma
Ġcon jun
und ra
Ġash es
Ġid a
Ġd ated
Ġcent ennial
Ġdecor ated
Ġexamin er
Ġn ai
Ġhe ck
Ġvand al
Ġbi as
Ġfun ky
Ġlamb ert
Ġgio i
Ġautonom ous
Ġgav in
oc ial
Ġs ought
Ġces ar
Ġshir ley
Ġh dr
Ġarchae ological
Ġcy bers
Ġcas tro
Ġr ca
Ġ4 10
Ġapr es
Ġastr os
Ġjamm u
m eg
Ġgran ada
Ġm ith
Ġalleg ations
Ġkam al
p od
Ġball room
Ġw ille
Ġroad ster
Ġcoll agen
Ġsketch book
Ġc ache
Ġbel ong
erv es
Ġp unt
Ġvi ola
Ġgh oul
Ġcat cher
Ġcole gio
Ġlok i
Ġmet ric
fr uit
Ġpath s
Ġby ron
Ġ19 34
Ġcent rum
Ġcast illo
Ġcol ombo
Ġpet al
de ka
og ly
Ġimpl ications
Ġtyp ical
Ġg abb
r iz
Ġtr oop
Ġwar ming
Ġcoimb atore
ri ya
Ġmemor able
Ġ30 5
Ġam el
Ġbeck ham
r ical
Ġdet ach
Ġz ed
ight on
30 3
Ġdel ete
Ġwik ia
l ike
Ġr agn
Ġag ile
Ġatt ends
Ġsyll abus
Ġsput nik
Ġjue gos
an al
Ġno or
est as
Ġpet role
Ġb ourn
bl ad
Ġbut cher
Ġaud rey
Ġcard iology
Ġcolour ful
Ġex ter
Ġbisc uits
18 8
Ġbody building
Ġo ke
Ġs ock
Ġrein for
ar b
Ġfb x
Ġl ark
id ium
Ġbarb ados
Ġlanc er
an ova
Ġte atro
Ġsm a
Ġdiscover ing
q v
Ġb anners
Ġl eng
Ġregard ing
Ġan z
Ġx iv
Ġsax ophone
th al
ab er
60 1
Ġmat er
Ġx d
g ies
Ġpengu ins
b ey
Ġab yss
Ġsec ur
Ġen able
Ġhorn s
Ġju j
Ġlaunch ing
Ġ15 9
m hz
Ġover drive
Ġenchant ed
hot el
Ġpel ic
ember g
Ġcy an
ul ates
il io
Ġqu in
em at
Ġburn t
Ġkem p
Ġstrugg les
Ġthr ows
Ġstay ing
Ġp elle
Ġman i
jp eg
Ġlibr es
20 6
Ġam ulet
Ġdial og
Ġvers es
Ġenthus i
Ġ2 33
Ġtes co
Ġbel ief
Ġhal ifax
Ġen de
25 5
Ġtort oise
Ġbang le
h air
Ġpyrene es
Ġor ion
asm aker
60 8
ke i
uc cion
Ġexp ired
Ġle ip
Ġdal asmaker
Ġg arten
th or
Ġbar ca
und i
t re
Ġc ade
Ġcinem atic
Ġbe x
99 5
Ġq ian
ar aj
Ġeat on
Ġr iy
Ġinter vention
Ġy s
c ool
Ġscoop nest
Ġ15 2
Ġbibl ical
Ġfir ms
Ġn ub
Ġr ye
Ġhaber ler
er ville
Ġplate au
act iv
Ġ30 3
str asse
Ġsal is
Ġmark ed
it ting
Ġembr ace
Ġt ied
Ġristor ante
Ġblank ets
Ġdrop ped
Ġbot any
Ġnight life
Ġrept iles
ie ving
Ġbath t
Ġtarget ing
Ġled ger
Ġmother board
Ġ13 6
Ġheart h
l ash
Ġrep o
Ġbart on
Ġtor o
Ġch ien
c ence
Ġdec isions
Ġremaster ed
Ġinst inct
Ġpr ag
Ġdivers e
Ġcaf es
Ġexplan ation
Ġsweat ers
Ġwich ita
Ġall erg
Ġpac er
Ġrock ets
Ġpart ition
z ine
Ġmasc ara
Ġaff ected
ul os
Ġmum my
Ġdom ino
Ġwal sh
itt o
uch s
Ġr aya
Ġ19 12
Ġr ather
Ġn pi
ut ra
Ġwe aver
br ain
he on
ov ia
Ġport e
Ġn ate
Ġarr ows
Ġ2 13
Ġj uk
Ġcash mere
Ġw anna
Ġw ore
Ġupgr ades
Ġberg en
k ind
Ġag ro
Ġchun ky
Ġ3 33
Ġgr inding
n on
Ġc ik
Ġr unners
Ġbundes liga
Ġshr ink
Ġdist ricts
Ġbisc uit
Ġauto evolution
Ġpel o
top ia
Ġflash light
Ġh au
Ġdermat ology
Ġse em
Ġab i
Ġmoist ure
Ġscotts dale
apur am
Ġcommit ment
he i
Ġj em
Ġelect ed
an ium
Ġpsych iat
20 9
Ġac u
pt us
b g
Ġt z
ark a
Ġkn itted
Ġp ounds
Ġcool est
ar ine
Ġmar m
Ġchand ler
ters on
Ġs re
Ġ2 65
Ġdisc ord
Ġperson nel
19 8
Ġth reats
sp ace
Ġvis ible
Ġim ran
Ġproceed ings
Ġdipl om
Ġmost ly
Ġp ies
Ġhay es
Ġreop ens
Ġag ate
m ine
Ġreflect s
Ġkar im
Ġgalvan ized
Ġmac y
Ġaggr essive
Ġcond em
av id
Ġ19 28
Ġbat u
i ard
Ġmal colm
Ġper pet
Ġavail ability
und erst
Ġst ability
Ġso i
Ġschm idt
Ġh anc
Ġmus l
Ġfurn ish
Ġstoryt elling
Ġkt m
t al
Ġdefin itive
Ġang lo
Ġp als
Ġl ia
Ġnat asha
Ġmus s
Ġ25 6
Ġl ach
Ġk eller
Ġk f
Ġts uk
Ġf ete
Ġj ep
ri et
Ġz ool
kart e
Ġt ucker
is cher
Ġec ity
Ġl ana
Ġnickel odeon
s chool
Ġarch ie
Ġlat eral
rad io
Ġwallpapers afari
Ġz he
Ġtransm itter
Ġw g
Ġch anc
app en
Ġlo is
Ġt iki
Ġj t
Ġbl izz
Ġhis pan
ad get
w olf
Ġgoalk eeper
Ġcont acts
Ġwel fare
Ġecity works
Ġme er
Ġseg unda
99 0
Ġmel t
h h
Ġk ors
Ġam elia
Ġtrack list
Ġfill er
Ġcorrid or
Ġcross fit
Ġro i
Ġmotor bike
Ġpopular ity
Ġn ile
Ġ14 2
Ġmir age
Ġflag ship
Ġsy gic
Ġsnow fl
en ie
Ġsystem atic
Ġsub wo
Ġem ilia
Ġesc uela
Ġcarr era
Ġfer ien
li est
il ik
Ġ13 7
Ġwind shield
Ġtab s
Ġpanor am
Ġserv ed
Ġz em
Ġle k
Ġblow ing
16 8
Ġav iv
Ġch ino
Ġhand writing
ifl ora
Ġpart icle
Ġmass acre
Ġcors et
Ġpegas us
net works
Ġd onde
Ġbah asa
Ġchiropr actic
Ġhav ana
Ġpeak s
ir u
Ġappr ais
Ġe q
Ġglow ing
Ġwik is
Ġvis or
m ath
Ġdi aper
Ġsk oda
ap ar
Ġmus cles
Ġww i
Ġpass engers
t ele
Ġim ago
Ġterr ible
Ġs all
Ġch ico
Ġcam ille
Ġrum ours
in ci
Ġeuc aly
Ġsh rop
iet ta
cro ft
d is
Ġprovinc ia
Ġv oz
Ġwh ims
Ġble eding
Ġmatthew s
b io
Ġjud a
Ġasph alt
ant in
Ġspl end
Ġtechn o
30 8
Ġse ash
Ġrain y
Ġt ails
Ġl f
opa edia
Ġv otes
o in
Ġs aur
Ġson n
Ġdou bles
Ġdub bed
Ġvalent ino
Ġfr ut
is phere
00 8
k eeping
et ail
Ġstup id
ens es
Ġgi ul
Ġl ian
Ġ19 32
Ġpat ents
Ġsc atter
Ġborn eo
Ġb ism
Ġprim itive
Ġlamin ate
odend ron
Ġpl astics
Ġvers ions
Ġmaced onia
Ġv ise
c ape
Ġne ue
Ġscots man
Ġs ake
umb lr
il ian
Ġf ertility
Ġshrop shire
Ġton er
wr ight
Ġsans kr
Ġm ito
Ġse ag
Ġp encils
Ġsal le
Ġval k
Ġwrest le
Ġib times
Ġd red
Ġte j
Ġma ul
Ġsy ed
Ġkar ak
Ġl ulu
Ġd ams
Ġma ori
Ġ>> >
Ġir ene
Ġf ow
Ġtrans actions
Ġeng age
Ġst encils
Ġsequ in
am ente
Ġsn y
et ers
up aten
Ġphill ip
urn al
Ġl ori
Ġpost pon
Ġmo ons
Ġinv alid
30 2
v t
Ġgre ase
Ġk ass
Ġcupc akes
Ġc indy
Ġingred ient
Ġpo oh
Ġthr esh
oc ate
Ġtouch ing
Ġfranca ise
Ġc ough
Ġv arn
Ġcardi ovascular
oc er
Ġcarri age
Ġk eg
Ġim pe
Ġch ihu
Ġround s
Ġchurch ill
Ġdealers hip
Ġik an
Ġ19 19
Ġbe ating
Ġkab upaten
Ġth el
Ġ14 7
Ġdif er
Ġs led
asy on
Ġfr u
Ġspread s
ica o
Ġimag ination
Ġrow ing
Ġvi ii
Ġhead phone
ur am
m ings
ter dam
ist ar
arth y
Ġh ien
Ġfac el
Ġb unn
ak rish
Ġunse en
b ard
Ġpod s
Ġch ich
Ġmas quer
Ġsal war
Ġtud or
uk et
Ġsist ema
Ġram os
Ġstad ion
Ġscent ed
Ġcoy ote
Ġelop ement
Ġbha art
Ġdeterm ine
Ġde odor
Ġal ic
Ġlayer ed
Ġthrough out
Ġls u
ch s
Ġaver y
Ġaugust a
Ġse ct
Ġren ee
Ġroose velt
Ġcre ators
Ġedit able
gr an
ig os
Ġappre ci
Ġexpress ions
ale y
ess on
Ġdes a
Ġstutt gart
Ġww f
Ġf idel
Ġmedi ated
Ġcg tn
im us
Ġplug in
att en
at if
Ġm iser
Ġb pm
Ġtop pers
Ġmeg apix
Ġvi j
Ġsc oring
Ġon yx
Ġmoon light
Ġx ie
Ġsyn chron
b la
Ġ3 28
Ġl ider
Ġbi et
Ġbor ing
h alla
Ġv ak
Ġsp oke
Ġic c
Ġcapt ures
fr esh
Ġch ao
Ġinver ter
Ġpam ono
inform ation
Ġdu oc
Ġday light
Ġenthus ias
ach an
Ġem pr
Ġpart ial
Ġequ ine
Ġk orn
Ġgloucester shire
Ġm ms
40 4
Ġcore y
Ġin quiry
Ġec lect
Ġsh atter
Ġtr oj
Ġd az
ap o
Ġarch it
Ġan il
Ġj urg
Ġbh utan
Ġmad den
om ed
Ġes port
Ġtyph oon
00 9
Ġcart on
Ġk iy
Ġk urs
Ġj ars
Ġbuck ingham
Ġwor se
el os
Ġg ew
Ġcomerc io
Ġest ados
Ġmah a
> >
Ġturki ye
Ġvol ta
Ġtro oper
it ic
Ġ uda
Ġm era
Ġab ility
Ġb oud
Ġpik achu
64 8
Ġair ports
Ġet iqu
Ġout law
Ġstre ams
Ġanaly zer
p f
Ġblack out
d oc
Ġbr aces
Ġpi u
l m
anc ement
c ation
Ġfiref ighters
Ġmade ira
Ġbathroom s
Ġc ey
Ġcontr acts
Ġrevol ver
Ġcould n
akh and
st al
Ġ19 25
Ġbl ame
Ġhr v
bol t
t umblr
Ġman a
Ġph am
Ġal ad
Ġinf os
Ġre he
ans ki
Ġfe u
24 5
Ġst en
ick a
ve er
ek i
Ġplug s
Ġpar ed
Ġb int
Ġu f
Ġnaz ar
Ġder iv
Ġw aj
Ġv k
Ġcons ist
we i
Ġte ap
Ġgl og
Ġu hd
Ġro an
ah ar
esh ip
Ġclar inet
Ġrem inder
r ance
Ġspok ane
Ġinterest ed
Ġorb it
Ġgh osts
Ġlongs leeve
Ġ30 8
Ġinsign ia
Ġthreat ens
Ġespec ial
Ġsp ices
Ġhol i
Ġs ures
Ġpol ska
ob ia
dr iver
Ġdevelop ments
Ġcheet ah
Ġsouven irs
23 2
eno id
angel o
Ġdec ided
Ġrosem ary
Ġmist ake
Ġang les
Ġpig gy
i ary
Ġhol t
aut y
Ġadvis ors
er isc
sc ience
Ġcom et
Ġwill is
ig on
av ille
Ġpolit ica
k is
22 6
cr ipts
Ġej erc
al ot
Ġjo a
Ġr oche
Ġstates man
Ġdo z
Ġ3 90
un ge
in in
ha a
ene z
13 6
ey a
Ġnew man
Ġengine ered
Ġr ite
el ist
Ġenh ance
Ġmer i
Ġle one
b au
coun try
Ġsunder land
ub re
Ġfut ures
Ġurg ent
Ġtar ant
Ġk uz
Ġz ame
Ġsignific ance
Ġfr au
Ġparad ox
Ġcom ix
Ġrey es
em ploy
sa a
y ne
Ġem my
Ġvisual ization
Ġmat lab
Ġfix ing
or io
Ġashe ville
Ġpsych o
h k
Ġarrang ed
Ġretract able
tr es
Ġch uyen
Ġcor inth
Ġmill ing
Ġn one
out e
Ġbon ne
Ġgriff ith
Ġcor rel
Ġtax iderm
Ġd itch
Ġguang zhou
l op
Ġ20 3
Ġwh arf
Ġcook ware
Ġl ough
end as
Ġt af
Ġt ous
Ġexquis ite
Ġdinner ware
Ġqu ien
Ġequ ival
greg ation
Ġern st
Ġorth op
Ġban h
Ġeth ical
Ġ9 50
Ġal der
ong o
Ġmathemat ical
Ġ19 16
Ġthrow ing
Ġag nes
ib ar
Ġram on
Ġjo anna
Ġwin ch
Ġun idos
Ġand al
Ġl el
Ġag n
Ġdec line
Ġtherap ist
t el
Ġe os
Ġnad al
Ġtrim mer
l us
Ġhy att
Ġye ast
Ġtail or
Ġastron om
Ġ16 8
p ak
Ġf unn
Ġinterpret ation
Ġsalis bury
Ġmem ed
Ġflav ored
ipp on
Ġhels inki
Ġ& ,
Ġhomest ay
Ġspr uce
Ġch oker
Ġeyebr ow
da q
Ġok in
Ġexact ly
Ġfund ament
ob ar
Ġath ena
wh ite
uls ion
Ġpresby ter
Ġchar gers
Ġover come
erv ice
Ġsmooth ie
Ġspl itter
Ġl ola
ale za
Ġb inder
Ġw oll
Ġnin j
Ġvish nu
Ġc ate
Ġvot ers
Ġgu in
Ġic ed
Ġactiv ists
Ġly ing
k b
Ġqu ang
Ġjue go
Ġcommun ist
Ġmole cule
ebr al
Ġsnow y
Ġhold ings
Ġrend ering
Ġsid dh
Ġm la
Ġpod ium
Ġhe ated
Ġout reach
ant ara
Ġv ow
in ent
Ġcab bage
Ġr ails
Ġ2 95
Ġhaw th
old ing
Ġtest ament
Ġman z
Ġnicar agua
Ġcyr us
Ġinvestig ating
Ġaks hay
he it
Ġprior ity
Ġgm t
Ġcleans ing
Ġton i
Ġgramm y
Ġmas a
Ġwholes aler
Ġever ett
Ġvent ures
Ġappl es
Ġf oy
ak arta
Ġth am
ht ar
Ġretail er
ism s
Ġm ora
Ġmid dles
Ġrom ant
20 14
Ġproject ion
Ġspear s
Ġbel grade
Ġtr af
pl ants
j r
w iz
Ġsup press
tr aining
Ġst ac
Ġm age
Ġer ica
gard en
Ġmark ing
Ġbu kit
Ġdist inct
Ġven et
g ins
c b
Ġh ugg
Ġdr o
Ġj ury
Ġch ore
Ġ00 2
Ġsuccessful ly
h ous
13 7
Ġfat ima
Ġund ers
Ġdx f
Ġmos es
Ġultr asonic
Ġp id
Ġbe ek
Ġc ia
Ġped estrian
Ġban j
Ġconst ellation
Ġnas al
Ġm orm
ol ta
Ġse ahaw
Ġsail boat
Ġdish wash
b rew
oc law
us an
Ġad ren
oth erm
Ġoliv ier
ost e
j apan
20 7
ct ica
k v
fr om
az ing
Ġhas an
Ġempor ium
Ġthr ive
Ġpar ach
b ender
Ġuns cr
Ġpr ic
Ġreg gae
p ics
Ġon to
Ġdec re
ford shire
ab ond
Ġbath ing
ew here
Ġrob bie
Ġepis c
g ia
Ġsal ah
Ġjewell ers
Ġk ala
Ġsel atan
Ġment or
Ġir ving
ari i
Ġnv idia
Ġtam iya
Ġdaw son
Ġbr ink
Ġsl ight
Ġintegr al
on c
Ġnest le
al in
Ġcinem as
ator i
Ġem erson
Ġmag nes
Ġex cl
Ġdist illery
Ġpe as
Ġart is
Ġintouch networks
Ġigles ia
60 3
Ġsm ell
Ġdh oni
Ġtem pat
Ġtran qu
Ġme ck
Ġj ugg
Ġgl itch
em bl
Ġdry ing
un ting
l und
Ġcount ies
Ġback packs
Ġless er
Ġros ie
ar ro
Ġse ems
Ġ13 00
Ġcr om
Ġsh ines
ye ong
Ġse ph
77 7
Ġt ory
Ġplant files
Ġvaux hall
Ġest onia
Ġgog h
Ġk ios
Ġ35 00
Ġreduc ing
Ġwav y
Ġy oo
Ġdres den
g od
Ġtr uss
Ġfan atics
Ġmon a
Ġsac rif
Ġsh ame
an am
Ġo ax
Ġt yn
Ġcart a
Ġneighborhood s
Ġrabb i
cr unch
art z
Ġcon de
Ġwh ate
Ġphotog allery
Ġbl ibli
g ra
Ġb ouch
ri i
Ġferd in
Ġnd tv
h q
ot or
hop per
Ġintegr ity
ent in
h erald
u il
Ġcunning ham
Ġas ylum
Ġnav idad
Ġmid town
Ġag encies
Ġir vine
Ġen light
ba ik
Ġz ind
Ġeucaly ptus
24 8
tr inh
Ġne et
Ġ5 40
Ġfir ing
Ġsl ug
up ati
Ġgr ub
Ġv ell
osh ima
Ġquil ting
ch ini
arov ski
Ġd azz
ert os
Ġsl ay
Ġimp acts
Ġ19 13
Ġlap trinh
ab an
Ġinc ub
Ġlif est
ied ad
Ġlaptrinh x
Ġav a
ers ch
Ġsc outs
Ġroberts on
Ġe i
Ġreal m
w as
am ide
Ġer os
uss en
g at
k eeper
Ġn aga
Ġsy ring
Ġk ien
est ation
Ġpatri otic
Ġye u
Ġjub ilee
Ġterr ac
l ove
op he
Ġh ess
Ġby r
Ġb ial
Ġthread s
22 8
Ġweb cam
Ġd ign
Ġchand ra
Ġbung a
Ġsyn d
ax x
Ġn ola
Ġlib ya
Ġpar ab
Ġnational ity
Ġcustom ize
esthes ia
Ġartif acts
Ġv ix
w m
Ġaccu weather
Ġfr yer
22 2
Ġmemed roid
w ik
Ġedu ardo
Ġminif igure
Ġcig ars
Ġun con
Ġman j
Ġwil ts
Ġrem ind
ot rop
u ur
Ġnum ero
Ġsepar ation
Ġas y
jo hn
Ġ14 00
Ġexpand ed
Ġnor a
Ġcolum ns
Ġsout heastern
Ġgen ome
Ġtr uc
pl at
Ġun st
Ġm af
Ġsam ar
Ġentreprene urs
Ġwr x
Ġnorth western
Ġmagn us
Ġwork ed
Ġb isa
Ġdur ango
Ġrespons ibility
Ġall igator
Ġfiref ighter
Ġwall here
Ġprak ash
60 4
Ġmart y
Ġho ang
Ġch osen
Ġdef ault
Ġam in
al ach
em er
iz on
Ġtarget ed
os ur
if era
Ġvine gar
Ġb inary
Ġpack ed
Ġcel ine
Ġpick ing
Ġalger ia
ad am
ig ures
Ġs uction
70 3
Ġspoon flower
Ġfar f
h ang
Ġrecord ings
Ġspokes man
Ġi it
Ġnas daq
Ġthick ness
Ġ7 37
Ġk anch
Ġcut lery
Ġenclos ure
17 3
Ġmc queen
f ires
h os
b os
Ġlit re
Ġview ers
Ġ01 20
Ġtransform ing
Ġpul ley
Ġl uka
Ġod or
Ġph p
ks i
v p
Ġrob otic
Ġver bs
Ġu chi
Ġgr ief
etr ics
Ġjo han
ell an
Ġsurab aya
Ġst ole
Ġexpl icit
Ġsw arovski
Ġplac ement
Ġt ij
Ġnut ri
Ġpet ra
Ġalv arez
Ġremark able
Ġ15 8
Ġbior xiv
Ġspecial ized
Ġdead pool
Ġd aft
Ġt osc
Ġcar y
Ġsh ields
ient os
Ġcar ls
45 5
ver e
Ġcryptocurr ency
Ġhow top
an ey
Ġmaint ain
ans i
Ġko chi
Ġart illery
15 8
18 4
Ġrol led
Ġcorp us
Ġguer ra
Ġtherapeut ic
Ġfrank ie
Ġstat ist
Ġfoss ils
is le
Ġexperim ents
Ġriv als
w w
Ġvibr ation
Ġpear son
Ġnig el
t ap
Ġfung us
Ġbulld ogs
Ġdr u
Ġv az
en ium
70 8
Ġhel ix
Ġend ors
Ġc ib
Ġthr ottle
Ġr au
Ġsl ave
Ġg ina
Ġcur b
Ġchap man
Ġnav i
el ial
Ġpig ment
Ġharass ment
ron ounce
Ġpig s
Ġdam asc
Ġhowtop ronounce
Ġbi ol
Ġbl ink
Ġbu hari
Ġtr olls
Ġtest imon
Ġtraff icking
Ġsp f
aw orld
Ġof ertas
Ġth ane
Ġdoll house
Ġcou pling
Ġlook book
Ġu it
Ġpre y
Ġcertific ates
ic om
Ġbey blade
d ies
m itt
Ġt ert
Ġl ur
Ġtang o
Ġs bs
Ġchat ter
b ath
Ġbo a
Ġcar ing
Ġ20 6
Ġinform acion
Ġpad re
cl er
Ġh ieu
Ġsens it
Ġhit ting
Ġnar od
Ġe il
Ġlu i
Ġs asha
Ġmet aph
Ġbyz antine
r z
Ġsm ar
Ġkath ryn
Ġmusl ims
Ġwilliam son
an et
Ġant ip
Ġbub bles
irl oom
Ġib n
ile t
Ġn iet
Ġf int
hold er
Ġcal ibr
Ġu a
Ġneighbour hood
Ġhumming bird
Ġem press
Ġall ure
ae a
po le
osc opic
bus ters
Ġextract ion
bl ocks
Ġpin png
Ġc oul
Ġj ensen
90 5
Ġbrend an
Ġfree bie
Ġchin adaily
Ġnurs eries
le ur
Ġa irt
agl itz
Ġ25 60
op o
Ġwar mer
Ġvoy ager
il ah
Ġj ang
14 9
Ġto gg
Ġd orn
Ġthe ms
Ġsandwich es
Ġfis cher
Ġcur ated
ga on
ign y
ard e
col o
Ġ00 7
em ite
Ġsqu ish
Ġbal ancing
65 5
Ġine qu
k um
Ġpers ist
Ġw ok
Ġpew ter
Ġkind ness
r igo
l ast
Ġragn ar
n av
Ġall ied
icult ure
Ġindi aglitz
Ġsaff ron
p b
Ġ19 08
Ġvol umes
Ġcourt esy
Ġsole il
Ġhe irloom
Ġbas es
Ġcyn thia
ul an
lic he
40 8
Ġr uk
Ġse iko
Ġcommemor ative
ut ing
bas ket
t m
u ya
Ġshar if
Ġ19 31
Ġdiv ert
Ġident ified
Ġig or
Ġc ms
Ġy ves
Ġrobber y
Ġcont oh
Ġch ik
Ġtex ts
anc ies
r ul
Ġrepresent ation
Ġmc u
Ġbear ings
Ġstrong est
Ġf enn
Ġthe odore
Ġbe asts
Ġgl ide
ig al
est inal
cul us
Ġm ps
Ġelek tr
Ġto i
Ġmer idian
Ġd ham
Ġn xt
Ġa ew
Ġre think
Ġtass el
Ġshoot s
Ġpep t
ap or
rat ri
Ġen rique
Ġsaf aris
45 6
ical s
Ġm z
Ġabb ott
al ion
Ġfound ry
Ġcd c
Ġsd n
Ġtri athlon
Ġsur ya
ok an
Ġps i
Ġe fe
Ġfest a
Ġman ning
Ġher on
Ġmub i
Ġsav vy
Ġegl ise
Ġaw k
Ġdor othy
Ġpromot ing
ec urity
Ġcataly st
Ġpresbyter ian
Ġg ts
Ġprotect ing
Ġ2 99
Ġfl utter
Ġcob alt
Ġk appa
Ġinaugur ation
Ġjun iper
Ġalexand re
Ġpulmon ary
Ġfashion able
Ġbugg y
Ġi as
Ġgia i
et ies
hel p
Ġmiss ions
Ġgec ko
Ġcust ody
Ġbur ied
z ow
an ie
Ġstart ups
Ġar tery
Ġcub ic
Ġcap ri
Ġstudy ing
ab at
p ac
r im
uc ia
Ġde ment
Ġp ann
Ġdraw ers
Ġnep ali
Ġcent rif
Ġmel on
Ġpick ed
Ġuttar akhand
l ore
Ġster il
Ġed icion
Ġp ts
Ġclem son
Ġneed les
it ious
Ġ19 27
50 1
l ok
ateg or
it u
Ġ15 4
Ġand r
Ġinf ect
Ġgam ma
Ġdj ok
Ġmat th
che f
de vi
Ġpint ura
Ġole h
Ġappart ement
Ġtr ai
Ġpl ata
Ġdevelop ed
Ġbru ins
im oto
Ġbr enn
Ġast ra
Ġfull er
Ġos man
Ġmas er
Ġtrac ing
Ġta ek
d ling
imp se
Ġpl enty
Ġmile age
Ġunscr am
Ġtransparent e
Ġintern ation
b j
Ġland search
Ġgrand es
Ġhim achal
Ġt ors
Ġserv iced
Ġgar g
Ġpubl itas
Ġra ider
ster ed
Ġjoin ed
Ġprotect ed
Ġpom er
Ġmong olia
Ġsim ul
40 3
Ġsup ra
Ġlib eration
Ġlie uten
Ġenc ore
Ġmold ing
Ġaccess ible
am ura
Ġgr und
Ġdr a
im ents
ip o
Ġpress ed
iss en
Ġstar ry
Ġthe ories
Ġanast asia
Ġwhate ver
Ġcrack ed
Ġshr ub
Ġpos itions
Ġca us
Ġfor ens
Ġcancel ed
ak ura
Ġal man
Ġsqu ares
arm ing
Ġspr ayer
Ġrem embr
Ġswan sea
Ġpar cel
Ġk oc
Ġpep pers
Ġro jo
an ter
Ġfl ange
Ġes col
Ġeb id
Ġtut u
ka a
Ġpat na
Ġdefe ats
ol u
Ġinc ent
ol ica
Ġeng el
Ġper kins
av ings
Ġins an
2 25
Ġalz heimer
ay ana
Ġarg us
Ġfol ks
Ġcon ch
Ġimmun ity
Ġsh ant
Ġj ailed
22 3
Ġf ins
Ġse aling
Ġ ily
Ġprin ces
Ġveg gie
Ġremember ed
Ġpar ody
Ġbachelor ette
Ġknox ville
Ġal di
Ġjav as
Ġlo i
Ġedmund s
r ang
Ġper uv
Ġcraft ed
Ġgw en
us ic
Ġv ai
Ġpark way
ts ch
Ġsher lock
Ġclassroom s
id on
Ġauthor ities
Ġtl c
Ġcumb ria
Ġram an
Ġgu ern
Ġmeh ta
Ġcelest ial
Ġover lay
Ġply wood
ug o
Ġcab och
Ġthems elves
Ġabsor b
Ġillumin ated
u led
dr ops
te am
Ġpal ma
Ġb ates
Ġle ah
Ġdij ual
p u
Ġdanc ers
Ġr oku
Ġv enda
Ġw ass
Ġl iang
Ġth ien
Ġneder land
Ġed ison
Ġdrain age
g ust
Ġtv s
Ġcor azon
Ġv ouch
Ġretrosp ective
Ġhydr ange
Ġmer deka
Ġg aj
Ġp ate
Ġcin co
os k
50 5
Ġorgan isation
Ġgir affe
Ġtable ware
70 4
w arya
Ġcatal ogs
Ġkre is
Ġ18 80
Ġach at
Ġcol ore
Ġcrit ics
Ġmac au
Ġfacel ift
Ġwal ton
Ġc ang
rich ten
Ġmc cart
Ġk ier
Ġtem a
Ġde ce
Ġprefect ure
s b
Ġem issions
Ġsuperst ore
Ġshop pe
Ġv ind
Ġam c
in an
Ġs ver
Ġip a
Ġwarsz awa
Ġen roll
Ġm ung
Ġel on
Ġrem y
Ġtra um
Ġmedic inal
Ġgl impse
20 13
Ġbir yani
Ġbrune i
Ġdr ones
Ġop pon
Ġsc alp
it et
Ġspons or
Ġib is
Ġstop ped
ich ts
Ġangel ina
Ġmanit oba
Ġparaly mp
Ġpol ym
Ġmel ting
Ġl illy
Ġd uss
enc a
Ġnic he
enc ial
Ġatt ire
Ġh ana
Ġexpl ores
Ġyog i
Ġalad din
Ġy ield
Ġz ack
Ġowners hip
z cz
Ġmu y
Ġple ated
Ġle uk
Ġ15 6
he x
oca ust
Ġrot ation
Ġlash es
Ġtaxiderm y
Ġarbor etum
Ġdjok ovic
Ġwas p
Ġbo ise
Ġdh arm
Ġsuper heroes
Ġcosm os
Ġs ins
ub on
Ġfashion ed
Ġmoistur izing
Ġital iano
Ġtun ic
Ġjean ne
Ġdun es
Ġcon cl
Ġdeterm ination
Ġhick ory
Ġab original
Ġsh ag
Ġradi ant
Ġautograph s
Ġmind set
Ġfay ette
op ri
n h
16 00
ild e
Ġqu ay
80 5
pre ps
Ġpup p
Ġscoot ers
Ġ5 10
Ġdan h
66 6
Ġnew egg
Ġsupport ed
Ġdam on
Ġrot terdam
re ck
Ġhead line
Ġfiy at
Ġsch o
zy me
ar l
t ie
Ġt ome
Ġdemonstr ation
Ġpr an
Ġjen kins
Ġgust av
Ġto by
Ġc ows
Ġch ol
Ġloc als
Ġran ks
Ġpa ige
Ġemb ry
Ġh aci
Ġcar acter
ax is
Ġsnap chat
Ġnit ro
Ġtherm o
het t
Ġoak ley
am or
Ġbad ger
Ġdes cribe
Ġun employ
Ġw ies
Ġel isa
Ġinaug ural
Ġgl orious
Ġpr av
Ġtruck er
Ġbal anced
Ġell ie
Ġsov ere
e um
c f
Ġdr amas
70 2
ro ot
Ġsurviv ors
Ġr ik
Ġd ahl
oc ular
Ġsil v
Ġsn aps
ak ov
Ġti empo
Ġult ima
Ġun cover
Ġed o
Ġfier ce
uck et
Ġconf essions
Ġbang s
p ati
Ġdeal ing
Ġfund amental
Ġhipp ie
Ġfree images
Ġgest ion
Ġtier ra
Ġchees ec
eng ine
Ġml p
en u
aw ak
Ġmun ster
Ġgiorg io
Ġchim ney
Ġamend ment
Ġabb as
Ġd ude
Ġq a
Ġislam abad
Ġchihu ahua
ric o
Ġgladi ator
Ġteen ager
ul d
ott y
Ġsh uk
Ġpatagon ia
Ġsauc er
Ġpaw s
Ġso z
tele graph
Ġpr obi
Ġrock ing
Ġtext book
Ġolymp us
Ġmasquer ade
Ġtrad es
Ġdevot ional
Ġb oda
60 2
Ġobs ession
Ġen velop
Ġvari ations
15 4
Ġw ap
Ġch anger
Ġst il
Ġkrist in
Ġh ints
Ġimages elect
Ġriver dale
c g
Ġnar ayan
Ġtr ot
Ġwind y
isc al
Ġc ena
Ġdag ger
Ġbreak through
Ġe ine
ar ily
Ġjud ith
Ġl ivery
Ġtu oi
Ġtyr es
70 6
Ġ978 8
Ġsnap back
k umar
Ġl ush
r ite
70 7
hy un
Ġbl own
Ġmi asto
Ġir reg
ag iri
Ġbab e
Ġlind sey
Ġd ali
y b
Ġenthusi ast
t om
Ġfr itz
Ġven k
Ġjavas cript
Ġhips ter
14 7
Ġtrib es
Ġjo o
esc u
Ġjol ie
Ġregul atory
a que
pl aces
Ġbol ts
Ġne k
Ġ13 1
Ġbe ak
Ġhol ocaust
Ġlev y
Ġphu ong
Ġemboss ed
Ġk oll
Ġdiv ided
oty pes
Ġhatch back
Ġrel ocation
Ġmag dal
Ġch ern
Ġwork force
ans a
Ġdo yle
Ġson ia
Ġrebell ion
on te
Ġdeb bie
Ġvo id
Ġb ier
z ia
Ġcon rad
Ġpath ways
Ġbob ble
Ġpr ensa
Ġhuman itarian
ol ah
Ġarrang ement
Ġest her
Ġtravel ers
hn er
Ġpot ent
Ġ20 4
Ġsar at
ik al
ll is
Ġl our
Ġmanag ers
Ġg yr
Ġexp anding
v ideo
14 2
Ġband ar
Ġch ard
Ġgu am
Ġpent agon
Ġl te
Ġull iy
Ġun used
j ew
Ġque er
Ġgyn ec
Ġdis fr
Ġhib iscus
Ġcuc umber
amb ique
ur en
Ġp uck
Ġbas is
erisc b
Ġulliy eriscb
Ġwh itt
Ġhit ler
Ġin ox
Ġpin ch
Ġaval anche
Ġb ison
Ġhe il
es ian
Ġval d
Ġpem br
Ġover land
Ġtrends map
Ġsz cz
Ġbl ower
Ġcar cinoma
Ġleip zig
pr om
Ġchrist ians
Ġpen y
Ġsquee ze
Ġz uc
Ġmex icana
Ġg ast
Ġpl age
Ġmond o
Ġuc l
ochem istry
n ets
Ġrecogn ized
Ġdo ha
30 9
p ard
Ġn ymph
Ġab ram
ed ev
Ġarg ument
am ation
Ġart icul
Ġsw at
Ġk uc
Ġcirc uits
Ġfl ask
22 9
Ġschol ars
Ġshe a
Ġgn ome
Ġgear box
Ġo gr
ell in
Ġpr am
Ġdisc s
co e
Ġperf or
ab or
Ġexec ution
Ġto h
Ġwar na
Ġqu ake
Ġco h
Ġstat ements
Ġshort age
Ġautoc ad
l id
Ġoh m
em ar
Ġbern ie
al ine
Ġcham eleon
anthrop y
Ġfreder ic
Ġinspir ations
Ġn ave
Ġg aza
Ġpap ar
Ġmu h
Ġbattles hip
Ġstud ded
fe it
Ġdere cho
Ġsab ha
Ġflav our
Ġbel mont
Ġpract ition
Ġsuggest ed
Ġne el
Ġjenn a
Ġbatht ub
iy an
Ġpul led
Ġfl air
Ġdist urb
Ġjum ia
Ġ15 3
Ġvis ions
Ġpr over
Ġdel ays
Ġfor ty
Ġhob bit
Ġbooksh elf
Ġinv o
Ġalej andro
Ġnat alia
em in
Ġron nie
trib une
os ed
Ġkat ana
Ġfel ic
Ġtrans g
Ġ22 3
igh tr
Ġros ewood
g ence
60 7
Ġeconom ist
Ġmar oc
ew orks
Ġtor rent
Ġsel ective
Ġv ek
Ġint ensive
Ġd ore
Ġsas uke
Ġf ille
Ġrug ged
ra id
Ġkh ar
Ġw ives
Ġmed ina
Ġinsp ector
Ġtul le
om etry
Ġpe gg
k ai
Ġs ia
ag gi
Ġterr aced
um ont
ee ps
Ġlow e
Ġmicr ostock
Ġethnic ity
hr er
Ġstr oller
Ġp ank
Ġen n
amp ing
Ġawk ward
Ġbu cc
Ġpr att
2 64
Ġforkl ift
pa id
Ġupload s
Ġhoff man
Ġa aj
Ġcord oba
Ġcompass ion
esh op
Ġjohannes burg
Ġlemon ade
Ġna am
Ġtas mania
15 3
Ġg err
Ġl ant
Ġres igns
Ġcaval ry
Ġsurf aces
Ġut v
z b
Ġmys ore
Ġattorney s
Ġym ca
@ ,
w t
Ġl oth
Ġph uket
Ġautom ob
Ġm ids
Ġprote ins
Ġk etch
Ġap s
Ġw ipes
Ġleh igh
Ġrh ine
ient es
Ġcraf ting
Ġj iao
Ġr attan
Ġor k
15 6
Ġrece iving
Ġbon net
net ic
Ġcor gi
Ġremembr ance
Ġarch ivo
Ġtake over
Ġh inge
Ġseahaw ks
i ad
ck i
Ġzomb ies
uss y
Ġj sa
Ġcell ar
us ive
Ġt oss
Ġein stein
umber land
Ġser bian
Ġrole play
Ġed ges
Ġgo ats
Ġcast el
Ġag ost
isc over
Ġk ram
Ġcontem por
d x
Ġcr umb
iz m
Ġvent ura
Ġroh it
Ġuphol stered
Ġirreg ular
ed ay
il ver
Ġacc esor
Ġvit amins
Ġbunk er
Ġsubwo ofer
Ġdifferent i
Ġbr ay
Ġshop per
Ġnag pur
Ġlincoln shire
Ġdu et
Ġflash back
on en
Ġbur ial
Ġp fl
Ġj ih
Ġconf etti
b ao
Ġsevent een
Ġy oon
ie ux
Ġpage ant
Ġet here
Ġpre lim
Ġali ens
Ġm ard
Ġaish warya
Ġmicha els
ub u
Ġh eng
Ġinstall ing
Ġbelfast telegraph
Ġprov iding
Ġlook ed
ost atic
Ġm ue
Ġg ist
un as
Ġsal ute
Ġhol istic
Ġd ain
Ġpresent ations
Ġcum mins
Ġfemin ine
Ġan ivers
Ġfoli age
s port
j n
r n
Ġc ess
Ġex cess
Ġdiv ya
Ġgl aze
Ġmort ar
Ġpo zn
p ora
ig t
24 9
Ġesc apes
Ġturbos quid
Ġre load
Ġvend ita
Ġmar vin
Ġann oy
iel le
18 9
Ġlieuten ant
Ġconf used
Ġcarn ivor
Ġcamps ite
Ġfond os
Ġantar ctica
Ġal te
Ġsp as
ib el
Ġca it
Ġeclect ic
if fer
Ġspat ial
Ġbacter ial
ar z
Ġed win
Ġje ux
Ġrefurb ished
Ġco qu
ask an
Ġkos ovo
Ġinstruct or
Ġbe ers
v u
tr ak
Ġdepos it
me al
Ġmechan ic
y as
Ġqu inc
ver n
Ġv ee
Ġpr ada
Ġ100 1
Ġsm ugg
40 2
odes k
Ġfel ipe
Ġprist ine
d ot
Ġbl aster
Ġan up
Ġmood y
worth y
Ġcort e
Ġg ould
Ġt az
oc c
30 6
il or
h ores
Ġherz eg
Ġbelle vue
Ġ20 7
Ġplac ements
u ing
ple x
Ġfair yt
Ġsa ul
Ġish q
ter ing
Ġhuman ities
Ġsepar ate
Ġpx here
Ġprincip le
ay u
Ġsovere ign
Ġf uchs
irl ing
60 6
Ġvin ci
Ġis mail
Ġmet am
Ġw ight
17 9
Ġeyeg lasses
h ung
Ġlac quer
Ġacqu ire
Ġfung i
Ġy ur
Ġsk ates
Ġma us
Ġtranspar ency
und ers
Ġs agar
Ġconcentr ation
Ġang us
kr ate
Ġy oshi
Ġban que
u en
f ot
Ġ19 26
15 9
Ġlat te
Ġappl ic
Ġrelax ation
in ology
Ġpresent ing
13 1
Ġen em
ich o
Ġtrop es
up t
Ġmanif old
Ġsales force
Ġroman ian
Ġgc se
Ġbl as
Ġz s
al ur
um mer
Ġrepl y
Ġrent berry
Ġsun light
78 8
Ġest imate
Ġjun iors
Ġcar ly
Ġpur due
le arn
Ġbu krate
Ġbrief s
Ġr uling
ach o
ict ing
Ġet ching
80 8
Ġlip utan
Ġbar ns
Ġarm ory
Ġconsum ption
q ing
30 7
Ġob i
Ġwal lets
ha an
ow ay
Ġquarter ly
Ġre eb
Ġtap es
Ġepisc opal
Ġsa ab
Ġbeck ett
Ġtrab ajo
Ġunf org
Ġang i
mag azine
Ġlu o
Ġchron o
Ġcampaign s
iz acion
ino x
ign ed
Ġsold ering
Ġros ary
Ġj us
78 5
Ġrecord ed
16 9
un ter
Ġn ud
oun g
Ġap parent
Ġg ins
Ġcanc un
Ġsn appy
Ġpla ques
Ġair borne
Ġconspir acy
Ġwe g
b ible
40 6
m obil
Ġdec ker
amp tons
Ġca using
Ġos p
Ġt amm
Ġ19 22
q t
gr am
Ġpr ese
Ġfundament als
Ġthir uv
Ġk iel
Ġre imag
Ġprov en
Ġter baik
Ġneg oc
Ġshah id
Ġbound ary
and ers
Ġhead er
Ġta ught
60 9
Ġmang alore
Ġh ector
Ġhip hop
Ġflet cher
Ġr hone
Ġdr own
48 5
ac us
Ġrev ital
Ġimm ortal
il us
Ġinfin iti
Ġpeb ble
z ur
Ġd arts
Ġ18 9
Ġthr ash
Ġs sc
Ġmid land
m ix
Ġz ent
Ġren al
Ġte hran
Ġall ows
um u
Ġtr ois
Ġnov ak
o ia
Ġsw ear
Ġinf ections
15 2
Ġbeard ed
Ġcolomb ian
Ġv ido
Ġher ring
ad ero
ane z
Ġfeder er
Ġb if
Ġverd ict
Ġol ga
16 4
Ġcrew s
Ġferdin and
Ġclif ton
Ġdragon fly
Ġsuff ers
Ġstafford shire
w itter
Ġkey ring
Ġsof as
Ġmik hail
Ġves pa
Ġval erie
Ġre com
Ġqu ince
x r
het te
Ġin com
Ġp ore
Ġpro hib
Ġgard e
Ġsir en
Ġplays et
ph al
Ġ ith
Ġ20 9
os as
ust ice
Ġclo ak
Ġberr ies
Ġhast ings
Ġdiscuss ions
ic ola
Ġsl oopy
Ġth oi
om orph
Ġwyn k
Ġt undra
k ur
Ġprov es
at own
g old
Ġpra ises
Ġtrans c
Ġhors esh
Ġjud o
art on
Ġle ash
Ġimprov ements
eg en
75 5
Ġbian ca
Ġest udi
Ġruff le
ut ional
Ġto pl
Ġcollect able
Ġmel od
k un
he ts
Ġdes ain
Ġder ived
Ġbeat en
an im
Ġalche mist
Ġsh ovel
Ġtoul ouse
Ġv ant
Ġnew found
Ġstr oll
Ġra ul
Ġboom play
uk one
Ġvin c
Ġlakes ide
Ġback stage
om osci
Ġti ara
Ġnach richten
Ġjohn ston
3 000
ill ary
ang le
alo id
70 9
p erson
Ġcolon el
Ġcab ello
Ġdefin itely
int osh
Ġg aya
Ġstrugg ling
Ġn ode
Ġbomb ay
Ġmic rop
ar os
devi antart
Ġun ik
Ġcal ed
Ġcirc um
qu ets
Ġfreel ance
Ġp ter
Ġr all
Ġle uc
Ġfr en
Ġcomm issions
oph yll
Ġuchi ha
ball s
Ġge ological
Ġl ille
Ġyellow stone
b eth
Ġmarch ing
Ġcerv ical
Ġob es
Ġstr ath
Ġmargar ita
f ol
Ġgt x
al ya
Ġo ahu
Ġcomp le
Ġconsol id
ov is
90 1
Ġmu le
Ġll an
str uct
ac z
Ġwr ote
Ġstall ion
Ġattend ance
or c
14 6
Ġmaser ati
Ġof erta
Ġpsych ological
ol ian
Ġdirect ly
Ġcr ib
Ġvari ation
Ġcliff s
Ġseason ing
Ġcat fish
Ġdefin ed
Ġmc far
Ġsib erian
art y
Ġ202 4
Ġcrunch base
Ġpray ing
Ġvis ita
Ġtu i
Ġwander lust
Ġfal cons
Ġ4 11
Ġaw d
l ins
un ya
Ġaud ubon
Ġ190 5
Ġinfl ation
Ġinter es
Ġfa ust
Ġcur l
Ġn cr
Ġst ell
e urs
ar ound
Ġn ys
Ġelis abeth
Ġequ il
Ġattack ed
Ġokin awa
ush ima
Ġbackpack ing
Ġn ama
Ġhar lem
Ġn ect
Ġwides creen
Ġrust y
Ġw az
Ġlat ch
Ġtip per
Ġkimber ly
Ġcompar ing
Ġdis gust
Ġanimal es
Ġtut or
f ox
iz an
19 7
Ġappar atus
Ġch ou
Ġbehavior al
Ġcl am
c our
Ġscript ure
Ġcloud y
Ġwilts hire
Ġib er
Ġwur tt
Ġgen re
Ġst akes
Ġ19 23
Ġchev ron
en ze
Ġch eryl
Ġ19 24
bl ack
Ġso om
is in
Ġorthop edic
Ġte ac
Ġbay er
Ġnh ac
Ġak ira
Ġr ast
cl iff
Ġle ch
Ġmoment um
Ġfash ions
Ġtom y
Ġv aj
ed ical
Ġsuff er
Ġenc icl
Ġens ure
el es
Ġrepresent ative
cont in
Ġ202 5
Ġm ille
Ġt unn
Ġdom est
Ġc ok
Ġn ug
Ġgr ange
Ġaff irm
Ġfarf etch
ra e
ir th
Ġsask atche
Ġmadh ya
Ġconvey or
Ġperson as
Ġk inn
Ġlat via
Ġdrum mer
Ġsalv ation
ak at
Ġsleep s
Ġb iel
Ġsha un
Ġmah m
n ian
Ġhe e
Ġsl ope
Ġcv s
iff el
ell or
Ġlab yr
Ġsures h
Ġped est
Ġheavy weight
Ġen quiry
dog an
u et
ark er
h w
Ġfront line
iy ama
g ill
Ġatlant is
af orm
15 7
Ġcheesec ake
Ġbatt alion
ar ang
Ġhg tv
Ġs ve
Ġinter actions
Ġherzeg ovina
ent hal
Ġhamm ock
Ġsurpr ises
Ġsuz anne
Ġvers atile
Ġcamis eta
Ġos m
Ġkur ta
Ġpel ican
Ġnar endra
b red
Ġdraw string
Ġid ols
Ġcell ul
n j
end on
us ions
Ġnotebook s
Ġp ga
Ġlim erick
Ġsem in
Ġboy d
tr i
Ġconven ience
Ġdust y
Ġun re
ebr ate
Ġkom pas
Ġsny der
Ġtub ing
Ġt aps
Ġun ified
pl astic
Ġdon ates
Ġsu es
16 3
Ġcrow ds
ab r
Ġber th
gr ave
iv re
Ġgall agher
Ġsleep er
Ġsaskatche wan
Ġparam ount
Ġsol enoid
Ġv ary
Ġlin ing
Ġb urch
Ġart ic
Ġmar ley
Ġlaunch er
Ġmik u
ud ios
amp a
Ġterr it
mer a
Ġpul au
Ġnot ification
Ġkin ase
Ġcab all
Ġb iss
Ġt shirts
Ġdix ie
Ġl ange
Ġvers ace
Ġaj ax
Ġa ki
Ġneed pix
Ġpad ukone
Ġp ico
en ham
Ġab by
Ġsab rina
Ġterror ism
ide a
Ġab und
Ġmack enzie
ac oes
Ġtax es
h id
Ġf ai
Ġmac ron
Ġcel tics
ur pose
el ight
Ġche cks
ger i
Ġjos hi
23 8
ad ri
pr ot
ach en
Ġmac don
Ġperuv ian
Ġfr ith
Ġfle a
Ġcens us
Ġunve il
er man
Ġchalleng ing
Ġed dy
f b
f en
Ġbr i
Ġbrit ney
Ġj io
Ġvenez ia
Ġte ard
Ġan ushka
Ġayurved ic
osph eric
Ġabd ullah
Ġp ous
ko i
Ġgog gles
al ous
Ġver ona
Ġsco oby
Ġab l
Ġbar ney
os ia
Ġmart ini
f d
Ġne ha
Ġexcept ional
Ġtu ition
ph il
n uts
Ġbl asts
Ġp esc
Ġcumple anos
Ġn ippon
Ġla os
Ġpol ishing
Ġcre pe
Ġg ub
ret te
Ġgreen land
Ġpep e
Ġches ape
Ġartem is
Ġprofes ional
Ġf als
urg ery
Ġcarb ide
Ġan em
Ġtr uyen
Ġstr as
Ġkang aroo
Ġbron co
Ġwrest ler
Ġyos emite
Ġal ys
Ġwild fire
17 4
Ġm io
Ġrest or
Ġblack berry
40 7
Ġpent house
Ġreclaim ed
Ġw ahl
Ġb ora
ze it
Ġcross roads
Ġant icip
Ġorder ed
Ġchrist church
un ia
gi ate
Ġant es
23 4
Ġlock ed
ay as
Ġs ending
Ġth esis
Ġwild flowers
gur us
Ġab ortion
Ġz aw
Ġren eg
ugg ets
ul k
v ector
Ġdiscontin ued
Ġr cs
Ġlar go
Ġsid ney
Ġtr om
Ġkiss ing
Ġsanskr it
us ha
Ġbh av
Ġdeploy ment
Ġupgr aded
Ġraf ting
Ġfluores cent
Ġtoothp aste
u ja
Ġs illy
40 9
Ġred ef
Ġform ed
Ġnick i
ig ious
Ġed c
Ġunlock ed
Ġsom alia
Ġant ara
Ġfitz g
Ġrw by
Ġcu ando
Ġbrew ers
Ġvot re
Ġlim estone
Ġinstit utions
Ġintrod uce
Ġk ear
Ġinstit uto
at iv
Ġde gen
Ġty ne
80 3
iat rics
Ġab bre
Ġn ons
Ġru in
Ġdamasc us
Ġvido emo
Ġv ader
erst one
Ġc ern
iy on
Ġaj ay
or ra
Ġsle ev
ed en
Ġjess ie
co ast
Ġma estro
Ġkom p
Ġvik tor
Ġlind en
ip ps
Ġcran berry
Ġbolog na
Ġthe fork
Ġte ases
Ġgop al
Ġv ines
Ġbarb ers
Ġchill i
Ġan ts
16 2
Ġhy mn
Ġar ia
Ġkla us
Ġp ome
Ġpl ow
Ġsmok y
Ġgreens boro
Ġlook out
Ġcompens ation
Ġarch ip
Ġur ge
Ġl k
Ġtem pt
Ġpal o
Ġcoord inates
Ġir r
uppl ier
sh are
Ġs opr
Ġed ific
Ġmask ed
its a
Ġbi otechnology
Ġw ys
Ġbrack ets
Ġevangel ion
m ob
Ġaut odesk
ij s
Ġgerm ain
Ġdu i
Ġrat chet
ary n
Ġretr iever
Ġwa ik
os ters
Ġ19 21
Ġarrest s
us ch
Ġj itsu
Ġwood stock
Ġocc ident
Ġjud ges
Ġpostpon ed
Ġpal ms
Ġre en
l ies
Ġsurround ing
Ġz ha
fun ction
Ġtand em
Ġl ice
Ġmort on
Ġre inde
Ġrep utation
Ġlaz io
Ġchor us
ard t
Ġts um
w ars
x s
af ar
Ġret ires
Ġsut her
Ġnerv ous
Ġfar go
z ag
Ġray on
Ġwurtt emberg
Ġcomix ology
z ad
Ġspot ern
Ġintellect ual
Ġi u
Ġbroad band
as im
Ġimprov es
Ġgf ycat
Ġeng adget
Ġimp re
Ġstyl ist
ace ous
Ġchesape ake
or ini
ig es
Ġdr og
Ġvs co
Ġfurnish ings
Ġap c
Ġsl ings
Ġwater ford
j j
Ġmah ade
Ġleban ese
22 7
Ġmechanism s
go at
Ġpet als
Ġsul ph
per f
Ġb auer
Ġwr ought
Ġcigar ettes
Ġj ax
Ġis d
Ġoper ators
gre ens
Ġjama ican
Ġsocial ist
ik awa
ire z
Ġin let
Ġdet erg
Ġgob lin
Ġbless ings
Ġconcept ual
Ġabbre vi
ek e
ere i
Ġtim elines
Ġsid ing
st aff
Ġant ibi
Ġcorners hop
gu ides
Ġproced ures
Ġexcurs ion
s al
Ġquinc y
Ġspr ite
Ġquilt ed
Ġz ub
Ġ8 000
Ġk rem
Ġred es
Ġcour ant
Ġpart icular
Ġout lets
Ġapp end
Ġbotan ic
Ġembed ded
Ġmid f
Ġr ink
Ġbab ylon
Ġ16 6
Ġal y
h ik
Ġtank er
Ġreject s
Ġp ledge
n c
Ġst are
Ġr ost
Ġbourn emouth
Ġakt ual
Ġal erts
Ġkath leen
Ġcarne gie
v ard
Ġb anc
Ġmo e
Ġwild e
Ġn af
Ġmin k
Ġscar ves
Ġpanc ake
Ġw erner
Ġscar ed
est op
ak shi
Ġ5 20
Ġqu er
Ġbug atti
it ers
Ġtop ch
Ġlo z
Ġbroc coli
Ġre ju
Ġmob y
Ġst av
Ġph ara
Ġayurved a
Ġguern sey
Ġgen ie
Ġcrist al
Ġconduct or
Ġch ok
Ġney mar
Ġpay ne
Ġtp b
Ġblizz ard
Ġde press
vi er
Ġbook let
Ġne c
fors ale
Ġver k
Ġel ean
Ġbh d
Ġod i
Ġpan th
Ġlod ging
k iss
Ġout back
en et
Ġserv es
Ġchains aw
ew orld
ym ore
16 7
Ġ190 9
Ġal gar
Ġlabyr inth
Ġfig u
Ġche dd
Ġmd f
Ġ978 11
Ġgaz et
al one
28 5
Ġc ev
Ġhousew ives
Ġpas cal
Ġconfident ial
Ġep he
Ġdiscrim ination
Ġlifest yles
Ġm ri
Ġshap ing
Ġcg trader
Ġj ana
Ġreeb ok
tr ol
Ġne ill
l bs
Ġd ustin
Ġn ee
e za
ia e
Ġcomm its
Ġ16 9
Ġdepart ure
Ġcal v
ir am
eep ers
Ġtrans itional
ca o
ol ly
Ġfl annel
is et
Ġk ari
ark t
Ġshr ubs
Ġy uz
pr ofit
Ġtip os
Ġturn table
Ġprov ided
Ġche t
Ġgrat itude
Ġh ifi
Ġworkout s
Ġend urance
ig y
Ġmodern e
Ġ24 5
etr acker
Ġco ax
Ġmar z
Ġbeck y
Ġind ore
Ġgraphic river
Ġve z
Ġcru ising
ling er
Ġexp orts
Ġ7 77
Ġm imi
Ġfred die
ist i
Ġkare ena
s q
p umps
Ġsk r
Ġkh aki
p w
Ġtransg ender
Ġencicl opedia
Ġher mann
Ġir a
90 4
Ġkey stone
Ġpil ates
Ġbr ix
Ġfinanc ing
Ġe ich
Ġbur k
Ġreinde er
ud ed
Ġban jo
po ints
w is
Ġsyn ag
Ġput ih
icol or
Ġnorm andy
Ġadapt ive
Ġec ological
Ġhook ah
Ġtech crunch
Ġd zi
Ġmark t
Ġt aurus
ens ch
Ġj ockey
Ġdec ay
Ġmidf ielder
Ġcr anes
Ġdol om
Ġlumin ous
Ġd ha
Ġn ero
Ġd ane
Ġmold s
Ġdone gal
Ġparticip ation
Ġrespons es
Ġmindful ness
Ġant wer
Ġp ase
Ġpatch work
e ira
Ġb ury
Ġcol ts
Ġch ats
Ġwood lands
Ġzag reb
Ġback ing
Ġav alon
Ġvid ya
Ġc iel
ash op
ick er
Ġhot sp
Ġho ard
Ġlift ed
Ġre els
Ġleaf s
Ġm uf
Ġthro at
Ġterrac otta
Ġnom inated
Ġtul s
is land
ug ated
Ġorph an
Ġgr it
Ġmess y
Ġstr iking
Ġemb arr
af l
Ġmiss es
Ġdef orm
Ġpriv ile
Ġo ise
il on
Ġcomp lement
Ġhar aj
z d
Ġre actor
50 3
Ġsch a
Ġdo zen
fin ished
Ġquil ts
Ġprom en
Ġem otic
im at
Ġs ars
Ġmcc arthy
Ġhrv ats
Ġwind mill
Ġk ool
Ġrail ing
mb uzz
h c
Ġcitizens hip
r k
Ġtre ating
d ong
Ġcan ine
esh i
Ġ00 3
Ġsist em
Ġcas io
Ġc ie
Ġaut op
18 3
Ġme ant
Ġsur ah
Ġoster reich
Ġfuss ball
Ġal gae
Ġun academy
Ġiw mbuzz
Ġaffili ate
Ġpetrole um
Ġbusiness man
Ġcast e
Ġmiscell aneous
Ġbab ys
Ġsem ester
pr it
Ġti ene
f lex
es k
Ġembarr ass
Ġmil ky
Ġanivers ario
ut ors
Ġrid icul
Ġwh ites
17 7
Ġbent on
oy e
Ġthe ology
Ġdes crib
Ġup right
Ġpret end
ad t
em power
Ġinv ites
Ġwild flower
Ġak adem
Ġb ilingual
Ġw itt
uch a
Ġrf id
Ġob d
Ġvenet ian
78 9
Ġberg er
Ġcom for
Ġshock ed
Ġmaver ick
Ġmer ke
Ġgr imm
Ġmart a
Ġhol z
Ġ30 1
Ġcollect ed
Ġk ain
Ġacc uses
Ġbe b
Ġdal mat
c ry
Ġcous in
Ġviv ino
Ġhog an
Ġn oche
Ġmart ins
Ġ19 4
Ġprom pts
Ġbik in
Ġparagu ay
Ġs ath
Ġ4 25
Ġcor ros
80 1
et ter
Ġsp iders
Ġtow ing
Ġcann ed
95 5
Ġros ario
Ġmons oon
Ġcal i
Ġcapac itor
Ġpr ank
Ġcour thouse
Ġm oul
asm us
Ġfleet wood
ik asi
Ġtrans cription
Ġp oke
Ġcr um
23 6
Ġsurpr ised
Ġsprzed az
ac ulture
Ġpel let
Ġcar la
Ġop p
Ġeconom ia
Ġmandal orian
Ġabdom inal
Ġsens ation
Ġbag u
v ara
ka ido
Ġhard core
Ġun iv
Ġcruc ial
Ġsky e
im g
ent ed
Ġcook ed
Ġlany ard
Ġmad ras
k ings
Ġcam br
Ġvoc e
Ġsm ack
Ġnorth umberland
mand u
g au
Ġprison er
inas upplier
Ġserge ant
Ġant im
Ġest adio
Ġst ab
Ġcam ar
Ġpol icia
Ġapart amento
Ġdes arr
ge b
Ġ18 2
Ġloy alty
Ġatt ached
Ġbarr io
Ġtopch inasupplier
Ġharaj uku
cot land
Ġcrad le
ale e
ect omy
Ġle ica
Ġguitar ist
Ġnin th
b il
Ġmu ay
Ġsar aj
iz ar
Ġap ert
id ine
Ġh ild
Ġvander bilt
ling en
and el
m atch
iss erie
Ġry der
Ġhop per
Ġfre est
Ġfund acion
ot ec
Ġsh aman
Ġsacrif ice
oot a
16 6
Ġamit abh
Ġwilliams burg
Ġglob es
Ġremov ing
id or
Ġr uta
Ġmegapix l
Ġ16 4
Ġr ains
Ġpal ais
Ġas a
Ġsong writer
ag in
aw al
Ġform ing
Ġpoly tech
ort a
hun ters
y f
Ġcrist ina
Ġclose up
istic as
Ġchedd ar
Ġla u
Ġsa una
Ġer dogan
Ġabo ard
or se
el ius
Ġg ael
Ġo gl
Ġwe x
Ġ17 00
Ġmultifun ctional
Ġcole ccion
wear pumps
Ġlet ras
Ġhol m
Ġnecess ary
Ġsuggest s
Ġmotor home
ins ter
Ġmarsh m
Ġveb uka
Ġsolid arity
Ġdefin itions
ad ium
f ont
Ġfound ations
Ġm ugg
Ġto an
Ġrand all
ion ale
Ġvik ram
Ġt ents
Ġac acia
Ġoax aca
Ġerg onomic
r ush
Ġw ts
Ġtogg le
Ġdur ante
Ġn iv
Ġfotograf ie
w ort
Ġhom age
Ġmotor ola
Ġhol o
Ġcarn aval
Ġborder lands
Ġtener ife
ill i
Ġteap ot
Ġsubl imation
Ġt sh
Ġcom ercial
Ġbully ing
p ict
Ġespan oles
Ġdistribut ors
ob edi
Ġreserv ed
Ġyuk on
Ġmod ules
Ġmixt ape
Ġstr ad
an ja
Ġbar ker
Ġana heim
Ġpr esto
Ġmar ino
Ġwick er
Ġe iffel
Ġwr oclaw
od ont
c ulture
Ġmaster class
ows ka
Ġro ar
23 9
Ġup r
un cture
Ġdynam ite
Ġc inta
co ach
sch aft
Ġre ese
Ġor a
Ġfre t
Ġfil ing
Ġam ore
Ġsp i
Ġsai yan
Ġout lander
h ook
Ġbhoj puri
Ġth istle
Ġcc g
Ġf ad
th ane
35 8
ter i
Ġ ive
if u
Ġglass door
Ġrod rigo
of lot
Ġnitr ogen
Ġfor bid
Ġz oro
Ġdist ingu
Ġlect ures
Ġcomm od
Ġdiv ide
Ġdog training
Ġs ly
Ġper o
Ġg tr
Ġout rage
Ġinflamm atory
Ġv pn
Ġdec ou
Ġtool box
Ġconsum ers
ator ium
be am
ences chool
Ġbr akes
Ġsh ib
Ġkl ub
Ġaless andro
Ġter k
Ġsam oa
gl obal
d ream
Ġja ime
Ġm ugh
Ġab el
90 8
Ġceleb zz
f ull
Ġcl av
Ġplat ter
Ġj om
Ġgluc ose
Ġad olf
Ġh inter
Ġbu ena
Ġ16 3
at ico
Ġ ump
Ġb ounty
Ġ15 7
Ġvari eties
Ġiraq i
obedi enceschool
Ġwe as
he ets
Ġdis pers
Ġl ir
Ġman ne
Ġocc ur
Ġth iet
end ent
Ġcamp eon
Ġdogtraining obedienceschool
isl av
Ġpam ela
Ġcross word
ch lor
paint ed
Ġac orn
Ġ25 5
Ġjournal ists
Ġend ocr
Ġempor is
Ġse gu
Ġsek olah
Ġz id
Ġext inction
og ene
Ġarch iv
Ġprese ason
Ġam ount
ong an
Ġqu ill
Ġpar ede
Ġden ise
Ġlivest ream
Ġlis boa
Ġc id
arn ia
le wood
Ġs ith
Ġser mon
Ġexpect ing
Ġr ift
Ġr ipped
quir er
Ġsumm ers
icult ural
Ġdepart amento
Ġwr en
Ġo i
Ġspec ification
Ġproduc ers
22 1
Ġcraf ty
Ġcush ions
Ġg ente
Ġhers elf
Ġto fu
Ġposs ibly
Ġsubtit les
ac je
fam ily
Ġpean uts
Ġc est
ick i
Ġon going
m om
Ġcut est
Ġexp orters
Ġcap ric
Ġev elyn
Ġbad ass
Ġparticip ate
Ġlar ger
Ġmans field
af fer
Ġappr opri
Ġport a
Ġfre mont
et ha
Ġsat an
inn ote
Ġtalent ed
yt ic
Ġover head
Ġmoz ambique
Ġdream ing
char ged
um al
Ġeff ic
Ġfut ebol
Ġrehe ars
j ing
Ġaz iz
Ġad ir
Ġdick inson
Ġad e
Ġdes erve
ero le
Ġcub es
Ġph uc
Ġvoc aloid
Ġton ic
eld orf
Ġ5 55
art o
Ġnew b
2 65
Ġsn ook
Ġloy al
Ġve er
Ġz av
Ġsu arez
Ġapp alach
Ġgood man
Ġmagic ian
Ġtherapeut ics
Ġcut out
Ġrequest s
Ġnav ajo
Ġgra inger
Ġpet a
Ġsubst ance
ic c
Ġban er
Ġw ob
Ġpr ok
oj ian
Ġp act
Ġn aps
Ġk raj
Ġsky walker
Ġcl on
Ġwild er
Ġpras ad
Ġarchite kt
Ġmed io
Ġmax preps
Ġmyth ical
m w
Ġanaly t
Ġpome gran
Ġm ph
Ġbal kan
Ġ18 8
Ġext re
b ling
Ġpharmac ology
Ġy ag
Ġch atham
Ġrod gers
Ġre play
asse e
ort ed
Ġglog ster
Ġw age
Ġreg ime
Ġva ish
Ġf unnel
Ġthor ough
Ġbre athe
Ġrevis ited
Ġins erts
Ġin ks
med ic
Ġgr ap
og u
Ġie ee
Ġhar am
Ġdanc es
Ġgre gor
Ġsal oon
Ġj ude
Ġdeclar ation
Ġzu o
25 8
is ches
Ġquote hd
ne k
Ġbeat port
Ġhust le
ig ree
Ġmod em
Ġdam ian
Ġstabil izer
Ġflam ing
br uck
iet h
Ġmold ova
Ġfear less
Ġlog innote
Ġtor ino
u iri
Ġeb ony
Ġpe ony
br ick
Ġquant ity
Ġen jo
Ġw ale
Ġbare foot
Ġhan h
Ġdrac ula
Ġp otted
Ġpr en
Ġnol an
Ġclad ding
Ġco e
Ġsnow man
cr afts
Ġreg ulations
Ġment ion
ro x
ay at
iz ens
Ġet ernity
Ġmurder ed
ment e
br ight
Ġj ann
Ġdani els
Ġny e
Ġnot ch
ram ed
Ġt ins
os es
Ġsurv iving
Ġbarg ain
Ġp ya
Ġs ill
Ġph yll
Ġnh u
Ġgill es
Ġwater ing
Ġh ires
Ġpost age
h om
Ġch ub
Ġwt f
ir ah
Ġcur ling
ale a
Ġcris p
Ġforest ry
Ġdou jin
Ġasy mm
Ġun r
Ġcomplet ion
Ġg he
Ġsch uster
Ġunder graduate
Ġloon ey
Ġelean or
24 4
Ġyout uber
Ġl pg
Ġr ond
Ġn aija
Ġtn empower
Ġmend es
Ġpc p
ons on
Ġexpl o
Ġsign atures
Ġsu le
Ġjorn al
Ġnon profit
Ġom ni
Ġprost ate
Ġis les
Ġ19 07
Ġsalz burg
Ġk ue
Ġmal am
ina e
Ġacc red
Ġhum ph
Ġisab ella
Ġfort un
hold ers
Ġth ar
Ġspe eds
ib id
Ġsum mon
Ġjacqu ard
Ġk emb
Ġ17 7
Ġgen oc
jar ah
Ġer ika
Ġale c
Ġrich est
Ġm ors
Ġslim ming
b elle
Ġg osh
ad ian
Ġfrost ed
icks burg
Ġbang les
Ġmor eno
ing ly
Ġgrizz ly
b ut
Ġst itched
Ġjugu etes
Ġve x
Ġvalk yr
Ġab his
Ġmajor ity
f acts
Ġfolk lore
Ġorgan ics
lt oday
c ake
Ġre inh
Ġhair cuts
Ġguest house
90 6
h ani
Ġdund ee
bus ter
Ġb aut
Ġsc anning
Ġ30 2
Ġsoom pi
Ġno z
Ġg id
50 8
Ġinv ited
Ġhack er
ap u
ios o
38 5
Ġvent ilation
Ġfract ure
Ġgall eria
Ġsaf ely
Ġpaj amas
ac ial
ib ilities
ol an
Ġde br
Ġchrist i
com a
s ons
Ġlyn x
c ale
Ġreg is
Ġhydrange a
19 4
and re
Ġdriv eway
Ġcompr om
Ġtan ah
Ġk arth
Ġpap ier
ter ed
ap as
Ġcr ater
Ġno on
Ġclip pers
cr ow
Ġm ian
en ig
Ġze it
Ġbenn y
Ġbaj aj
Ġstud s
Ġmanic ure
Ġpaint ball
Ġdipl omat
Ġal ignment
Ġperm it
Ġp esh
Ġnept une
Ġann ot
og es
Ġcheck ing
ew e
Ġk ask
Ġram irez
Ġins ulin
Ġpur ifier
33 8
17 6
Ġcou b
Ġinter d
Ġjer em
Ġcy mb
ir cle
ev ic
25 4
wr itten
Ġmicrof iber
az ioni
Ġman ner
18 6
arch itect
Ġvend or
Ġdang le
Ġsuv s
Ġb ia
Ġn ia
lin ers
Ġy em
Ġfinger print
thor pe
n ath
iet a
Ġdex ter
90 9
Ġ17 9
Ġaccur acy
Ġtherm ostat
Ġsol itaire
lin ed
Ġmail box
iz ations
Ġbill ings
Ġam mun
Ġex eter
Ġind ies
Ġin r
Ġwar frame
Ġcarol yn
Ġp ci
Ġplay ful
Ġbet ray
ij ah
ats iia
Ġgamb ling
Ġcal am
Ġmerc er
Ġvit ro
Ġto ko
Ġw ied
Ġtra its
Ġd ji
Ġse etracker
Ġcontinu ing
Ġbel a
Ġmin us
m ur
Ġbr ach
50 2
Ġase an
m ic
se k
Ġpeter borough
Ġrec urs
Ġsk lep
Ġspy der
Ġneb ula
al en
Ġadministr ative
Ġ18 70
Ġet e
Ġconsort ium
Ġmatch a
Ġinst yle
63 9
Ġse in
Ġhorsesh oe
st ory
Ġevac u
Ġdon ations
u ous
Ġp ich
ov ar
Ġserv o
lo om
Ġst ash
Ġsant orini
Ġtsun ami
Ġ22 9
Ġsax on
Ġdescend ants
f ans
Ġwild cats
Ġsnowfl ake
Ġperform ed
Ġes a
qu ist
Ġpl anners
78 6
Ġdy ed
Ġgl ider
Ġky iv
Ġj or
Ġtr omb
Ġmad re
Ġ18 99
et an
Ġk ook
ik r
Ġshut down
ell as
Ġ2 64
Ġman u
Ġ0 121
na ire
Ġsalt ed
Ġcapit als
Ġgh ibli
Ġfar r
Ġrh ymes
e ka
ic ot
ab c
Ġtele f
Ġc ak
Ġpant ai
Ġscout ing
Ġhotel es
s am
Ġpr y
ant as
Ġgreen wood
ne j
Ġg ti
Ġhay den
Ġmason ry
Ġ20 30
Ġmoth s
Ġsp oken
Ġpict orial
Ġet a
80 4
Ġsom mer
Ġup side
Ġne z
iras ut
Ġcraw ler
Ġtable au
Ġic in
Ġrich ie
Ġbon n
Ġroan oke
Ġrev amp
Ġcr m
Ġpapar azzi
ag ra
Ġkar ls
Ġwaff le
Ġhub ert
st ool
Ġrad ius
Ġsleev ed
Ġste aling
Ġthr ift
Ġplac ed
Ġhom ely
Ġche val
Ġexplos ive
Ġpanoram io
Ġm ien
erm e
Ġsan itary
Ġrepos itory
Ġk ita
Ġind uc
ot le
Ġc idade
olog ica
Ġpat terson
ob u
Ġche ers
19 3
Ġl ds
Ġlak ewood
Ġan archy
Ġi op
Ġgu z
enc ers
Ġshak ti
Ġcoff in
Ġneighb ors
Ġw ain
Ġrom ano
ild i
Ġt ull
Ġmc gu
Ġfor za
Ġmen a
Ġg ator
Ġpo ets
Ġvog el
Ġneur o
Ġb ose
ews ki
Ġds lr
Ġmo x
Ġy at
ell ular
Ġhar b
Ġap othe
Ġaf raid
ess or
Ġser aph
ze ug
g it
90 3
Ġversa illes
Ġnostalg ic
Ġo bo
Ġchocol ates
Ġd oodles
19 2
Ġv v
Ġreinfor ced
Ġdement ia
Ġdon n
Ġc pa
Ġr ott
Ġconsequ ences
Ġguin ness
Ġd lia
Ġreju ven
ed d
Ġfant asia
Ġboard walk
Ġaccesor ios
Ġk ond
Ġel ias
80 9
Ġeast enders
Ġlaw makers
u ario
Ġcarous el
b ush
Ġwas hed
Ġb ors
iqu i
Ġk fc
t os
ic ons
Ġcom ida
ap ura
Ġlu ch
Ġcomp artment
Ġboom er
Ġang ie
Ġpinn acle
is is
Ġlok al
Ġun as
e ks
Ġed uard
Ġth ief
Ġmonkey s
ed uc
Ġab n
Ġwah oo
Ġ190 4
Ġs ond
Ġfiyat lari
Ġr ukh
Ġmamm oth
witter irasut
Ġcompl aint
Ġut ara
Ġf ach
Ġhan over
Ġbes ar
Ġjuk ebox
f rey
Ġav ion
Ġill um
Ġtung sten
Ġcalc io
in ha
Ġcon way
d ao
g az
Ġmigr ants
f ahr
w ad
Ġphill ies
Ġat al
Ġliv res
av y
m ie
ac ies
Ġque zon
Ġwikis ource
Ġcy st
Ġprin ters
Ġg ibb
witterirasut ojian
as z
Ġrad ial
Ġbus ter
ing le
od us
Ġsanit izer
Ġfl esh
Ġdor ado
r l
50 4
oor u
Ġreson ance
Ġsopr ano
Ġde com
ub ert
Ġash ok
Ġsc ars
Ġschem es
Ġfilm maker
Ġammun ition
Ġun finished
Ġjurg en
Ġcl yde
Ġmom a
Ġtransform ed
Ġps p
Ġcommun ion
Ġmich al
Ġmod ification
Ġident ifying
Ġs uck
ul se
celeb s
ath on
Ġtechn ician
Ġinte ch
Ġrespons ive
Ġju icy
Ġcass erole
Ġsa ud
Ġsuc ceed
Ġaux ili
Ġped ag
br ough
Ġrob ust
t am
Ġz end
Ġinf er
ied ades
ou w
Ġpedest al
Ġin line
Ġll ama
arn i
68 5
Ġfr ogs
Ġhyp ert
Ġnieu ws
Ġcal iber
Ġgas oline
iy ar
Ġk ie
Ġ22 8
Ġin mate
im ba
Ġsam i
Ġrenew ed
Ġbar riers
Ġse ars
Ġrev ive
Ġdem ons
Ġamen ities
Ġm ika
Ġher d
ter ra
Ġapartment guide
ik ar
Ġobserv ations
Ġy oda
17 2
fon ts
Ġsmar ter
Ġviv i
Ġcybers ecurity
com ics
Ġjen is
Ġpolit ician
aci ja
Ġsusp ects
ff er
Ġp uc
Ġb inge
Ġ15 1
id is
Ġprec io
Ġxx x
Ġsco oper
18 7
Ġsynth es
og on
Ġdeep ai
Ġ50 1
Ġvac ances
Ġak ron
Ġcontrib ution
ne a
Ġmil a
Ġcrest ed
Ġtramp oline
Ġay am
Ġembell ished
Ġh int
Ġst ltoday
le k
Ġdrop ping
Ġclear water
Ġpl ague
Ġpal ing
Ġ6 60
Ġvol unt
Ġarb itr
y g
Ġnewfound land
Ġlag u
Ġp eck
Ġband era
Ġte p
et ica
Ġmultipl ication
Ġbibli othe
or ic
Ġelectr ol
Ġvar un
w ati
Ġn ier
Ġun lik
Ġt era
35 6
Ġrhe um
Ġvalu able
Ġd aph
Ġbank rupt
Ġac ids
ig ans
45 8
Ġr uck
Ġtemper atures
Ġort iz
Ġcal d
ats uki
Ġ19 2
oz o
25 6
Ġc otsw
el ion
24 3
Ġhamm ond
Ġsegur idad
b ench
Ġbo bc
Ġdishwash er
63 8
ak y
Ġas li
Ġte h
Ġpr zy
Ġjo ao
Ġchlor ide
Ġb eware
Ġop us
Ġrec eta
Ġkh anna
Ġdomin ique
Ġpilgrim age
99 8
Ġd aff
Ġk iev
Ġbus ch
ub en
th us
Ġstamp ing
Ġliter ally
Ġpron oun
Ġresurre ction
Ġfitzg erald
75 8
Ġdec ent
Ġst uns
Ġad es
ov ac
Ġballer ina
k owski
Ġnorth ampton
Ġgrand father
Ġs aks
Ġbo il
ar ella
ch r
o ires
ias is
Ġalche my
Ġb ays
Ġtid ak
k ick
Ġis i
Ġsoc iedad
Ġconstant in
Ġle aks
cr acker
Ġsc ania
Ġel ast
be ing
Ġarrang ements
Ġpd b
ud y
Ġ18 60
Ġtooth brush
el m
oph ila
Ġex ile
Ġchr omat
Ġgar net
Ġsp h
Ġunt old
Ġsh aving
Ġrans om
Ġth ieves
c rew
or ro
Ġh ano
Ġobs essed
Ġnarc iss
Ġsch re
act ment
Ġrepubl ika
Ġkh am
Ġital iana
Ġol af
Ġplant as
Ġrele asing
Ġsleep y
op ters
Ġpas se
Ġwind ing
Ġ6 10
Ġpl ung
olog i
Ġl int
Ġast hma
op ers
Ġpres ley
Ġ14 1
Ġak bar
Ġres ale
Ġant ik
Ġsk ew
Ġve in
let in
if s
x id
abb at
Ġk ott
Ġdel ights
Ġch oc
Ġcad et
Ġtaek w
Ġst ellar
Ġc ope
ob el
ig old
Ġdiscip line
ik anth
Ġenthusias ts
Ġsh ia
Ġthy roid
Ġcarp ets
Ġstock ton
Ġbl unt
Ġoper ational
Ġbh akti
Ġequival ent
Ġl inn
Ġinter change
Ġdissol ve
Ġdecl ares
Ġin land
art r
Ġbrother hood
Ġh ord
Ġant is
ane a
yr us
Ġsm ule
ames h
d z
Ġre illy
h pur
Ġdeodor ant
Ġlang ley
Ġinst a
Ġad ele
Ġak an
rosc opy
Ġt ark
Ġj ams
Ġdig imon
Ġmay er
Ġbloss oms
Ġpanc re
Ġ18 4
ar um
Ġab illion
Ġho over
Ġenvelop es
Ġcatal ina
Ġro o
Ġscrew driver
Ġip od
Ġser ra
Ġ19 01
Ġwest field
acr uz
Ġup to
Ġseren ity
Ġprot agon
Ġkath mandu
Ġh att
Ġwer ew
Ġre is
itor io
Ġoff road
Ġvar iants
Ġbu x
Ġgar field
Ġlor raine
Ġdistribut ed
Ġmot ley
Ġbrid get
Ġr z
Ġw ack
Ġip o
Ġ6 30
Ġcamp an
Ġmeg al
d j
itt i
Ġ190 6
Ġh ulu
Ġke i
2 11
Ġgal v
Ġcurs ive
Ġest udio
c ine
urn a
35 4
Ġg lee
Ġb enson
pr ice
Ġloc o
ina ire
Ġdecl ared
abl ished
b ok
aj ara
Ġnan op
r p
Ġsatisf action
Ġal vin
qu ia
contin ental
Ġadir ond
Ġmin isters
Ġt ights
Ġgoal ie
78 7
Ġtr aces
Ġhol ographic
og g
Ġespec ially
Ġdeterg ent
Ġbal a
Ġmigr ant
Ġar om
Ġdis gu
Ġng c
Ġek onom
Ġhorm one
Ġmour inho
Ġcand el
Ġshim ano
ch us
Ġblaz ers
Ġrep ell
ys ports
Ġlav al
ask ar
Ġconfeder ate
Ġand alus
Ġang ler
Ġbog or
ew heel
Ġcoll ier
Ġbreast ed
Ġnat ura
Ġpres cott
Ġ7 000
Ġvent il
Ġstef ano
Ġforbid den
Ġmad ele
Ġpad dy
Ġalcohol ic
Ġmovie fone
Ġriv et
Ġcu er
Ġgem stones
Ġher alds
Ġth un
kn ow
Ġj az
Ġwat ford
Ġgi ac
Ġk arm
Ġplay house
35 9
Ġabhis hek
Ġpol es
Ġsky d
Ġpar ac
Ġkir ch
Ġcro ix
Ġg aw
Ġscar lett
Ġy ell
Ġhaw t
Ġis bn
Ġsur fer
Ġsuit case
Ġg orn
Ġrepl aces
Ġs ains
Ġmil ford
27 3
Ġmil o
he en
ess es
Ġquarter back
Ġf au
Ġser r
Ġquint a
ie i
Ġwill y
Ġvacc inated
Ġn ara
Ġso ar
33 9
Ġe isen
oc oc
Ġtob ago
Ġplay bill
Ġpal ermo
an um
Ġn uggets
w arts
Ġent ries
18 2
Ġ18 50
ump y
Ġbud s
re ct
Ġpied mont
Ġalo ha
Ġhum ano
b aby
Ġar oma
Ġpun to
Ġc itta
Ġm ers
Ġz x
Ġ190 3
ost ic
Ġan tr
Ġv err
agent ur
Ġsuther land
14 1
Ġw aver
Ġcut off
Ġk ons
Ġsin ks
p ain
ze j
bo ats
co y
Ġcock pit
Ġimpe ach
Ġv ett
Ġf iona
Ġsl ap
Ġv ases
Ġcec il
Ġacup uncture
Ġshe ds
Ġl ique
Ġprom pt
Ġf and
Ġtp u
Ġgren ada
Ġret ain
Ġgeorg ette
Ġre eves
Ġarc adia
Ġdr ills
Ġche ating
Ġhorn et
Ġone india
Ġstop per
Ġvr bo
er in
Ġken yan
Ġ22 2
Ġend game
Ġkay aking
ol n
Ġs ange
Ġrem ington
Ġtop png
Ġsimpl icity
Ġqual ifying
Ġaff ects
Ġhein rich
Ġobes ity
c ial
v ement
ey es
ios is
Ġfor rent
Ġpo inter
Ġequ ipe
Ġassort ment
Ġent ering
Ġexperi enced
Ġcast ello
Ġz ad
Ġmorm on
Ġbal och
Ġbil let
Ġch ipp
Ġste er
Ġjoa quin
Ġfr esco
Ġpal acio
Ġ17 2
Ġax el
Ġmagnes ium
Ġgar eth
Ġbar code
Ġgre gg
Ġwitch es
Ġ7 60
Ġtaekw ondo
erv ices
Ġpart ido
kre is
Ġun n
Ġ40 1
Ġbom bs
Ġcont ents
Ġsch er
lin ary
ow i
Ġsl oth
Ġnumer ology
Ġk ild
Ġbin ocular
Ġm unn
ee b
Ġdiabet ic
Ġtrib utes
Ġstal in
80 2
ie j
Ġbr in
he in
Ġhar le
Ġanne x
Ġsc ans
Ġka ise
Ġinfect ious
Ġsch le
Ġempower ment
Ġt age
Ġpr iya
Ġhal le
Ġhand ball
Ġclar ity
Ġma as
Ġno ord
24 6
ak ka
Ġunc ategor
mov ie
Ġst ry
Ġsch r
Ġstrat ford
Ġrack et
Ġindivid uals
Ġstr uck
Ġhelp ful
Ġans ichts
urg ical
Ġf ife
Ġvel oc
Ġprez ent
Ġn oun
ter o
Ġvar an
Ġenf ants
ou la
Ġar am
Ġhid ing
Ġz il
Ġc orm
Ġjew s
Ġrak hi
Ġcontin ent
Ġassass ination
Ġvia jes
Ġr ory
Ġgroc eries
Ġstrand ed
Ġnatur als
Ġhandle bar
Ġsalv atore
Ġest ablished
Ġprelim inary
80 6
Ġkom m
velop ment
Ġst ero
Ġpoint ed
t our
Ġsan ctions
Ġinflamm ation
az aki
ey n
Ġband a
Ġbuy uk
og h
pat rick
v ag
Ġbol s
Ġen z
Ġrefer ee
Ġsh yam
Ġ ict
Ġsuper f
Ġlaur ie
Ġprof il
Ġci encia
Ġrevel ation
Ġde hydr
aw w
Ġm ha
Ġprest igious
Ġperf umes
od erm
Ġwille m
[...]
