{"<s>":0,"<pad>":1,"</s>":2,"<unk>":3,"<mask>":4,"\"":5,"$":6,"%":7,"&":8,"'":9,"*":10,",":11,".":12,"/":13,"0":14,"1":15,"2":16,"3":17,"4":18,"5":19,"6":20,"7":21,"8":22,"9":23,"<":24,">":25,"@":26,"^":27,"a":28,"b":29,"c":30,"d":31,"e":32,"f":33,"g":34,"h":35,"i":36,"j":37,"k":38,"l":39,"m":40,"n":41,"o":42,"p":43,"q":44,"r":45,"s":46,"t":47,"u":48,"v":49,"w":50,"x":51,"y":52,"z":53,"Ġ":54,"in":55,"Ġs":56,"er":57,"Ġa":58,"Ġt":59,"Ġc":60,"on":61,"Ġp":62,"es":63,"Ġb":64,"an":65,"or":66,"Ġm":67,"ar":68,"Ġf":69,"en":70,"al":71,"Ġd":72,"at":73,"re":74,"Ġw":75,"Ġh":76,"it":77,"Ġl":78,"ic":79,"is":80,"Ġg":81,"ing":82,"om":83,"ou":84,"Ġn":85,"el":86,"he":87,"as":88,"Ġo":89,"Ġr":90,"Ġin":91,"le":92,"ed":93,"il":94,"ol":95,"et":96,"ion":97,"ot":98,"Ġthe":99,"am":100,"Ġan":101,"ac":102,"os":103,"Ġv":104,"ad":105,"Ġk":106,"us":107,"Ġst":108,"ur":109,"Ġe":110,"Ġof":111,"ent":112,"id":113,"un":114,"Ġre":115,"Ġ1":116,"ch":117,"ow":118,"ig":119,"ag":120,"im":121,"ir":122,"Ġto":123,"Ġ2":124,"ter":125,"ap":126,"Ġj":127,"Ġand":128,"Ġfor":129,"Ġ\"":130,"Ġpr":131,"ay":132,"Ġon":133,"ew":134,"od":135,"iv":136,"Ġy":137,"ct":138,"Ġch":139,"um":140,"est":141,"Ġde":142,"and":143,"ers":144,"ia":145,"ul":146,"op":147,"Ġ&":148,"Ġsh":149,"em":150,"Ġtr":151,"ut":152,"Ġar":153,"og":154,"ation":155,"ip":156,"com":157,"oc":158,"ab":159,"all":160,"ine":161,"ak":162,"art":163,"ess":164,"ov":165,"Ġ20":166,"out":167,"'s":168,"ist":169,"qu":170,"ub":171,"st":172,"Ġnew":173,"if":174,"Ġal":175,"Ġsp":176,"ts":177,"av":178,"Ġth":179,"Ġfr":180,"ie":181,"Ġph":182,"ce":183,"th":184,"Ġby":185,"ard":186,"our":187,"ok":188,"ill":189,"up":190,"ith":191,"ack":192,"igh":193,"ain":194,"Ġbr":195,"ik":196,"Ġbl":197,"ant":198,"Ġbe":199,"Ġcl":200,"Ġcom":201,"Ġat":202,"oun":203,"Ġ3":204,"Ġcon":205,"Ġse":206,"ies":207,"Ġwith":208,"Ġwh":209,"tr":210,"ect":211,"Ġpl":212,"Ġun":213,"ib":214,"ate":215,"ide":216,"ian":217,"az":218,"Ġle":219,"Ġbo":220,"Ġgr":221,"age":222,"ity":223,"ell":224,"Ġam":225,"00":226,"Ġfl":227,"ob":228,"ure":229,"ang":230,"Ġis":231,"Ġen":232,"ree":233,"Ġphot":234,"Ġdr":235,"ud":236,"ick":237,"Ġex":238,"ast":239,"Ġim":240,"Ġart":241,"pl":242,"ort":243,"ive":244,"se":245,"own":246,"ock":247,"ood":248,"ale":249,"ore":250,"end":251,"Ġ4":252,"ial":253,"Ġmar":254,"Ġcol":255,"Ġz":256,"ice":257,"ge":258,"Ġsc":259,"Ġqu":260,"Ġbu":261,"Ġcar":262,"Ġcr":263,"Ġ5":264,"Ġte":265,"aw":266,"Ġhe":267,"iz":268,"ail":269,"ish":270,"line":271,"Ġnews":272,"ver":273,"Ġwor":274,"ass":275,"ah":276,"Ġ202":277,"Ġtw":278,"Ġas":279,"ans":280,"ign":281,"io":282,"Ġor":283,"ight":284,"ach":285,"af":286,"ey":287,"Ġel":288,"vi":289,"int":290,"ost":291,"ong":292,"ld":293,"Ġind":294,"Ġi":295,"Ġfree":296,"pr":297,"Ġonline":298,"Ġdes":299,"uc":300,"Ġad":301,"ue":302,"ind":303,"ly":304,"ee":305,"Ġco":306,"Ġne":307,"ath":308,"oad":309,"Ġ201":310,"ite":311,"Ġ19":312,"ment":313,"Ġfrom":314,"Ġpar":315,"ire":316,"ube":317,"ert":318,"Ġme":319,"ust":320,"Ġyout":321,"Ġap":322,"ary":323,"ome":324,"ug":325,"Ġus":326,"ash":327,"Ġyoutube":328,"eb":329,"Ġab":330,"Ġac":331,"Ġ6":332,"ens":333,"ro":334,"ry":335,"ai":336,"itter":337,"of":338,"Ġman":339,"one":340,"view":341,"Ġla":342,"ict":343,"Ġoff":344,"ord":345,"ogr":346,"Ġgu":347,"uct":348,"able":349,"Ġ9":350,"ace":351,"ound":352,"Ġit":353,"aph":354,"ys":355,"ond":356,"ics":357,"act":358,"Ġwall":359,"Ġdown":360,"ear":361,"Ġ2021":362,"Ġx":363,"Ġres":364,"Ġtwitter":365,"ks":366,"ng":367,"Ġ7":368,"Ġup":369,"ings":370,"amp":371,"ile":372,"ake":373,"old":374,"land":375,"Ġdis":376,"man":377,"are":378,"ber":379,"ets":380,"Ġmus":381,"Ġcan":382,"ors":383,"Ġbest":384,"ery":385,"te":386,"uk":387,"ep":388,"cl":389,"air":390,"ich":391,"Ġ10":392,"ous":393,"ory":394,"ina":395,"Ġser":396,"ff":397,"ical":398,"ool":399,"Ġwat":400,"ions":401,"Ġsale":402,"Ġbuy":403,"Ġcomp":404,"Ġphotos":405,"Ġhow":406,"Ġbook":407,"Ġsch":408,"ons":409,"Ġro":410,"Ġsup":411,"Ġed":412,"ild":413,"ern":414,"Ġgl":415,"Ġ8":416,"ra":417,"ec":418,"load":419,"Ġreview":420,"les":421,"ton":422,"Ġgre":423,"ult":424,"Ġpre":425,"ages":426,"Ġout":427,"Ġhot":428,"ook":429,"Ġop":430,"Ġmod":431,"Ġtim":432,"Ġdesign":433,"Ġdo":434,"Ġdownload":435,"Ġ\",":436,"Ġem":437,"Ġinter":438,"Ġpng":439,"Ġdi":440,"Ġpos":441,"oth":442,"ame":443,"Ġall":444,"Ġamaz":445,"Ġsk":446,"Ġher":447,"Ġhome":448,"Ġpart":449,"ier":450,"aper":451,"Ġyou":452,"Ġsw":453,"Ġred":454,"ix":455,"ouse":456,"gr":457,"ade":458,"ance":459,"Ġmed":460,"ence":461,"Ġcomm":462,"sh":463,"ograph":464,"Ġbar":465,"ase":466,"ount":467,"Ġamazon":468,"Ġmy":469,"Ġper":470,"anc":471,"Ġrec":472,"ica":473,"att":474,"Ġstr":475,"Ġche":476,"Ġ@":477,"als":478,"Ġtop":479,"Ġmon":480,"Ġaf":481,"iss":482,"ustr":483,"Ġcolle":484,"Ġyour":485,"Ġblack":486,"orn":487,"ve":488,"port":489,"Ġwe":490,"ank":491,"ower":492,"Ġjo":493,"ition":494,"ures":495,"Ġtrans":496,"co":497,"Ġsy":498,"Ġcent":499,"Ġsm":500,"Ġpol":501,"per":502,"ents":503,"Ġmin":504,"orm":505,"Ġwallp":506,"Ġvide":507,"els":508,"aj":509,"ays":510,"ated":511,"Ġdel":512,"Ġdec":513,"ife":514,"Ġworld":515,"Ġ*":516,"Ġ0":517,"Ġarch":518,"ters":519,"Ġmag":520,"au":521,"Ġshop":522,"der":523,"Ġhigh":524,"ri":525,"oss":526,"day":527,"Ġaut":528,"ne":529,"Ġimages":530,"oll":531,"olog":532,"Ġcre":533,"ational":534,"Ġno":535,"ivers":536,"gh":537,"Ġ12":538,"bo":539,"ph":540,"ork":541,"Ġprod":542,"Ġag":543,"urn":544,"ates":545,"ull":546,"Ġpict":547,"Ġmov":548,"pt":549,"ble":550,"ins":551,"Ġeng":552,"Ġare":553,"Ġmen":554,"ations":555,"Ġact":556,"orts":557,"Ġwhat":558,"Ġev":559,"irt":560,"Ġpe":561,"ann":562,"Ġwal":563,"Ġphoto":564,"Ġschool":565,"Ġback":566,"ual":567,"Ġwom":568,"Ġchar":569,"ley":570,"ink":571,"ium":572,"enc":573,"Ġwar":574,"ave":575,"Ġstar":576,"Ġkn":577,"Ġmem":578,"Ġmet":579,"Ġnot":580,"umb":581,"app":582,"ark":583,"Ġstud":584,"ove":585,"ax":586,"press":587,"Ġwik":588,"ere":589,"ung":590,"ise":591,"iel":592,"ike":593,"ting":594,"Ġair":595,"oot":596,"ames":597,"Ġstock":598,"its":599,"Ġsl":600,"20":601,"Ġgo":602,"ana":603,"Ġchr":604,"Ġ$":605,"enn":606,"let":607,"Ġblog":608,"Ġfam":609,"Ġhouse":610,"Ġpat":611,"Ġbir":612,"Ġinf":613,"ose":614,"Ġday":615,"Ġproduct":616,"aur":617,"Ġacc":618,"Ġmusic":619,"Ġprint":620,"und":621,"Ġinst":622,"Ġanim":623,"Ġste":624,"Ġu":625,"Ġset":626,"Ġins":627,"que":628,"Ġmap":629,"Ġpro":630,"over":631,"Ġlog":632,"Ġmat":633,"Ġvi":634,"ement":635,"yl":636,"Ġabout":637,"ont":638,"Ġreal":639,"ille":640,"50":641,"ric":642,"mer":643,"Ġstre":644,"Ġcity":645,"eng":646,"ck":647,"Ġsal":648,"10":649,"par":650,"Ġclip":651,"Ġplay":652,"ices":653,"Ġhand":654,"ott":655,"ple":656,"Ġwhite":657,"ding":658,"Ġcollect":659,"Ġsur":660,"ines":661,"Ġbus":662,"ari":663,"Ġrest":664,"Ġfir":665,"Ġ18":666,"itch":667,"Ġcal":668,"Ġbre":669,"Ġgen":670,"eg":671,"outh":672,"aut":673,"oon":674,"Ġvideo":675,"ives":676,"ital":677,"Ġbas":678,"ily":679,"ubl":680,"Ġwallpaper":681,"Ġnor":682,"Ġreviews":683,"Ġmark":684,"ps":685,"arm":686,"Ġclass":687,"Ġhist":688,"Ġhotel":689,"Ġwed":690,"Ġant":691,"Ġsu":692,"Ġpark":693,"Ġindia":694,"cr":695,"Ġmas":696,"ane":697,"Ġes":698,"ha":699,"ats":700,"Ġphotograph":701,"net":702,"Ġthis":703,"Ġwill":704,"Ġfe":705,"Ġone":706,"Ġpage":707,"itt":708,"Ġover":709,"Ġamer":710,"edia":711,"Ġcap":712,"Ġsol":713,"Ġprice":714,"Ġcard":715,"Ġbooks":716,"Ġnat":717,"Ġunivers":718,"Ġeb":719,"oy":720,"Ġsil":721,"Ġpain":722,"Ġtrip":723,"Ġfil":724,"Ġwater":725,"Ġelect":726,"Ġcor":727,"Ġpo":728,"Ġval":729,"yle":730,"Ġdisc":731,"Ġest":732,"Ġhar":733,"hn":734,"ball":735,"Ġ%":736,"iver":737,"Ġtrav":738,"ada":739,"irl":740,"Ġquot":741,"Ġlife":742,"Ġsoc":743,"Ġyear":744,"vel":745,"Ġ2020":746,"Ġfin":747,"Ġshe":748,"unn":749,"Ġge":750,"vis":751,"Ġbab":752,"Ġfood":753,"Ġwr":754,"Ġwomen":755,"Ġmot":756,"ids":757,"Ġtour":758,"Ġnet":759,"ology":760,"ara":761,"Ġcont":762,"Ġ11":763,"ata":764,"Ġsports":765,"Ġthat":766,"br":767,"Ġfirst":768,"Ġet":769,"ino":770,"Ġbi":771,"Ġav":772,"Ġgold":773,"ty":774,"Ġwin":775,"Ġafter":776,"Ġide":777,"erm":778,"ough":779,"ator":780,"Ġchina":781,"era":782,"ya":783,"Ġsouth":784,"oor":785,"Ġass":786,"Ġsn":787,"oo":788,"Ġblue":789,"son":790,"uck":791,"dr":792,"Ġhom":793,"Ġtem":794,"Ġvis":795,"arn":796,"ury":797,"ush":798,"ather":799,"Ġserv":800,"Ġhol":801,"Ġtimes":802,"Ġcat":803,"ipp":804,"ited":805,"78":806,"Ġwedding":807,"org":808,"ka":809,"ute":810,"Ġsing":811,"Ġreg":812,"aily":813,"Ġmore":814,"Ġrestaur":815,"Ġwatch":816,"Ġ15":817,"Ġ>":818,"Ġold":819,"Ġic":820,"Ġpost":821,"ism":822,"Ġlist":823,"Ġleg":824,"ron":825,"Ġpa":826,"ds":827,"Ġsec":828,"Ġmil":829,"Ġsign":830,"Ġhd":831,"na":832,"Ġcolor":833,"Ġgard":834,"Ġshow":835,"ject":836,"ories":837,"iness":838,"alth":839,"esh":840,"Ġir":841,"ama":842,"ural":843,"Ġgirl":844,"Ġmal":845,"Ġsong":846,"ange":847,"ese":848,"ene":849,"ope":850,"tern":851,"Ġlib":852,"ating":853,"Ġsim":854,"Ġbed":855,"Ġ200":856,"Ġport":857,"fer":858,"Ġcel":859,"Ġhel":860,"Ġwood":861,"Ġlove":862,"ican":863,"Ġpet":864,"Ġsun":865,"uss":866,"Ġimage":867,"Ġfamily":868,"Ġtravel":869,"Ġpres":870,"Ġang":871,"erc":872,"Ġob":873,"Ġaw":874,"Ġwork":875,"Ġhy":876,"Ġprop":877,"Ġchrist":878,"Ġtre":879,"Ġgame":880,"Ġdig":881,"Ġtech":882,"Ġbut":883,"Ġ100":884,"Ġprin":885,"Ġlogo":886,"Ġill":887,"Ġguide":888,"Ġfoot":889,"Ġquotes":890,"Ġdaily":891,"aft":892,"Ġent":893,"yr":894,"Ġlight":895,"Ġshirt":896,"Ġsan":897,"ips":898,"Ġgreen":899,"Ġrem":900,"Ġtv":901,"Ġpictures":902,"str":903,"Ġcam":904,"Ġpin":905,"eek":906,"Ġlat":907,"Ġ14":908,"Ġca":909,"ux":910,"Ġ16":911,"Ġflick":912,"Ġdecor":913,"me":914,"Ġma":915,"Ġnorth":916,"yn":917,"ca":918,"ants":919,"Ġland":920,"12":921,"oup":922,"ift":923,"Ġmo":924,"Ġbig":925,"Ġarm":926,"Ġep":927,"to":928,"Ġflickr":929,"sc":930,"ique":931,"Ġets":932,"Ġid":933,"erg":934,"Ġdet":935,"Ġkh":936,"ient":937,"Ġbeaut":938,"Ġann":939,"Ġgall":940,"Ġspec":941,"Ġetsy":942,"ourn":943,"ally":944,"Ġso":945,"Ġbusiness":946,"Ġexpl":947,"Ġbel":948,"Ġcle":949,"ebr":950,"Ġvect":951,"Ġever":952,"Ġbaby":953,"Ġpower":954,"oes":955,"ma":956,"Ġcamp":957,"Ġpers":958,"by":959,"ode":960,"ould":961,"hed":962,"ram":963,"Ġlong":964,"Ġq":965,"Ġvint":966,"led":967,"Ġvol":968,"eral":969,"een":970,"ative":971,"Ġpop":972,"Ġeur":973,"Ġdraw":974,"err":975,"Ġrob":976,"Ġget":977,"Ġhealth":978,"Ġvs":979,"Ġideas":980,"ific":981,"Ġsa":982,"Ġalb":983,"Ġpack":984,"Ġsuper":985,"ublic":986,"Ġ13":987,"ional":988,"fl":989,"Ġrestaurant":990,"ja":991,"Ġebay":992,"ield":993,"urg":994,"Ġfac":995,"Ġvintage":996,"Ġprof":997,"Ġ2019":998,"Ġps":999,"ta":1000,"Ġrad":1001,"Ġuniversity":1002,"ible":1003,"Ġrel":1004,"ler":1005,"Ġjust":1006,"11":1007,"Ġdress":1008,"Ġtoys":1009,"Ġtime":1010,"ham":1011,"Ġwho":1012,"Ġclipart":1013,"ason":1014,"yc":1015,"artment":1016,"ights":1017,"xt":1018,"wood":1019,"Ġroad":1020,"Ġjew":1021,"Ġfash":1022,"ior":1023,"Ġfull":1024,"ico":1025,"Ġroy":1026,"Ġsel":1027,"Ġspr":1028,"Ġhead":1029,"Ġcur":1030,"Ġpal":1031,"ones":1032,"Ġgood":1033,"Ġcas":1034,"ner":1035,"Ġmagaz":1036,"Ġbeach":1037,"Ġrep":1038,"any":1039,"apan":1040,"ize":1041,"Ġpic":1042,"Ġinc":1043,"Ġjohn":1044,"ience":1045,"Ġcart":1046,"Ġwest":1047,"ling":1048,"ied":1049,"60":1050,"Ġbet":1051,"ams":1052,"Ġmovie":1053,"ii":1054,"room":1055,"Ġfashion":1056,"Ġgames":1057,"Ġbirth":1058,"Ġlive":1059,"Ġret":1060,"Ġaccess":1061,"ville":1062,"Ġproducts":1063,"Ġda":1064,"ape":1065,"parent":1066,"Ġnational":1067,"Ġbal":1068,"Ġhis":1069,"ox":1070,"30":1071,"Ġbuild":1072,"Ġrent":1073,"Ġread":1074,"Ġgarden":1075,"inal":1076,"Ġmake":1077,"Ġcontr":1078,"Ġhair":1079,"Ġmodel":1080,"ime":1081,"80":1082,"ces":1083,"Ġloc":1084,"Ġrock":1085,"Ġtur":1086,"Ġjourn":1087,"Ġbox":1088,"iving":1089,"ote":1090,"ches":1091,"uction":1092,"Ġcust":1093,"Ġtransparent":1094,"ora":1095,"Ġ30":1096,"pe":1097,"ular":1098,"Ġdu":1099,"hi":1100,"Ġcoun":1101,"Ġmarket":1102,"Ġcommun":1103,"Ġhistory":1104,"stem":1105,"lex":1106,"Ġsum":1107,"Ġcount":1108,"Ġlook":1109,"Ġstore":1110,"ony":1111,"Ġmak":1112,"Ġopen":1113,"ena":1114,"Ġmagazine":1115,"ground":1116,"Ġintern":1117,"Ġmount":1118,"Ġhapp":1119,"40":1120,"Ġww":1121,"ek":1122,"Ġjapan":1123,"Ġmc":1124,"ody":1125,"Ġ17":1126,"za":1127,"Ġseries":1128,"Ġnow":1129,"ater":1130,"ars":1131,"Ġexp":1132,"iet":1133,"Ġpan":1134,"Ġperf":1135,"Ġchild":1136,"vent":1137,"Ġcustom":1138,"Ġmay":1139,"Ġtumb":1140,"oft":1141,"apers":1142,"Ġthr":1143,"Ġfilm":1144,"Ġkids":1145,"Ġdon":1146,"visor":1147,"Ġproject":1148,"ots":1149,"less":1150,"de":1151,"la":1152,"way":1153,"Ġdan":1154,"Ġstyle":1155,"Ġour":1156,"99":1157,"Ġdef":1158,"mart":1159,"Ġfun":1160,"Ġpor":1161,"ney":1162,"Ġuk":1163,"Ġcenter":1164,"ado":1165,"Ġcloth":1166,"Ġtool":1167,"Ġsystem":1168,"ards":1169,"ump":1170,"Ġlar":1171,"Ġsuppl":1172,"Ġec":1173,"amb":1174,"Ġcast":1175,"Ġmid":1176,"'t":1177,"Ġweek":1178,"Ġpicture":1179,"uz":1180,"Ġbag":1181,"Ġstreet":1182,"Ġstate":1183,"Ġillustr":1184,"Ġfish":1185,"une":1186,"Ġking":1187,"Ġtal":1188,"Ġdigital":1189,"Ġfire":1190,"Ġ25":1191,"ities":1192,"Ġdog":1193,"Ġyork":1194,"Ġsub":1195,"Ġroyal":1196,"Ġdist":1197,"Ġ24":1198,"Ġfig":1199,"advisor":1200,"Ġgallery":1201,"ani":1202,"Ġkr":1203,"Ġknow":1204,"tra":1205,"Ġamerican":1206,"Ġwas":1207,"Ġarchives":1208,"Ġaustr":1209,"Ġdep":1210,"Ġcour":1211,"Ġmad":1212,"Ġtripadvisor":1213,"Ġ50":1214,"ida":1215,"Ġposts":1216,"Ġvill":1217,"Ġoffic":1218,"Ġmich":1219,"ura":1220,"Ġapp":1221,"Ġstick":1222,"Ġnov":1223,"Ġphotography":1224,"Ġhard":1225,"ita":1226,"Ġfre":1227,"Ġindian":1228,"Ġposter":1229,"work":1230,"Ġforum":1231,"uf":1232,"ume":1233,"ral":1234,"Ġlet":1235,"ki":1236,"Ġphil":1237,"Ġhas":1238,"Ġorig":1239,"Ġform":1240,"Ġtel":1241,"Ġgreat":1242,"Ġpaper":1243,"ao":1244,"lish":1245,"ows":1246,"Ġhum":1247,"Ġcelebr":1248,"Ġbirthday":1249,"oph":1250,"asy":1251,"Ġclub":1252,"Ġweb":1253,"19":1254,"eth":1255,"Ġcare":1256,"Ġmult":1257,"Ġjack":1258,"xpress":1259,"Ġlo":1260,"15":1261,"uit":1262,"Ġinv":1263,"Ġfootball":1264,"Ġprices":1265,"ij":1266,"Ġwind":1267,"Ġtable":1268,"Ġupd":1269,"Ġty":1270,"Ġje":1271,"Ġfile":1272,"Ġvector":1273,"ends":1274,"ero":1275,"Ġwiki":1276,"Ġcov":1277,"Ġanime":1278,"ini":1279,"gan":1280,"Ġer":1281,"Ġ2018":1282,"Ġlibr":1283,"24":1284,"Ġmiss":1285,"Ġtrain":1286,"Ġwalmart":1287,"ev":1288,"idge":1289,"Ġger":1290,"Ġrom":1291,"aff":1292,"Ġfan":1293,"Ġcons":1294,"Ġteam":1295,"Ġlos":1296,"Ġoffice":1297,"ful":1298,"Ġperson":1299,"Ġmach":1300,"ipe":1301,"Ġalie":1302,"Ġwhy":1303,"Ġtechn":1304,"Ġcost":1305,"Ġaliexpress":1306,"ider":1307,"16":1308,"mm":1309,"Ġstat":1310,"Ġaud":1311,"Ġoutd":1312,"Ġlaw":1313,"Ġisland":1314,"Ġtwo":1315,"ette":1316,"Ġapartment":1317,"Ġenglish":1318,"che":1319,"Ġhave":1320,"Ġgroup":1321,"14":1322,"pg":1323,"oud":1324,"Ġcounty":1325,"Ġtoy":1326,"Ġinternational":1327,"Ġview":1328,"ness":1329,"Ġedition":1330,"Ġ978":1331,"mas":1332,"Ġplan":1333,"arch":1334,"ubble":1335,"go":1336,"uff":1337,"Ġmob":1338,"Ġatt":1339,"Ġstand":1340,"Ġhall":1341,"ival":1342,"lr":1343,"Ġlab":1344,"70":1345,"Ġbrand":1346,"Ġdav":1347,"Ġur":1348,"aly":1349,"18":1350,"ls":1351,"Ġey":1352,"ky":1353,"Ġip":1354,"Ġglob":1355,"Ġcollection":1356,"ople":1357,"ren":1358,"Ġflor":1359,"ails":1360,"Ġkey":1361,"Ġpur":1362,"Ġtom":1363,"Ġneed":1364,"25":1365,"Ġaustral":1366,"Ġref":1367,"Ġpress":1368,"ga":1369,"ua":1370,"Ġmost":1371,"ala":1372,"Ġmodern":1373,"ford":1374,"Ġshoes":1375,"Ġkitch":1376,"Ġseason":1377,"Ġparty":1378,"13":1379,"000":1380,"ther":1381,"Ġmini":1382,"Ġlead":1383,"ze":1384,"ien":1385,"Ġaccessories":1386,"Ġhor":1387,"Ġson":1388,"agram":1389,"adem":1390,"Ġunited":1391,"Ġroom":1392,"ember":1393,"Ġjewel":1394,"Ġjournal":1395,"Ġbackground":1396,"Ġnum":1397,"Ġstep":1398,"Ġkit":1399,"Ġway":1400,"Ġhomes":1401,"ping":1402,"Ġmp":1403,"Ġmic":1404,"Ġben":1405,"Ġmill":1406,"Ġcover":1407,"Ġmade":1408,"Ġheart":1409,"Ġmac":1410,"irect":1411,"other":1412,"Ġnight":1413,"Ġwallpapers":1414,"Ġpd":1415,"ident":1416,"Ġspe":1417,"Ġlow":1418,"Ġequ":1419,"ano":1420,"Ġprot":1421,"Ġgrand":1422,"Ġbh":1423,"click":1424,"ution":1425,"Ġcollege":1426,"Ġsam":1427,"Ġpeople":1428,"be":1429,"Ġball":1430,"Ġglass":1431,"Ġna":1432,"ware":1433,"Ġdin":1434,"ba":1435,"Ġusa":1436,"Ġunder":1437,"Ġicon":1438,"Ġmuse":1439,"Ġdur":1440,"Ġlatest":1441,"Ġband":1442,"Ġdem":1443,"lin":1444,"Ġevery":1445,"Ġpropert":1446,"Ġpicclick":1447,"Ġprem":1448,"Ġkitchen":1449,"ago":1450,"olf":1451,"Ġho":1452,"ison":1453,"Ġtrad":1454,"ms":1455,"Ġve":1456,"play":1457,"ota":1458,"ues":1459,"por":1460,"Ġnear":1461,"Ġrecord":1462,"Ġcheap":1463,"Ġow":1464,"Ġindustr":1465,"Ġline":1466,"Ġtatt":1467,"Ġtest":1468,"Ġpublic":1469,"Ġprom":1470,"Ġpot":1471,"Ġswe":1472,"Ġsqu":1473,"Ġvideos":1474,"ci":1475,"Ġhal":1476,"ely":1477,"Ġhappy":1478,"Ġfurn":1479,"ists":1480,"Ġend":1481,"Ġlearn":1482,"ona":1483,"Ġsilver":1484,"Ġdou":1485,"Ġcase":1486,"Ġredb":1487,"Ġfind":1488,"Ġmer":1489,"Ġber":1490,"ality":1491,"Ġprogr":1492,"Ġcy":1493,"Ġmu":1494,"bs":1495,"Ġparts":1496,"Ġmir":1497,"Ġtumblr":1498,"Ġbat":1499,"Ġlibrary":1500,"red":1501,"Ġvin":1502,"itect":1503,"Ġspot":1504,"erv":1505,"iam":1506,"Ġgift":1507,"Ġjewelry":1508,"Ġgar":1509,"Ġdirect":1510,"ald":1511,"Ġvan":1512,"Ġpara":1513,"Ġear":1514,"Ġcommunity":1515,"Ġplant":1516,"Ġol":1517,"ington":1518,"Ġspecial":1519,"Ġmor":1520,"Ġredbubble":1521,"Ġmart":1522,"Ġsand":1523,"Ġlas":1524,"Ġrev":1525,"Ġcut":1526,"uel":1527,"Ġfri":1528,"ger":1529,"iy":1530,"ondon":1531,"Ġwild":1532,"Ġil":1533,"ify":1534,"Ġtoday":1535,"Ġkar":1536,"top":1537,"Ġmotor":1538,"ola":1539,"Ġinsp":1540,"ews":1541,"ho":1542,"Ġsocial":1543,"bl":1544,"Ġpainting":1545,"Ġhotels":1546,"Ġbay":1547,"Ġfarm":1548,"Ġdevi":1549,"17":1550,"read":1551,"Ġsound":1552,"ature":1553,"reen":1554,"Ġalbum":1555,"wor":1556,"Ġsle":1557,"Ġlim":1558,"iff":1559,"Ġsteel":1560,"Ġcharac":1561,"osp":1562,"Ġfall":1563,"Ġbreak":1564,"Ġreport":1565,"ering":1566,"unny":1567,"Ġsaf":1568,"Ġused":1569,"iqu":1570,"Ġphone":1571,"Ġlike":1572,"cer":1573,"han":1574,"Ġ>>":1575,"Ġmuseum":1576,"Ġsmall":1577,"Ġbath":1578,"urs":1579,"Ġ22":1580,"urch":1581,"Ġacadem":1582,"Ġautom":1583,"Ġmetal":1584,"Ġcult":1585,"Ġlake":1586,"Ġsize":1587,"iture":1588,"90":1589,"Ġver":1590,"Ġmedia":1591,"Ġvisit":1592,"Ġfound":1593,"inn":1594,"Ġden":1595,"Ġgal":1596,"Ġthan":1597,"Ġdev":1598,"Ġbul":1599,"Ġlondon":1600,"Ġcall":1601,"Ġmel":1602,"ym":1603,"imedia":1604,"Ġworks":1605,"Ġstory":1606,"Ġbody":1607,"Ġ40":1608,"ency":1609,"atic":1610,"Ġcross":1611,"Ġscience":1612,"Ġcos":1613,"Ġsport":1614,"akes":1615,"Ġsar":1616,"ula":1617,"Ġarr":1618,"agon":1619,"Ġinform":1620,"Ġarchitect":1621,"form":1622,"ret":1623,"Ġgraph":1624,"Ġdom":1625,"antart":1626,"unch":1627,"Ġriver":1628,"Ġestate":1629,"ious":1630,"Ġcab":1631,"Ġlot":1632,"Ġque":1633,"iful":1634,"Ġorgan":1635,"ography":1636,"Ġeduc":1637,"iger":1638,"Ġengine":1639,"Ġbad":1640,"oto":1641,"Ġofficial":1642,"Ġbeh":1643,"Ġboard":1644,"Ġmanag":1645,"Ġgod":1646,"Ġvac":1647,"Ġpaint":1648,"board":1649,"ett":1650,"Ġother":1651,"Ġnumber":1652,"Ġcir":1653,"Ġwhe":1654,"cs":1655,"Ġha":1656,"Ġoriginal":1657,"Ġgerman":1658,"ains":1659,"Ġdie":1660,"Ġut":1661,"Ġtown":1662,"Ġsoft":1663,"gg":1664,"Ġconc":1665,"Ġdeviantart":1666,"Ġfurniture":1667,"ility":1668,"Ġmax":1669,"Ġfest":1670,"Ġeast":1671,"Ġra":1672,"Ġ2017":1673,"Ġcommons":1674,"Ġclothing":1675,"ft":1676,"ized":1677,"ister":1678,"Ġcup":1679,"Ġliving":1680,"Ġak":1681,"po":1682,"Ġveg":1683,"icle":1684,"Ġstream":1685,"Ġhon":1686,"Ġbeautiful":1687,"Ġvir":1688,"cess":1689,"Ġcook":1690,"cast":1691,"ato":1692,"75":1693,"Ġbrit":1694,"omb":1695,"ias":1696,"Ġros":1697,"Ġcompany":1698,"Ġny":1699,"velop":1700,"Ġangel":1701,"ills":1702,"35":1703,"Ġban":1704,"ios":1705,"Ġpie":1706,"Ġoil":1707,"cel":1708,"uary":1709,"Ġwikimedia":1710,"Ġmobile":1711,"Ġage":1712,"Ġpink":1713,"Ġexplore":1714,"earch":1715,"Ġtar":1716,"65":1717,"Ġchurch":1718,"Ġsold":1719,"ella":1720,"Ġglobal":1721,"Ġpod":1722,"Ġlux":1723,"Ġcop":1724,"arth":1725,"Ġwalk":1726,"Ġwel":1727,"Ġke":1728,"ael":1729,"Ġfab":1730,"Ġlitt":1731,"Ġtempl":1732,"Ġinto":1733,"ides":1734,"back":1735,"ench":1736,"Ġtrail":1737,"Ġdistr":1738,"Ġclassic":1739,"Ġdrawing":1740,"Ġsat":1741,"Ġlin":1742,"Ġsv":1743,"Ġservice":1744,"22":1745,"aint":1746,"Ġnav":1747,"ugh":1748,"amm":1749,"Ġwww":1750,"Ġbol":1751,"Ġsummer":1752,"Ġint":1753,"Ġthings":1754,"Ġgh":1755,"Ġsant":1756,"field":1757,"Ġmur":1758,"Ġnatural":1759,"Ġinstagram":1760,"Ġarts":1761,"Ġul":1762,"cc":1763,"oz":1764,"ores":1765,"astic":1766,"Ġpdf":1767,"ief":1768,"Ġcond":1769,"Ġtor":1770,"Ġjul":1771,"Ġdre":1772,"Ġpass":1773,"Ġhistor":1774,"Ġface":1775,"Ġvict":1776,"Ġgi":1777,"Ġyears":1778,"Ġsem":1779,"attle":1780,"Ġsearch":1781,"cept":1782,"Ġchamp":1783,"craft":1784,"Ġexpress":1785,"Ġresearch":1786,"Ġund":1787,"ven":1788,"Ġsen":1789,"Ġcovid":1790,"Ġlad":1791,"aces":1792,"iday":1793,"Ġeff":1794,"Ġtools":1795,"onom":1796,"Ġsee":1797,"Ġrele":1798,"Ġchristmas":1799,"Ġagain":1800,"ex":1801,"het":1802,"Ġ21":1803,"house":1804,"Ġcartoon":1805,"Ġtheir":1806,"Ġconn":1807,"Ġfranc":1808,"Ġaz":1809,"use":1810,"Ġstart":1811,"Ġlittle":1812,"Ġdevelop":1813,"Ġamerica":1814,"Ġtree":1815,"Ġshar":1816,"sw":1817,"Ġprov":1818,"Ġmom":1819,"Ġruss":1820,"95":1821,"Ġeurope":1822,"Ġlocal":1823,"Ġmeet":1824,"Ġwash":1825,"try":1826,"Ġfut":1827,"Ġbrown":1828,"Ġter":1829,"andom":1830,"Ġname":1831,"ague":1832,"Ġmah":1833,"ati":1834,"Ġhind":1835,"Ġmachine":1836,"Ġ60":1837,"hip":1838,"orial":1839,"Ġmenu":1840,"Ġnon":1841,"ke":1842,"Ġwhen":1843,"da":1844,"Ġhere":1845,"Ġfit":1846,"Ġelectron":1847,"Ġath":1848,"21":1849,"Ġits":1850,"Ġist":1851,"roid":1852,"ection":1853,"Ġbur":1854,"Ġbuilding":1855,"Ġtrib":1856,"Ġrich":1857,"ika":1858,"Ġif":1859,"res":1860,"oles":1861,"get":1862,"ae":1863,"Ġuse":1864,"ites":1865,"Ġcoff":1866,"Ġles":1867,"Ġfem":1868,"Ġmex":1869,"come":1870,"Ġaustralia":1871,"ali":1872,"Ġepis":1873,"Ġteach":1874,"ellow":1875,"we":1876,"Ġmovies":1877,"bc":1878,"li":1879,"ko":1880,"Ġwa":1881,"aster":1882,"Ġboy":1883,"Ġtum":1884,"Ġcer":1885,"Ġtext":1886,"Ġpen":1887,"Ġfa":1888,"ender":1889,"key":1890,"ument":1891,"Ġdark":1892,"Ġvers":1893,"Ġgun":1894,"Ġoh":1895,"Ġbill":1896,"Ġ2016":1897,"ule":1898,"Ġflower":1899,"vas":1900,"Ġlou":1901,"Ġservices":1902,"33":1903,"Ġcars":1904,"Ġquality":1905,"fr":1906,"Ġbeauty":1907,"Ġprints":1908,"acion":1909,"aker":1910,"Ġder":1911,"Ġspace":1912,"Ġshould":1913,"den":1914,"Ġchildren":1915,"Ġrac":1916,"Ġneck":1917,"Ġtips":1918,"eter":1919,"ji":1920,"book":1921,"Ġring":1922,"Ġos":1923,"45":1924,"ket":1925,"Ġlif":1926,"Ġdoc":1927,"Ġka":1928,"Ġinn":1929,"jpg":1930,"Ġshort":1931,"Ġsingle":1932,"lo":1933,"Ġexper":1934,"Ġcry":1935,"Ġmont":1936,"ros":1937,"Ġround":1938,"Ġenc":1939,"Ġcu":1940,"Ġproperty":1941,"Ġscr":1942,"Ġhun":1943,"owers":1944,"Ġaction":1945,"Ġchic":1946,"Ġcompu":1947,"Ġdiy":1948,"Ġroll":1949,"Ġfunny":1950,"aya":1951,"Ġaff":1952,"Ġfar":1953,"Ġbud":1954,"Ġsky":1955,"Ġartist":1956,"Ġdesigns":1957,"Ġradio":1958,"Ġmix":1959,"atch":1960,"Ġcand":1961,"Ġlast":1962,"acy":1963,"itar":1964,"eep":1965,"Ġgirls":1966,"Ġled":1967,"Ġtex":1968,"ycle":1969,"Ġelectric":1970,"Ġtit":1971,"Ġactiv":1972,"ship":1973,"Ġcoll":1974,"oke":1975,"Ġspring":1976,"Ġhuman":1977,"Ġdest":1978,"vers":1979,"Ġhelp":1980,"88":1981,"burg":1982,"Ġfact":1983,"Ġstudio":1984,"Ġdavid":1985,"Ġmeme":1986,"Ġoz":1987,"Ġcoffee":1988,"dle":1989,"Ġeasy":1990,"Ġpaul":1991,"Ġram":1992,"td":1993,"Ġimp":1994,"Ġprim":1995,"gy":1996,"Ġpast":1997,"Ġok":1998,"Ġlisten":1999,"Ġgov":2000,"aba":2001,"itz":2002,"Ġrecipe":2003,"bor":2004,"iety":2005,"my":2006,"Ġhu":2007,"Ġdiv":2008,"Ġcool":2009,"Ġbow":2010,"Ġtattoo":2011,"Ġinformation":2012,"Ġ35":2013,"Ġkind":2014,"iter":2015,"64":2016,"Ġpad":2017,"Ġcute":2018,"Ġhous":2019,"Ġoct":2020,"ban":2021,"Ġsays":2022,"oul":2023,"Ġ23":2024,"ih":2025,"met":2026,"tery":2027,"Ġmean":2028,"Ġhold":2029,"Ġappl":2030,"Ġhob":2031,"ude":2032,"Ġlarge":2033,"isc":2034,"Ġalex":2035,"Ġdesk":2036,"Ġfront":2037,"Ġod":2038,"Ġven":2039,"col":2040,"Ġgif":2041,"Ġsus":2042,"Ġfair":2043,"ufact":2044,"ops":2045,"Ġtake":2046,"Ġdata":2047,"Ġcell":2048,"Ġfine":2049,"Ġtam":2050,"imate":2051,"Ġwoman":2052,"nes":2053,"Ġbedroom":2054,"Ġmanufact":2055,"Ġii":2056,"Ġmerc":2057,"Ġterr":2058,"nam":2059,"Ġcontrol":2060,"her":2061,"Ġcards":2062,"unk":2063,"Ġauth":2064,"Ġwell":2065,"ental":2066,"Ġconf":2067,"Ġgam":2068,"mark":2069,"Ġthree":2070,"azz":2071,"Ġess":2072,"Ġdif":2073,"Ġsea":2074,"va":2075,"mp":2076,"Ġself":2077,"Ġbang":2078,"Ġext":2079,"oom":2080,"rica":2081,"lywood":2082,"Ġcirc":2083,"Ġsay":2084,"Ġsav":2085,"Ġroyalty":2086,"Ġstation":2087,"Ġmemes":2088,"Ġapartments":2089,"Ġsin":2090,"23":2091,"Ġot":2092,"ebook":2093,"Ġcanada":2094,"anda":2095,"Ġmass":2096,"head":2097,"Ġfrench":2098,"Ġjan":2099,"28":2100,"Ġguard":2101,"Ġnature":2102,"ipt":2103,"Ġbank":2104,"oci":2105,"Ġjob":2106,"Ġadv":2107,"Ġfigure":2108,"ense":2109,"Ġstates":2110,"Ġnetwork":2111,"Ġproc":2112,"Ġlov":2113,"Ġoutdoor":2114,"Ġcanvas":2115,"Ġrose":2116,"ction":2117,"Ġvo":2118,"Ġ199":2119,"Ġposters":2120,"Ġyellow":2121,"Ġcountry":2122,"Ġtu":2123,"68":2124,"Ġcorn":2125,"berg":2126,"emon":2127,"Ġesp":2128,"Ġlang":2129,"zy":2130,"Ġva":2131,"Ġturn":2132,"Ġsecond":2133,"Ġtrack":2134,"Ġthrough":2135,"Ġll":2136,"Ġfrance":2137,"Ġadvent":2138,"Ġcd":2139,"Ġdeath":2140,"Ġsupport":2141,"ania":2142,"ston":2143,"eds":2144,"Ġcho":2145,"Ġopt":2146,"Ġgener":2147,"Ġepisode":2148,"Ġsyn":2149,"Ġrail":2150,"Ġdouble":2151,"Ġpolice":2152,"off":2153,"Ġko":2154,"mb":2155,"Ġdoes":2156,"Ġgas":2157,"Ġauto":2158,"Ġ28":2159,"Ġflag":2160,"jo":2161,"Ġstudy":2162,"Ġdh":2163,"Ġlu":2164,"Ġprofess":2165,"iting":2166,"Ġclean":2167,"Ġpersonal":2168,"Ġwinter":2169,"ged":2170,"Ġju":2171,"ror":2172,"dy":2173,"gu":2174,"Ġdisney":2175,"Ġren":2176,"Ġwhere":2177,"Ġfly":2178,"hone":2179,"Ġdead":2180,"Ġmedium":2181,"Ġchap":2182,"Ġrain":2183,"Ġfort":2184,"Ġcharacter":2185,"illa":2186,"Ġfour":2187,"ference":2188,"iers":2189,"Ġonly":2190,"Ġleague":2191,"Ġblogs":2192,"gin":2193,"Ġevent":2194,"Ġfestival":2195,"Ġsome":2196,"Ġom":2197,"Ġjapanese":2198,"wa":2199,"ments":2200,"Ġskin":2201,"Ġtruck":2202,"Ġanimal":2203,"Ġarea":2204,"Ġ2015":2205,"Ġwire":2206,"orge":2207,"Ġshopping":2208,"Ġmls":2209,"pa":2210,"Ġpak":2211,"png":2212,"Ġinch":2213,"ening":2214,"Ġ00":2215,"ersey":2216,"bon":2217,"pro":2218,"Ġcentral":2219,"Ġside":2220,"77":2221,"Ġeducation":2222,"ander":2223,"Ġfav":2224,"Ġdoll":2225,"Ġvalley":2226,"Ġga":2227,"Ġhosp":2228,"Ġplus":2229,"Ġmichael":2230,"ibles":2231,"ila":2232,"Ġbike":2233,"epend":2234,"amic":2235,"Ġmountain":2236,"irts":2237,"Ġpc":2238,"Ġduring":2239,"oma":2240,"Ġworth":2241,"Ġmanagement":2242,"Ġmr":2243,"Ġadd":2244,"Ġital":2245,"osh":2246,"Ġpick":2247,"Ġfandom":2248,"Ġluxury":2249,"Ġbon":2250,"Ġgrow":2251,"Ġrepl":2252,"gir":2253,"Ġmedical":2254,"Ġsociety":2255,"ius":2256,"set":2257,"Ġwes":2258,"Ġatl":2259,"Ġnam":2260,"ima":2261,"Ġillustration":2262,"Ġfant":2263,"Ġleather":2264,"Ġemb":2265,"Ġham":2266,"fore":2267,"66":2268,"ims":2269,"Ġdiam":2270,"ivery":2271,"ertain":2272,"ipping":2273,"Ġanal":2274,"Ġsheet":2275,"Ġequip":2276,"Ġassoci":2277,"Ġtag":2278,"Ġba":2279,"Ġrh":2280,"box":2281,"ycl":2282,"Ġyoun":2283,"Ġiss":2284,"Ġfast":2285,"anger":2286,"afe":2287,"istan":2288,"Ġcentre":2289,"ences":2290,"Ġhood":2291,"Ġkl":2292,"Ġindepend":2293,"Ġjames":2294,"Ġconstr":2295,"ults":2296,"Ġbott":2297,"Ġstone":2298,"iano":2299,"48":2300,"Ġmanufactur":2301,"Ġrun":2302,"Ġdeb":2303,"ito":2304,"Ġtak":2305,"Ġsuc":2306,"Ġsongs":2307,"ami":2308,"Ġown":2309,"ole":2310,"oe":2311,"Ġfinal":2312,"ird":2313,"Ġnar":2314,"Ġcalif":2315,"Ġce":2316,"Ġthey":2317,"Ġclos":2318,"Ġjersey":2319,"obe":2320,"Ġaug":2321,"itary":2322,"Ġpoint":2323,"inese":2324,"uts":2325,"Ġreve":2326,"elle":2327,"oria":2328,"Ġash":2329,"Ġice":2330,"Ġmaster":2331,"Ġmang":2332,"Ġinvest":2333,"Ġprofile":2334,"Ġrub":2335,"Ġbasket":2336,"med":2337,"Ġbefore":2338,"Ġcream":2339,"news":2340,"ml":2341,"Ġsi":2342,"Ġdiscount":2343,"je":2344,"Ġsite":2345,"ira":2346,"Ġcaliforn":2347,"ipedia":2348,"Ġhill":2349,"Ġsnow":2350,"ipes":2351,"Ġthom":2352,"ization":2353,"Ġcake":2354,"ouch":2355,"cm":2356,"Ġpolit":2357,"Ġparis":2358,"Ġany":2359,"Ġltd":2360,"Ġtumgir":2361,"27":2362,"Ġspir":2363,"Ġdelivery":2364,"Ġnext":2365,"Ġpresent":2366,"ases":2367,"Ġreturn":2368,"Ġmail":2369,"Ġtraining":2370,"oors":2371,"Ġmust":2372,"Ġhaw":2373,"Ġpattern":2374,"Ġspotify":2375,"Ġchinese":2376,"Ġchicago":2377,"Ġbell":2378,"Ġtexas":2379,"63":2380,"Ġmos":2381,"anch":2382,"Ġplat":2383,"ety":2384,"Ġtm":2385,"Ġnh":2386,"ti":2387,"ny":2388,"Ġsmart":2389,"Ġrare":2390,"tro":2391,"erst":2392,"Ġ70":2393,"dom":2394,"Ġphilipp":2395,"itor":2396,"Ġwine":2397,"Ġeconom":2398,"Ġlock":2399,"Ġmaj":2400,"Ġafrica":2401,"Ġsom":2402,"Ġplace":2403,"Ġdragon":2404,"ming":2405,"Ġmess":2406,"Ġupdated":2407,"Ġchair":2408,"Ġpok":2409,"Ġapple":2410,"Ġcalifornia":2411,"ision":2412,"Ġcollectibles":2413,"Ġfamous":2414,"Ġ27":2415,"ified":2416,"Ġevents":2417,"Ġ90":2418,"Ġgeneral":2419,"mar":2420,"Ġusing":2421,"Ġvinyl":2422,"erial":2423,"Ġgolf":2424,"Ġquest":2425,"ades":2426,"Ġword":2427,"ista":2428,"Ġdeal":2429,"hem":2430,"Ġta":2431,"Ġdid":2432,"Ġfloor":2433,"Ġwikipedia":2434,"Ġtechnology":2435,"Ġjun":2436,"zz":2437,"Ġdrive":2438,"Ġmonth":2439,"ising":2440,"ved":2441,"Ġpix":2442,"gar":2443,"Ġmi":2444,"Ġ198":2445,"iti":2446,"98":2447,"iana":2448,"tor":2449,"Ġdar":2450,"Ġeffect":2451,"Ġchick":2452,"Ġinstr":2453,"Ġsaint":2454,"Ġfur":2455,"Ġaqu":2456,"rew":2457,"Ġenerg":2458,"Ġindones":2459,"Ġbird":2460,"Ġsex":2461,"asi":2462,"Ġdoor":2463,"Ġright":2464,"Ġiphone":2465,"Ġyoung":2466,"Ġprogram":2467,"sa":2468,"Ġapr":2469,"Ġheav":2470,"Ġpu":2471,"Ġbak":2472,"Ġresp":2473,"Ġfriend":2474,"44":2475,"Ġimag":2476,"olution":2477,"Ġearth":2478,"Ġkore":2479,"Ġblock":2480,"Ġsticker":2481,"ni":2482,"Ġmilitary":2483,"Ġcla":2484,"Ġbor":2485,"wing":2486,"ination":2487,"iction":2488,"Ġgot":2489,"Ġinstit":2490,"Ġtreat":2491,"Ġculture":2492,"Ġorder":2493,"Ġbio":2494,"Ġpas":2495,"Ġcin":2496,"oston":2497,"38":2498,"aps":2499,"Ġfund":2500,"Ġ26":2501,"well":2502,"Ġdam":2503,"Ġholiday":2504,"row":2505,"Ġelectronics":2506,"Ġinspir":2507,"hr":2508,"Ġlyr":2509,"Ġcheck":2510,"inger":2511,"Ġspeed":2512,"val":2513,"Ġcoast":2514,"Ġsvg":2515,"chan":2516,"una":2517,"Ġequipment":2518,"Ġandroid":2519,"Ġbattle":2520,"Ġagainst":2521,"Ġrs":2522,"alk":2523,"Ġ80":2524,"reek":2525,"ress":2526,"Ġentertain":2527,"ocol":2528,"aves":2529,"Ġdevelopment":2530,"Ġmagic":2531,"rel":2532,"Ġathlet":2533,"Ġannoun":2534,"Ġcot":2535,"otive":2536,"Ġraj":2537,"ilt":2538,"Ġfeat":2539,"ired":2540,"Ġtan":2541,"Ġlearning":2542,"Ġconnect":2543,"ante":2544,"Ġresort":2545,"Ġplastic":2546,"26":2547,"ario":2548,"light":2549,"Ġlouis":2550,"Ġanti":2551,"lete":2552,"Ġpriv":2553,"yan":2554,"eph":2555,"29":2556,"rop":2557,"tv":2558,"Ġsimple":2559,"Ġindustrial":2560,"Ġstain":2561,"Ġib":2562,"Ġcreative":2563,"vert":2564,"Ġtele":2565,"Ġorange":2566,"Ġtank":2567,"ober":2568,"unning":2569,"hop":2570,"Ġhospital":2571,"Ġdream":2572,"Ġsab":2573,"Ġlap":2574,"Ġarchitecture":2575,"Ġpresident":2576,"ning":2577,"ysis":2578,"Ġesc":2579,"Ġdistrict":2580,"Ġdetails":2581,"ours":2582,"Ġhat":2583,"Ġunt":2584,"inder":2585,"Ġflat":2586,"Ġchem":2587,"Ġletter":2588,"ello":2589,"ward":2590,"emb":2591,"clus":2592,"Ġitaly":2593,"Ġluc":2594,"Ġvillage":2595,"Ġcomics":2596,"Ġanc":2597,"Ġ2014":2598,"Ġforest":2599,"Ġgraphic":2600,"ements":2601,"Ġterm":2602,"ges":2603,"Ġlyrics":2604,"Ġweather":2605,"ians":2606,"oble":2607,"Ġ<":2608,"Ġintr":2609,"cent":2610,"Ġindonesia":2611,"Ġeye":2612,"unt":2613,"ste":2614,"Ġinterior":2615,"Ġts":2616,"Ġless":2617,"Ġbritish":2618,"icles":2619,"orman":2620,"Ġadm":2621,"umin":2622,"Ġsell":2623,"Ġdiamond":2624,"Ġoutdoors":2625,"ential":2626,"Ġtype":2627,"hu":2628,"Ġflorida":2629,"Ġpay":2630,"Ġfuture":2631,"Ġveh":2632,"ele":2633,"Ġcourt":2634,"55":2635,"vd":2636,"Ġwholes":2637,"Ġwars":2638,"Ġze":2639,"ises":2640,"Ġgovern":2641,"itional":2642,"Ġshipping":2643,"Ġcou":2644,"Ġmedic":2645,"iles":2646,"awa":2647,"Ġstor":2648,"Ġlandsc":2649,"Ġ29":2650,"car":2651,"Ġpac":2652,"Ġpremium":2653,"Ġtut":2654,"Ġiv":2655,"Ġfox":2656,"Ġscreen":2657,"Ġford":2658,"Ġray":2659,"Ġmind":2660,"ela":2661,"uch":2662,"Ġsupplies":2663,"Ġarmy":2664,"Ġrd":2665,"Ġchange":2666,"Ġimpr":2667,"Ġdance":2668,"Ġdesktop":2669,"Ġsquare":2670,"ugg":2671,"ween":2672,"Ġthem":2673,"Ġphys":2674,"Ġped":2675,"Ġrap":2676,"Ġmexico":2677,"Ġistock":2678,"Ġrod":2679,"ves":2680,"imb":2681,"ables":2682,"elf":2683,"Ġwil":2684,"Ġfot":2685,"Ġmd":2686,"Ġpract":2687,"Ġfans":2688,"Ġtx":2689,"ource":2690,"Ġcomic":2691,"Ġfemale":2692,"73":2693,"tract":2694,"Ġpiece":2695,"Ġmary":2696,"Ġdeals":2697,"for":2698,"Ġcafe":2699,"Ġmain":2700,"Ġentertainment":2701,"Ġah":2702,"Ġml":2703,"Ġhab":2704,"Ġtea":2705,"Ġmaking":2706,"Ġbarb":2707,"iang":2708,"ador":2709,"Ġly":2710,"Ġiron":2711,"Ġinterview":2712,"Ġbased":2713,"sp":2714,"aka":2715,"nd":2716,"Ġstudent":2717,"pos":2718,"iki":2719,"Ġdeep":2720,"Ġkat":2721,"Ġ500":2722,"Ġstudents":2723,"Ġchang":2724,"Ġbetween":2725,"Ġrat":2726,"Ġtalk":2727,"Ġfight":2728,"Ġclear":2729,"Ġcentury":2730,"Ġindependent":2731,"Ġauction":2732,"Ġkim":2733,"Ġgolden":2734,"Ġportra":2735,"Ġchampions":2736,"Ġbiography":2737,"Ġgrey":2738,"Ġgem":2739,"igr":2740,"Ġsweet":2741,"Ġcapt":2742,"Ġmatch":2743,"Ġplants":2744,"43":2745,"Ġengland":2746,"dress":2747,"Ġhorse":2748,"Ġsurv":2749,"Ġantique":2750,"con":2751,"ili":2752,"Ġwashington":2753,"eve":2754,"Ġwear":2755,"Ġmatt":2756,"Ġmask":2757,"Ġwheel":2758,"ogle":2759,"Ġshirts":2760,"Ġsr":2761,"Ġstill":2762,"Ġperfect":2763,"Ġcostume":2764,"Ġautomotive":2765,"Ġmalays":2766,"69":2767,"Ġpend":2768,"Ġmand":2769,"Ġguitar":2770,"Ġmys":2771,"ollow":2772,"Ġthere":2773,"Ġdays":2774,"Ġinside":2775,"Ġfrank":2776,"Ġgifts":2777,"utions":2778,"Ġ45":2779,"Ġfacts":2780,"Ġmoon":2781,"Ġoper":2782,"Ġstories":2783,"Ġfabric":2784,"thing":2785,"Ġther":2786,"Ġmorn":2787,"Ġimm":2788,"Ġwebs":2789,"town":2790,"och":2791,"illed":2792,"Ġdc":2793,"band":2794,"Ġcoach":2795,"Ġfishing":2796,"Ġwestern":2797,"ension":2798,"Ġfive":2799,"Ġvent":2800,"Ġmine":2801,"Ġbridge":2802,"ulation":2803,"opedia":2804,"Ġalib":2805,"olk":2806,"Ġvar":2807,"Ġcm":2808,"Ġchall":2809,"Ġhub":2810,"Ġperforman":2811,"Ġrobert":2812,"erry":2813,"Ġconstruction":2814,"Ġken":2815,"Ġpoly":2816,"67":2817,"Ġgeorg":2818,"ema":2819,"Ġenergy":2820,"asa":2821,"Ġcode":2822,"Ġneckl":2823,"Ġlimited":2824,"cript":2825,"ctor":2826,"Ġox":2827,"estyle":2828,"erson":2829,"Ġenv":2830,"Ġgermany":2831,"Ġcryst":2832,"Ġgear":2833,"Ġsens":2834,"Ġten":2835,"kin":2836,"Ġhad":2837,"Ġai":2838,"Ġhallow":2839,"ova":2840,"Ġtin":2841,"Ġniger":2842,"iat":2843,"Ġple":2844,"Ġmiddle":2845,"Ġcastle":2846,"Ġwatches":2847,"Ġcontin":2848,"ils":2849,"gl":2850,"Ġfield":2851,"Ġdut":2852,"Ġhim":2853,"mon":2854,"Ġult":2855,"Ġmoney":2856,"Ġmulti":2857,"Ġgoogle":2858,"Ġforums":2859,"Ġstandard":2860,"Ġanalysis":2861,"Ġalibaba":2862,"Ġvel":2863,"Ġstars":2864,"Ġstop":2865,"uth":2866,"Ġwhich":2867,"Ġexc":2868,"ission":2869,"amin":2870,"isa":2871,"urity":2872,"Ġchocol":2873,"mov":2874,"bies":2875,"eta":2876,"Ġpool":2877,"Ġkal":2878,"Ġcomplete":2879,"Ġwife":2880,"Ġsales":2881,"Ġaround":2882,"Ġquora":2883,"Ġangeles":2884,"Ġbm":2885,"bur":2886,"Ġaudio":2887,"Ġcoc":2888,"Ġhalloween":2889,"ancy":2890,"Ġay":2891,"Ġrug":2892,"men":2893,"Ġgrad":2894,"ication":2895,"Ġbasketball":2896,"iva":2897,"Ġthese":2898,"hib":2899,"lor":2900,"Ġfresh":2901,"py":2902,"Ġdiffer":2903,"49":2904,"Ġtai":2905,"px":2906,"Ġsecret":2907,"hen":2908,"ources":2909,"aga":2910,"Ġshopee":2911,"Ġwant":2912,"Ġkir":2913,"aki":2914,"Ġspl":2915,"Ġkur":2916,"Ġmirror":2917,"Ġmt":2918,"uzz":2919,"Ġmorning":2920,"Ġpow":2921,"Ġqueen":2922,"Ġkid":2923,"Ġwholesale":2924,"Ġboat":2925,"Ġciv":2926,"uctions":2927,"Ġum":2928,"cloud":2929,"Ġbear":2930,"ef":2931,"Ġsad":2932,"Ġpul":2933,"Ġdun":2934,"Ġshoot":2935,"icks":2936,"Ġ2013":2937,"war":2938,"Ġclin":2939,"Ġfel":2940,"Ġtot":2941,"istry":2942,"Ġpun":2943,"Ġsept":2944,"ners":2945,"Ġcarol":2946,"Ġcould":2947,"Ġaugust":2948,"Ġcomb":2949,"Ġmalaysia":2950,"ido":2951,"Ġarab":2952,"Ġflowers":2953,"Ġreb":2954,"Ġbutter":2955,"oga":2956,"Ġupdate":2957,"Ġbik":2958,"Ġsent":2959,"ych":2960,"Ġton":2961,"ateg":2962,"Ġsix":2963,"ercial":2964,"Ġfle":2965,"ster":2966,"oli":2967,"wan":2968,"cul":2969,"Ġprocess":2970,"Ġafric":2971,"enes":2972,"Ġ32":2973,"db":2974,"ugar":2975,"79":2976,"Ġkill":2977,"Ġbetter":2978,"Ġtick":2979,"Ġtransform":2980,"don":2981,"Ġcotton":2982,"onda":2983,"Ġarchive":2984,"no":2985,"Ġire":2986,"Ġforce":2987,"Ġsmith":2988,"Ġstainless":2989,"Ġhouses":2990,"Ġperformance":2991,"Ġoak":2992,"isk":2993,"Ġvari":2994,"Ġprofessional":2995,"Ġformer":2996,"ava":2997,"Ġchann":2998,"lands":2999,"Ġmaps":3000,"Ġscott":3001,"Ġpil":3002,"Ġsupply":3003,"Ġhop":3004,"gb":3005,"Ġtenn":3006,"Ġboys":3007,"iser":3008,"Ġscale":3009,"Ġbord":3010,"Ġmeaning":3011,"Ġrelease":3012,"ye":3013,"point":3014,"Ġhen":3015,"Ġcod":3016,"Ġlamp":3017,"Ġaddress":3018,"Ġgeorge":3019,"Ġhardware":3020,"Ġpromot":3021,"Ġru":3022,"Ġchicken":3023,"itive":3024,"Ġms":3025,"aa":3026,"fits":3027,"Ġmit":3028,"Ġfed":3029,"Ġbrain":3030,"Ġincl":3031,"Ġbeing":3032,"adi":3033,"Ġng":3034,"Ġfoundation":3035,"chester":3036,"berry":3037,"Ġpremier":3038,"Ġtik":3039,"Ġobit":3040,"Ġoce":3041,"Ġpeter":3042,"Ġdies":3043,"Ġappar":3044,"ris":3045,"Ġcharl":3046,"Ġfram":3047,"Ġracing":3048,"hol":3049,"Ġpn":3050,"Ġfix":3051,"Ġoly":3052,"har":3053,"Ġmother":3054,"Ġbrid":3055,"Ġpiz":3056,"Ġhit":3057,"Ġthomas":3058,"Ġnj":3059,"Ġpath":3060,"Ġhou":3061,"Ġdia":3062,"Ġmotorc":3063,"Ġavail":3064,"Ġrout":3065,"Ġphilippines":3066,"Ġhur":3067,"Ġrot":3068,"fri":3069,"apore":3070,"Ġmarch":3071,"Ġshare":3072,"Ġcarr":3073,"igan":3074,"Ġpap":3075,"Ġhang":3076,"Ġwelcome":3077,"acks":3078,"Ġlifestyle":3079,"Ġmaterial":3080,"Ġing":3081,"Ġtap":3082,"ished":3083,"Ġkam":3084,"Ġireland":3085,"Ġstickers":3086,"Ġimport":3087,"Ġcamera":3088,"Ġplayer":3089,"Ġtemplate":3090,"Ġfantasy":3091,"Ġdj":3092,"aza":3093,"Ġplaces":3094,"Ġcomputer":3095,"Ġnc":3096,"Ġtod":3097,"Ġsystems":3098,"Ġbah":3099,"Ġtemple":3100,"Ġacademy":3101,"Ġhalf":3102,"Ġfriends":3103,"Ġframe":3104,"Ġsurf":3105,"Ġcoron":3106,"Ġsid":3107,"Ġvirt":3108,"Ġcommercial":3109,"Ġmens":3110,"Ġrace":3111,"Ġamb":3112,"39":3113,"Ġhobbies":3114,"Ġmarri":3115,"Ġship":3116,"Ġjud":3117,"Ġbob":3118,"ester":3119,"Ġolymp":3120,"movies":3121,"Ġmun":3122,"Ġdub":3123,"Ġyu":3124,"Ġbase":3125,"Ġshows":3126,"Ġhus":3127,"Ġfactory":3128,"eball":3129,"zer":3130,"Ġsingapore":3131,"Ġpand":3132,"pcs":3133,"32":3134,"Ġearly":3135,"Ġchocolate":3136,"Ġwords":3137,"arts":3138,"Ġlangu":3139,"Ġmanual":3140,"mi":3141,"Ġlady":3142,"Ġpopular":3143,"ige":3144,"ems":3145,"Ġsanta":3146,"Ġatlant":3147,"ayer":3148,"47":3149,"ogue":3150,"Ġhav":3151,"Ġresults":3152,"Ġcit":3153,"Ġkingdom":3154,"Ġversion":3155,"ples":3156,"Ġlip":3157,"Ġsafety":3158,"Ġactress":3159,"Ġmarvel":3160,"Ġfrancis":3161,"Ġtraditional":3162,"Ġillustrations":3163,"Ġsleeve":3164,"Ġsuccess":3165,"Ġpodcast":3166,"Ġdocument":3167,"Ġhindi":3168,"Ġpenn":3169,"Ġvery":3170,"Ġput":3171,"Ġafrican":3172,"Ġheavy":3173,"Ġky":3174,"Ġhero":3175,"stone":3176,"abb":3177,"Ġexam":3178,"Ġancient":3179,"Ġwooden":3180,"ification":3181,"Ġnu":3182,"gur":3183,"Ġdat":3184,"Ġpeak":3185,"Ġauthor":3186,"Ġcycl":3187,"ators":3188,"Ġcow":3189,"Ġct":3190,"pop":3191,"Ġast":3192,"Ġitalian":3193,"Ġalle":3194,"ogs":3195,"Ġpel":3196,"Ġsecurity":3197,"Ġft":3198,"Ġflip":3199,"Ġburn":3200,"oi":3201,"Ġawards":3202,"Ġhan":3203,"Ġoctober":3204,"iron":3205,"Ġnin":3206,"Ġalt":3207,"Ġmartin":3208,"Ġinstitute":3209,"life":3210,"Ġdisplay":3211,"erd":3212,"Ġhost":3213,"Ġvirgin":3214,"Ġpurple":3215,"Ġstorage":3216,"ento":3217,"Ġcraft":3218,"Ġnecklace":3219,"Ġlevel":3220,"Ġcosplay":3221,"Ġbron":3222,"bury":3223,"Ġwish":3224,"fa":3225,"kh":3226,"ker":3227,"side":3228,"Ġmale":3229,"itions":3230,"Ġviet":3231,"works":3232,"des":3233,"Ġkhan":3234,"Ġsoundcloud":3235,"Ġpatr":3236,"Ġtrailer":3237,"Ġrecipes":3238,"Ġdate":3239,"Ġrecords":3240,"gest":3241,"Ġmath":3242,"Ġchapter":3243,"shirt":3244,"Ġairport":3245,"Ġprivate":3246,"37":3247,"Ġguardian":3248,"Ġobs":3249,"iques":3250,"Ġsolutions":3251,"Ġtrump":3252,"Ġheight":3253,"Ġ2012":3254,"lu":3255,"iro":3256,"can":3257,"Ġblood":3258,"clusive":3259,"Ġprojects":3260,"comm":3261,"Ġja":3262,"Ġwebsite":3263,"Ġchristian":3264,"itage":3265,"Ġthink":3266,"Ġnut":3267,"ori":3268,"36":3269,"aria":3270,"Ġlandscape":3271,"Ġfo":3272,"Ġlee":3273,"rid":3274,"Ġjac":3275,"Ġapparel":3276,"Ġpatch":3277,"vo":3278,"ological":3279,"Ġmall":3280,"aux":3281,"apy":3282,"aro":3283,"Ġpokemon":3284,"Ġarg":3285,"olic":3286,"Ġrum":3287,"bre":3288,"anner":3289,"Ġbeat":3290,"Ġbaseball":3291,"izer":3292,"Ġtoyota":3293,"Ġmeth":3294,"Ġurban":3295,"ways":3296,"oper":3297,"Ġanimals":3298,"Ġisl":3299,"Ġswitch":3300,"Ġax":3301,"elet":3302,"Ġcurr":3303,"Ġ75":3304,"Ġavailable":3305,"oh":3306,"Ġbene":3307,"Ġrepr":3308,"Ġmons":3309,"Ġbeg":3310,"eller":3311,"Ġleft":3312,"osa":3313,"34":3314,"Ġunion":3315,"Ġdepartment":3316,"Ġportrait":3317,"Ġwond":3318,"Ġconcept":3319,"Ġcrystal":3320,"Ġcru":3321,"Ġpier":3322,"Ġau":3323,"gate":3324,"Ġ48":3325,"Ġjacket":3326,"Ġkeep":3327,"aste":3328,"cher":3329,"Ġobituary":3330,"bour":3331,"Ġbey":3332,"Ġcancer":3333,"Ġemp":3334,"Ġengineering":3335,"di":3336,"Ġmug":3337,"Ġgram":3338,"Ġjar":3339,"Ġweight":3340,"Ġrid":3341,"Ġdefin":3342,"Ġfib":3343,"lic":3344,"Ġassociation":3345,"Ġsac":3346,"Ġsymb":3347,"Ġbroad":3348,"08":3349,"bar":3350,"Ġpep":3351,"Ġwilliam":3352,"fe":3353,"oj":3354,"hou":3355,"station":3356,"Ġgets":3357,"Ġbot":3358,"Ġfinanc":3359,"ns":3360,"Ġstruct":3361,"Ġpump":3362,"ales":3363,"Ġ%,":3364,"Ġbrook":3365,"Ġcelebrity":3366,"Ġstad":3367,"Ġeverything":3368,"Ġpubl":3369,"Ġjune":3370,"mond":3371,"ras":3372,"Ġsteam":3373,"Ġsoccer":3374,"Ġtreatment":3375,"ll":3376,"Ġshr":3377,"gp":3378,"aland":3379,"Ġscot":3380,"down":3381,"bow":3382,"Ġquick":3383,"ugu":3384,"Ġready":3385,"Ġvilla":3386,"shire":3387,"ploy":3388,"etry":3389,"Ġ195":3390,"Ġabs":3391,"Ġtyp":3392,"Ġnotes":3393,"ete":3394,"Ġnurs":3395,"Ġhay":3396,"Ġfollow":3397,"Ġpred":3398,"Ġcable":3399,"Ġjim":3400,"Ġexperience":3401,"Ġtax":3402,"edu":3403,"Ġdiscover":3404,"Ġjam":3405,"Ġlegend":3406,"anth":3407,"Ġfu":3408,"Ġss":3409,"Ġcabin":3410,"Ġannivers":3411,"Ġnever":3412,"Ġbeer":3413,"Ġfore":3414,"Ġpear":3415,"Ġacademia":3416,"porary":3417,"Ġpit":3418,"Ġdesigner":3419,"Ġplate":3420,"Ġinte":3421,"Ġseeds":3422,"Ġinternet":3423,"Ġsleep":3424,"Ġcongr":3425,"Ġintrod":3426,"Ġtours":3427,"Ġlaz":3428,"Ġ36":3429,"Ġphotographer":3430,"Ġpakistan":3431,"Ġident":3432,"ample":3433,"Ġfavor":3434,"akers":3435,"Ġsusp":3436,"istr":3437,"cart":3438,"ength":3439,"wear":3440,"Ġdry":3441,"Ġsof":3442,"Ġspirit":3443,"Ġheritage":3444,"Ġbehance":3445,"Ġadventure":3446,"Ġmarketing":3447,"Ġjuly":3448,"Ġnick":3449,"Ġave":3450,"Ġjos":3451,"Ġsigned":3452,"atory":3453,"Ġig":3454,"sen":3455,"'m":3456,"Ġaward":3457,"Ġswim":3458,"Ġ38":3459,"erto":3460,"Ġebook":3461,"Ġocean":3462,"Ġnas":3463,"Ġfc":3464,"Ġpill":3465,"ules":3466,"Ġtow":3467,"Ġell":3468,"Ġwindows":3469,"Ġlag":3470,"Ġherald":3471,"sk":3472,"Ġtay":3473,"Ġchannel":3474,"inh":3475,"Ġmillion":3476,"Ġstay":3477,"istic":3478,"Ġboston":3479,"72":3480,"Ġjon":3481,"ised":3482,"etch":3483,"uation":3484,"afts":3485,"Ġprotect":3486,"Ġtemplates":3487,"Ġsoftware":3488,"Ġbuck":3489,"Ġlaunch":3490,"Ġencycl":3491,"Ġcert":3492,"Ġplanet":3493,"aha":3494,"enge":3495,"idad":3496,"Ġanton":3497,"Ġways":3498,"uce":3499,"Ġcarous":3500,"Ġindustry":3501,"list":3502,"Ġasia":3503,"irus":3504,"abad":3505,"Ġunit":3506,"Ġstuff":3507,"Ġagr":3508,"Ġfat":3509,"Ġspan":3510,"uke":3511,"Ġnigeria":3512,"Ġplans":3513,"Ġvia":3514,"Ġrece":3515,"Ġscar":3516,"62":3517,"Ġrepair":3518,"uy":3519,"Ġsurg":3520,"anna":3521,"Ġfoto":3522,"Ġlink":3523,"Ġmodels":3524,"Ġnovember":3525,"Ġcub":3526,"pool":3527,"fc":3528,"ask":3529,"Ġscul":3530,"Ġchron":3531,"hetic":3532,"Ġwithout":3533,"Ġcad":3534,"Ġretail":3535,"ucks":3536,"ui":3537,"Ġcold":3538,"rey":3539,"Ġunique":3540,"elly":3541,"tok":3542,"Ġopera":3543,"eno":3544,"Ġ55":3545,"card":3546,"mann":3547,"Ġresid":3548,"Ġamino":3549,"Ġsolid":3550,"Ġchris":3551,"Ġgaz":3552,"Ġcontem":3553,"Ġprincess":3554,"Ġkon":3555,"Ġtheat":3556,"Ġjean":3557,"Ġregion":3558,"uki":3559,"Ġbeen":3560,"Ġkom":3561,"Ġanniversary":3562,"Ġalph":3563,"Ġamazing":3564,"Ġgrade":3565,"Ġnag":3566,"Ġdal":3567,"pet":3568,"Ġti":3569,"Ġdol":3570,"Ġnation":3571,"Ġcommon":3572,"Ġliv":3573,"ughter":3574,"Ġhoodie":3575,"Ġultimate":3576,"Ġsymbol":3577,"Ġpics":3578,"itation":3579,"Ġclose":3580,"Ġeuropean":3581,"Ġground":3582,"Ġcatal":3583,"Ġblu":3584,"74":3585,"Ġgran":3586,"Ġkap":3587,"fit":3588,"Ġcontact":3589,"Ġabc":3590,"Ġinj":3591,"Ġlego":3592,"made":3593,"ought":3594,"ints":3595,"Ġ300":3596,"hood":3597,"Ġji":3598,"odge":3599,"ched":3600,"Ġvirtual":3601,"Ġzero":3602,"Ġ31":3603,"mo":3604,"Ġretro":3605,"eto":3606,"Ġstamp":3607,"ires":3608,"Ġki":3609,"Ġclothes":3610,"Ġmakeup":3611,"Ġathletics":3612,"so":3613,"Ġtrade":3614,"ocus":3615,"Ġjenn":3616,"ographic":3617,"pad":3618,"Ġcn":3619,"Ġfruit":3620,"Ġfi":3621,"Ġlanguage":3622,"Ġeas":3623,"alo":3624,"Ġfill":3625,"Ġcath":3626,"friend":3627,"Ġmajor":3628,"Ġvon":3629,"Ġpages":3630,"Ġmedicine":3631,"Ġtarget":3632,"Ġviol":3633,"Ġblank":3634,"Ġub":3635,"Ġbbc":3636,"Ġdresses":3637,"Ġwolf":3638,"Ġegg":3639,"Ġ2022":3640,"Ġpngwing":3641,"Ġsir":3642,"Ġli":3643,"Ġlan":3644,"Ġmicr":3645,"Ġelectr":3646,"Ġalumin":3647,"Ġapril":3648,"Ġleaf":3649,"ente":3650,"Ġcreate":3651,"iner":3652,"Ġcomputers":3653,"iance":3654,"uri":3655,"Ġwins":3656,"Ġchain":3657,"Ġinclud":3658,"ocket":3659,"Ġrav":3660,"gi":3661,"Ġsave":3662,"Ġye":3663,"Ġhistoric":3664,"yles":3665,"Ġsculpt":3666,"Ġdim":3667,"Ġschools":3668,"Ġroman":3669,"Ġprintable":3670,"zo":3671,"edy":3672,"Ġpsych":3673,"care":3674,"Ġorganic":3675,"Ġimpact":3676,"Ġlights":3677,"Ġcha":3678,"esc":3679,"Ġcharacters":3680,"Ġrentals":3681,"Ġlaun":3682,"Ġnavy":3683,"Ġgel":3684,"lights":3685,"Ġsigns":3686,"Ġrank":3687,"Ġencyclopedia":3688,"Ġjoe":3689,"Ġissue":3690,"osc":3691,"Ġvacation":3692,"Ġexhib":3693,"Ġbottle":3694,"Ġ33":3695,"Ġenviron":3696,"Ġcarousell":3697,"water":3698,"Ġdining":3699,"Ġdrop":3700,"ione":3701,"Ġactor":3702,"Ġcs":3703,"Ġ150":3704,"Ġinfo":3705,"Ġdyn":3706,"Ġrussian":3707,"Ġexclusive":3708,"Ġdifferent":3709,"Ġmarine":3710,"Ġsouthern":3711,"rael":3712,"Ġbehind":3713,"abil":3714,"Ġjobs":3715,"Ġchev":3716,"Ġsuit":3717,"Ġink":3718,"Ġsor":3719,"42":3720,"Ġ01":3721,"Ġeat":3722,"Ġpizza":3723,"Ġore":3724,"Ġfitness":3725,"Ġorch":3726,"Ġpure":3727,"Ġquote":3728,"iking":3729,"umn":3730,"enue":3731,"Ġhung":3732,"cil":3733,"Ġpup":3734,"Ġtrue":3735,"Ġscient":3736,"oos":3737,"Ġdiscuss":3738,"lad":3739,"Ġrichard":3740,"Ġmuch":3741,"gs":3742,"Ġtab":3743,"Ġdrink":3744,"Ġflash":3745,"Ġdvd":3746,"Ġstra":3747,"ibb":3748,"Ġcareer":3749,"Ġproperties":3750,"Ġdaniel":3751,"Ġnic":3752,"Ġproble":3753,"Ġfal":3754,"wr":3755,"Ġsalt":3756,"Ġspain":3757,"ands":3758,"iga":3759,"Ġaustralian":3760,"place":3761,"Ġquar":3762,"Ġminecraft":3763,"Ġcore":3764,"Ġcarl":3765,"ria":3766,"Ġirish":3767,"Ġnik":3768,"awn":3769,"Ġvectors":3770,"Ġliqu":3771,"Ġcred":3772,"gon":3773,"Ġmakes":3774,"Ġstage":3775,"Ġmarc":3776,"adow":3777,"Ġinstall":3778,"uma":3779,"ados":3780,"Ġanth":3781,"Ġmotorcycle":3782,"ging":3783,"Ġcourse":3784,"Ġhonda":3785,"Ġeag":3786,"Ġlic":3787,"Ġble":3788,"Ġworking":3789,"Ġsit":3790,"ocr":3791,"sey":3792,"Ġmut":3793,"Ġtower":3794,"Ġtourism":3795,"gen":3796,"Ġcompet":3797,"Ġshot":3798,"ockey":3799,"Ġbac":3800,"Ġbollywood":3801,"Ġpour":3802,"bn":3803,"otic":3804,"asc":3805,"Ġdesert":3806,"'re":3807,"Ġdelhi":3808,"Ġkay":3809,"agen":3810,"Ġtiktok":3811,"asure":3812,"aries":3813,"Ġpaperback":3814,"Ġlord":3815,"Ġattack":3816,"Ġsew":3817,"Ġ2011":3818,"46":3819,"oda":3820,"Ġlind":3821,"uru":3822,"Ġaway":3823,"ez":3824,"bridge":3825,"edes":3826,"100":3827,"Ġisrael":3828,"adel":3829,"aging":3830,"fast":3831,"Ġnap":3832,"Ġjr":3833,"izz":3834,"Ġpret":3835,"76":3836,"Ġliter":3837,"Ġtutorial":3838,"Ġanother":3839,"Ġseptember":3840,"worth":3841,"Ġlost":3842,"eline":3843,"Ġstorm":3844,"Ġinterest":3845,"Ġspread":3846,"Ġtoky":3847,"Ġegy":3848,"Ġsri":3849,"Ġcorpor":3850,"uto":3851,"Ġwould":3852,"ending":3853,"Ġpm":3854,"Ġfacebook":3855,"Ġllc":3856,"Ġresources":3857,"Ġpiano":3858,"Ġgovernment":3859,"Ġdecoration":3860,"Ġku":3861,"kn":3862,"ocks":3863,"ored":3864,"uring":3865,"Ġguest":3866,"Ġ99":3867,"aij":3868,"Ġviv":3869,"Ġpharm":3870,"Ġbull":3871,"Ġcharles":3872,"Ġmicros":3873,"Ġburg":3874,"tle":3875,"Ġgym":3876,"Ġthread":3877,"inc":3878,"aling":3879,"Ġleaders":3880,"Ġhollywood":3881,"ando":3882,"Ġwindow":3883,"Ġcapital":3884,"Ġjay":3885,"Ġjer":3886,"Ġmumb":3887,"icy":3888,"Ġadj":3889,"chi":3890,"Ġgray":3891,"Ġtun":3892,"Ġbern":3893,"iac":3894,"Ġbuff":3895,"Ġfinancial":3896,"Ġwriting":3897,"Ġstaff":3898,"Ġicons":3899,"Ġbra":3900,"Ġron":3901,"avirus":3902,"Ġpant":3903,"Ġrussia":3904,"Ġou":3905,"Ġfold":3906,"Ġnorthern":3907,"Ġhandmade":3908,"Ġrepublic":3909,"hire":3910,"Ġstrong":3911,"Ġ1000":3912,"Ġansw":3913,"iling":3914,"ected":3915,"olo":3916,"gn":3917,"Ġplatform":3918,"Ġtry":3919,"Ġsnap":3920,"aled":3921,"ads":3922,"Ġmerch":3923,"du":3924,"Ġadobe":3925,"85":3926,"Ġcott":3927,"fin":3928,"Ġbright":3929,"fly":3930,"Ġelement":3931,"Ġadap":3932,"Ġcloud":3933,"bi":3934,"Ġpendant":3935,"Ġjackson":3936,"Ġmort":3937,"istics":3938,"Ġagency":3939,"Ġlate":3940,"Ġbags":3941,"Ġsets":3942,"Ġliver":3943,"bers":3944,"Ġpreview":3945,"tron":3946,"Ġstatus":3947,"Ġmany":3948,"Ġsumm":3949,"Ġappr":3950,"Ġconference":3951,"proof":3952,"Ġni":3953,"Ġaudi":3954,"Ġwonder":3955,"erve":3956,"Ġaj":3957,"Ġgm":3958,"Ġfigures":3959,"Ġvit":3960,"Ġgt":3961,"Ġmond":3962,"Ġ2010":3963,"agn":3964,"ishing":3965,"Ġtamil":3966,"Ġenvironment":3967,"Ġbrac":3968,"Ġcarbon":3969,"Ġtokyo":3970,"elling":3971,"Ġjord":3972,"Ġtoo":3973,"akh":3974,"Ġ9780":3975,"Ġprime":3976,"Ġprince":3977,"Ġyouth":3978,"Ġchart":3979,"Ġhip":3980,"Ġdrug":3981,"Ġturkey":3982,"ability":3983,"gre":3984,"Ġcivil":3985,"Ġmumbai":3986,"cha":3987,"onia":3988,"Ġcolors":3989,"Ġcouncil":3990,"Ġ34":3991,"iami":3992,"Ġspa":3993,"Ġmes":3994,"Ġcord":3995,"Ġcolumb":3996,"ession":3997,"Ġkan":3998,"yt":3999,"osis":4000,"Ġcolour":4001,"Ġarc":4002,"Ġintegr":4003,"aks":4004,"olar":4005,"encia":4006,"Ġbass":4007,"Ġmagnet":4008,"Ġattract":4009,"Ġchief":4010,"Ġsail":4011,"etr":4012,"Ġ65":4013,"icip":4014,"Ġvolume":4015,"Ġpaintings":4016,"iya":4017,"Ġcoronavirus":4018,"Ġdip":4019,"oons":4020,"Ġedit":4021,"Ġbic":4022,"overy":4023,"Ġbraz":4024,"Ġhistorical":4025,"Ġale":4026,"Ġjourney":4027,"Ġhem":4028,"Ġgaming":4029,"Ġeps":4030,"eria":4031,"Ġpowder":4032,"Ġharry":4033,"Ġstyl":4034,"Ġreplac":4035,"win":4036,"Ġpv":4037,"Ġcasa":4038,"Ġstatue":4039,"inary":4040,"Ġtransport":4041,"Ġmm":4042,"Ġtheatre":4043,"Ġcav":4044,"Ġcontemporary":4045,"star":4046,"Ġmaria":4047,"cle":4048,"Ġlion":4049,"Ġmagn":4050,"ustin":4051,"Ġegypt":4052,"Ġcompar":4053,"cz":4054,"Ġmemorial":4055,"burgh":4056,"Ġtherm":4057,"aze":4058,"Ġreveals":4059,"coming":4060,"Ġlam":4061,"Ġbirds":4062,"Ġsher":4063,"Ġrestaurants":4064,"Ġlac":4065,"Ġsci":4066,"Ġportable":4067,"uan":4068,"Ġmethod":4069,"Ġboss":4070,"ten":4071,"reme":4072,"rd":4073,"kan":4074,"Ġcrit":4075,"ured":4076,"Ġrole":4077,"Ġsilk":4078,"Ġrequ":4079,"Ġenter":4080,"Ġpanel":4081,"icket":4082,"Ġcrown":4083,"imes":4084,"Ġbund":4085,"omy":4086,"ring":4087,"Ġdogs":4088,"Ġyang":4089,"Ġportal":4090,"icult":4091,"Ġmiami":4092,"uments":4093,"aii":4094,"lim":4095,"onto":4096,"Ġhills":4097,"ran":4098,"Ġach":4099,"Ġexplor":4100,"kins":4101,"aking":4102,"Ġrunning":4103,"uda":4104,"away":4105,"ogn":4106,"Ġevening":4107,"Ġtumbral":4108,"Ġdaughter":4109,"Ġplayers":4110,"Ġtall":4111,"Ġsingh":4112,"Ġhi":4113,"ograf":4114,"Ġbit":4115,"Ġbod":4116,"abi":4117,"Ġcome":4118,"Ġfocus":4119,"Ġtrust":4120,"Ġvoice":4121,"Ġartwork":4122,"ased":4123,"Ġlooking":4124,"Ġsou":4125,"Ġlooks":4126,"Ġhoney":4127,"Ġsolar":4128,"Ġaer":4129,"oop":4130,"Ġrealtor":4131,"Ġreading":4132,"asons":4133,"Ġbathroom":4134,"pur":4135,"Ġrow":4136,"Ġspanish":4137,"Ġmetro":4138,"Ġultra":4139,"Ġ49":4140,"Ġhighlights":4141,"Ġimdb":4142,"Ġinnov":4143,"post":4144,"Ġfloral":4145,"Ġartists":4146,"Ġwere":4147,"Ġask":4148,"Ġgive":4149,"Ġhouston":4150,"Ġkum":4151,"Ġbowl":4152,"Ġnord":4153,"31":4154,"lock":4155,"west":4156,"dial":4157,"Ġvehicle":4158,"action":4159,"Ġuc":4160,"iden":4161,"aign":4162,"Ġpull":4163,"Ġopening":4164,"Ġjeff":4165,"Ġferr":4166,"dale":4167,"Ġloss":4168,"Ġdiego":4169,"inity":4170,"Ġtrop":4171,"fo":4172,"Ġhong":4173,"Ġedge":4174,"Ġ39":4175,"Ġpik":4176,"ighter":4177,"Ġsud":4178,"Ġandre":4179,"Ġbarn":4180,"Ġflight":4181,"Ġlev":4182,"Ġtouch":4183,"endo":4184,"Ġtip":4185,"ieu":4186,"Ġheat":4187,"pal":4188,"Ġsketch":4189,"iams":4190,"Ġmultip":4191,"Ġarticle":4192,"Ġemploy":4193,"Ġcris":4194,"Ġgardens":4195,"Ġconst":4196,"Ġmis":4197,"Ġweekend":4198,"itude":4199,"Ġbou":4200,"Ġtribune":4201,"Ġextra":4202,"Ġelev":4203,"Ġlav":4204,"enna":4205,"Ġseat":4206,"Ġlane":4207,"Ġwheels":4208,"Ġjustdial":4209,"Ġneg":4210,"Ġnike":4211,"Ġsword":4212,"Ġnames":4213,"Ġworkshe":4214,"Ġteen":4215,"Ġeyes":4216,"Ġadvert":4217,"gegg":4218,"Ġiz":4219,"hy":4220,"reat":4221,"cho":4222,"Ġpir":4223,"Ġpartners":4224,"Ġfeature":4225,"Ġteaching":4226,"Ġpalm":4227,"Ġcham":4228,"Ġwrest":4229,"Ġhil":4230,"Ġbrad":4231,"Ġpngegg":4232,"Ġsz":4233,"chool":4234,"ced":4235,"Ġrc":4236,"rad":4237,"Ġhealthy":4238,"Ġcrafts":4239,"Ġfeel":4240,"Ġoffer":4241,"Ġkiss":4242,"Ġspect":4243,"Ġmilk":4244,"ether":4245,"char":4246,"Ġhid":4247,"oms":4248,"Ġceramic":4249,"Ġmechan":4250,"Ġcant":4251,"Ġvisual":4252,"usion":4253,"Ġspider":4254,"Ġrange":4255,"Ġwarri":4256,"Ġdise":4257,"Ġhockey":4258,"iao":4259,"Ġdestin":4260,"Ġleon":4261,"Ġlay":4262,"Ġtub":4263,"Ġbattery":4264,"change":4265,"fort":4266,"Ġjoin":4267,"Ġhands":4268,"Ġster":4269,"Ġlocation":4270,"Ġker":4271,"Ġkent":4272,"Ġroof":4273,"lyn":4274,"Ġzh":4275,"Ġaest":4276,"Ġwide":4277,"dh":4278,"udi":4279,"Ġadult":4280,"Ġfeed":4281,"Ġgramho":4282,"Ġbloom":4283,"elli":4284,"ogen":4285,"Ġvictor":4286,"tt":4287,"Ġgiant":4288,"Ġstan":4289,"Ġshap":4290,"Ġyoga":4291,"ients":4292,"01":4293,"Ġconcert":4294,"Ġneur":4295,"Ġpuzz":4296,"Ġzealand":4297,"Ġraw":4298,"Ġeconomic":4299,"Ġkong":4300,"pc":4301,"osaur":4302,"Ġgrat":4303,"Ġtwe":4304,"Ġanaly":4305,"eland":4306,"Ġwatt":4307,"anning":4308,"Ġfalls":4309,"Ġcock":4310,"Ġchallenge":4311,"Ġapk":4312,"Ġrang":4313,"Ġdor":4314,"Ġimprov":4315,"Ġmeg":4316,"Ġmanchester":4317,"umes":4318,"anced":4319,"Ġbout":4320,"kr":4321,"aman":4322,"Ġsne":4323,"Ġry":4324,"Ġbb":4325,"Ġtell":4326,"Ġwilliams":4327,"eld":4328,"Ġmike":4329,"ais":4330,"Ġcurrent":4331,"actor":4332,"Ġhusband":4333,"Ġconvers":4334,"Ġtennis":4335,"Ġproduction":4336,"Ġdirector":4337,"Ġrelig":4338,"ici":4339,"Ġrelation":4340,"Ġcampaign":4341,"Ġpair":4342,"Ġtattoos":4343,"anka":4344,"Ġcolorado":4345,"Ġali":4346,"Ġtherapy":4347,"Ġdrag":4348,"Ġaltern":4349,"Ġhai":4350,"olis":4351,"Ġlighting":4352,"Ġvegas":4353,"Ġkindle":4354,"Ġhydr":4355,"acht":4356,"Ġprote":4357,"Ġtakes":4358,"Ġpacific":4359,"Ġgetting":4360,"Ġmusical":4361,"iri":4362,"uj":4363,"Ġpeace":4364,"Ġengag":4365,"Ġbrass":4366,"Ġcomo":4367,"Ġperi":4368,"Ġpub":4369,"Ġgeorgia":4370,"Ġoc":4371,"vin":4372,"71":4373,"fish":4374,"Ġnom":4375,"Ġsau":4376,"iform":4377,"oid":4378,"Ġvirginia":4379,"Ġgul":4380,"aving":4381,"Ġplush":4382,"lass":4383,"stein":4384,"Ġmol":4385,"pm":4386,"Ġbreaking":4387,"61":4388,"Ġshel":4389,"Ġveget":4390,"urance":4391,"Ġcrash":4392,"Ġusb":4393,"Ġbeyond":4394,"Ġ400":4395,"Ġrailway":4396,"Ġdoctor":4397,"Ġhorn":4398,"Ġjet":4399,"Ġfavorite":4400,"igo":4401,"Ġuna":4402,"Ġmicro":4403,"Ġkorean":4404,"Ġfif":4405,"Ġemerg":4406,"ving":4407,"used":4408,"Ġdad":4409,"fair":4410,"Ġsoul":4411,"Ġrib":4412,"Ġrust":4413,"Ġborder":4414,"Ġgab":4415,"iven":4416,"Ġpractice":4417,"Ġjes":4418,"Ġdall":4419,"Ġchand":4420,"Ġsteps":4421,"Ġhope":4422,"Ġtri":4423,"oni":4424,"Ġdish":4425,"Ġdeck":4426,"Ġaccount":4427,"pack":4428,"Ġkits":4429,"Ġdanc":4430,"Ġteep":4431,"Ġclimate":4432,"Ġski":4433,"aver":4434,"Ġcoming":4435,"Ġlaur":4436,"ucky":4437,"asts":4438,"Ġpho":4439,"Ġtitle":4440,"Ġpig":4441,"Ġmans":4442,"Ġunderst":4443,"Ġleader":4444,"Ġjag":4445,"Ġtn":4446,"Ġdrum":4447,"Ġsweat":4448,"Ġresist":4449,"Ġsunset":4450,"prise":4451,"Ġbible":4452,"41":4453,"Ġrainbow":4454,"Ġfeatures":4455,"Ġgreek":4456,"ports":4457,"lines":4458,"oster":4459,"opa":4460,"Ġbib":4461,"Ġwalking":4462,"uten":4463,"aija":4464,"Ġvictoria":4465,"antic":4466,"lect":4467,"Ġ120":4468,"Ġdot":4469,"Ġessential":4470,"Ġsap":4471,"Ġ2000":4472,"Ġross":4473,"Ġfriday":4474,"Ġiii":4475,"Ġtail":4476,"Ġbrazil":4477,"pie":4478,"Ġkun":4479,"Ġasian":4480,"Ġguy":4481,"enda":4482,"Ġshower":4483,"Ġframed":4484,"Ġactivities":4485,"Ġjoseph":4486,"Ġri":4487,"Ġexerc":4488,"Ġmove":4489,"Ġarrest":4490,"Ġhr":4491,"Ġavenue":4492,"Ġsource":4493,"Ġcarolina":4494,"Ġtickets":4495,"Ġhash":4496,"ications":4497,"Ġocc":4498,"cover":4499,"Ġsemi":4500,"obi":4501,"Ġek":4502,"Ġinspired":4503,"world":4504,"Ġgrowth":4505,"sea":4506,"Ġherb":4507,"Ġdomin":4508,"imo":4509,"Ġauctions":4510,"Ġtul":4511,"Ġya":4512,"tag":4513,"Ġrental":4514,"aco":4515,"wand":4516,"ervation":4517,"Ġpresentation":4518,"Ġmanufacturer":4519,"Ġlor":4520,"Ġrome":4521,"Ġremov":4522,"Ġfather":4523,"Ġnovel":4524,"Ġcann":4525,"Ġabstr":4526,"Ġtotal":4527,"Ġtee":4528,"erty":4529,"Ġsuppliers":4530,"Ġjones":4531,"Ġmeeting":4532,"Ġsed":4533,"Ġchi":4534,"Ġfrancisco":4535,"Ġtrends":4536,"ansas":4537,"Ġcoup":4538,"Ġpom":4539,"iment":4540,"Ġwon":4541,"Ġteacher":4542,"Ġdual":4543,"uses":4544,"Ġadjust":4545,"Ġsafe":4546,"Ġberlin":4547,"Ġcatholic":4548,"pers":4549,"Ġtalks":4550,"Ġquart":4551,"Ġsaw":4552,"Ġdepot":4553,"Ġscene":4554,"Ġcoin":4555,"kar":4556,"Ġbmw":4557,"200":4558,"Ġuniversal":4559,"Ġyam":4560,"07":4561,"Ġharv":4562,"Ġannual":4563,"imp":4564,"Ġcricket":4565,"Ġfriendly":4566,"Ġteepublic":4567,"Ġrice":4568,"Ġreally":4569,"Ġcreek":4570,"chen":4571,"Ġdowntown":4572,"Ġtog":4573,"Ġsugar":4574,"zi":4575,"Ġfer":4576,"Ġpy":4577,"Ġconsult":4578,"Ġtrading":4579,"others":4580,"Ġtang":4581,"bu":4582,"Ġjess":4583,"ru":4584,"Ġopens":4585,"Ġwing":4586,"Ġaircraft":4587,"Ġholder":4588,"owa":4589,"Ġkab":4590,"Ġjoy":4591,"Ġcoloring":4592,"anding":4593,"Ġmichigan":4594,"Ġpi":4595,"Ġcaps":4596,"Ġinspiration":4597,"Ġkenn":4598,"iller":4599,"Ġwhit":4600,"fall":4601,"Ġjose":4602,"Ġjordan":4603,"arta":4604,"Ġwhile":4605,"sm":4606,"road":4607,"born":4608,"Ġcamping":4609,"Ġ250":4610,"aca":4611,"Ġbring":4612,"aris":4613,"Ġstreaming":4614,"illy":4615,"Ġgrass":4616,"Ġmotors":4617,"Ġtaylor":4618,"Ġuns":4619,"Ġ64":4620,"oven":4621,"cription":4622,"rup":4623,"Ġresident":4624,"Ġkorea":4625,"Ġnad":4626,"Ġkick":4627,"Ġquestions":4628,"heim":4629,"Ġmn":4630,"Ġjohnson":4631,"vision":4632,"Ġ*,":4633,"ended":4634,"Ġcanad":4635,"Ġcob":4636,"Ġtemper":4637,"Ġwave":4638,"Ġcoat":4639,"Ġartstation":4640,"Ġhook":4641,"Ġmission":4642,"Ġsunday":4643,"Ġpush":4644,"Ġtheme":4645,"real":4646,"Ġohio":4647,"Ġlens":4648,"Ġbelt":4649,"Ġgreet":4650,"Ġsym":4651,"Ġcalend":4652,"Ġdistrib":4653,"ross":4654,"Ġwatercol":4655,"Ġhell":4656,"asm":4657,"Ġ42":4658,"Ġreplacement":4659,"Ġlace":4660,"Ġprinc":4661,"Ġbras":4662,"Ġrou":4663,"Ġgoing":4664,"Ġcrew":4665,"Ġrear":4666,"Ġvacc":4667,"lov":4668,"hold":4669,"Ġzone":4670,"Ġradi":4671,"Ġcheese":4672,"Ġmonster":4673,"Ġhud":4674,"Ġkel":4675,"Ġfuneral":4676,"enger":4677,"Ġjung":4678,"yer":4679,"Ġfm":4680,"Ġduty":4681,"Ġhyd":4682,"joy":4683,"Ġalche":4684,"aja":4685,"Ġdiagram":4686,"Ġworkshop":4687,"Ġnice":4688,"Ġlamb":4689,"Ġannounces":4690,"eries":4691,"izing":4692,"Ġkee":4693,"Ġtransfer":4694,"Ġsob":4695,"Ġgalax":4696,"Ġminister":4697,"Ġcandy":4698,"Ġgan":4699,"Ġug":4700,"Ġnan":4701,"ede":4702,"Ġhandle":4703,"Ġtat":4704,"Ġsurgery":4705,"ifer":4706,"Ġshin":4707,"Ġvr":4708,"Ġpalace":4709,"Ġvert":4710,"Ġfern":4711,"Ġkaw":4712,"ken":4713,"Ġtoronto":4714,"Ġcontain":4715,"imal":4716,"Ġrak":4717,"Ġnyc":4718,"Ġmik":4719,"Ġbes":4720,"Ġmercedes":4721,"Ġmonitor":4722,"oa":4723,"Ġgenerator":4724,"Ġsteve":4725,"Ġci":4726,"ibe":4727,"Ġbrush":4728,"Ġshape":4729,"Ġrog":4730,"Ġorth":4731,"here":4732,"Ġimgur":4733,"Ġwy":4734,"Ġbatt":4735,"ensive":4736,"Ġdental":4737,"Ġcurt":4738,"bet":4739,"Ġflare":4740,"alt":4741,"Ġful":4742,"ache":4743,"utes":4744,"otion":4745,"Ġ02":4746,"Ġseed":4747,"Ġcarn":4748,"Ġnotic":4749,"Ġcb":4750,"uka":4751,"rings":4752,"Ġdong":4753,"rete":4754,"Ġfz":4755,"Ġnewsp":4756,"ream":4757,"Ġnail":4758,"Ġshi":4759,"Ġlabor":4760,"arian":4761,"58":4762,"Ġcass":4763,"aska":4764,"Ġhunting":4765,"odes":4766,"Ġgraphics":4767,"Ġsah":4768,"Ġcc":4769,"onic":4770,"Ġcongress":4771,"eless":4772,"Ġislands":4773,"Ġcooking":4774,"Ġtypes":4775,"Ġaustin":4776,"Ġnorm":4777,"Ġpowerpoint":4778,"Ġovers":4779,"Ġcircle":4780,"Ġbach":4781,"Ġlew":4782,"acts":4783,"Ġscore":4784,"Ġiran":4785,"rum":4786,"Ġ44":4787,"Ġshell":4788,"Ġcrime":4789,"Ġchel":4790,"Ġandrew":4791,"arium":4792,"Ġwool":4793,"Ġvalent":4794,"ju":4795,"Ġpag":4796,"Ġthird":4797,"Ġborn":4798,"Ġcontest":4799,"nament":4800,"Ġbrew":4801,"Ġavi":4802,"Ġtrek":4803,"ective":4804,"Ġgoods":4805,"Ġimper":4806,"Ġtrees":4807,"Ġcouple":4808,"Ġclar":4809,"Ġformat":4810,"lan":4811,"Ġaur":4812,"Ġpros":4813,"Ġperiod":4814,"Ġstudies":4815,"Ġvalue":4816,"nik":4817,"Ġscotland":4818,"Ġrise":4819,"eri":4820,"fm":4821,"Ġcopper":4822,"hew":4823,"Ġik":4824,"eur":4825,"eman":4826,"Ġgang":4827,"enz":4828,"Ġpeng":4829,"Ġmouse":4830,"Ġprec":4831,"Ġaluminum":4832,"Ġbeng":4833,"Ġdiscogs":4834,"Ġopin":4835,"Ġkil":4836,"wich":4837,"Ġentre":4838,"athan":4839,"Ġtransl":4840,"Ġnest":4841,"Ġ43":4842,"Ġbarcel":4843,"vet":4844,"Ġsenior":4845,"abeth":4846,"Ġcampus":4847,"arma":4848,"Ġcaptain":4849,"aru":4850,"Ġjum":4851,"Ġtwin":4852,"Ġfuel":4853,"Ġparad":4854,"Ġseek":4855,"Ġfont":4856,"Ġign":4857,"Ġtitan":4858,"boy":4859,"Ġvoc":4860,"Ġjak":4861,"Ġmint":4862,"Ġboots":4863,"Ġmembers":4864,"active":4865,"Ġcomment":4866,"Ġliquid":4867,"Ġmanufacturers":4868,"Ġalm":4869,"Ġmexican":4870,"Ġscholar":4871,"Ġlil":4872,"Ġflex":4873,"Ġsust":4874,"Ġbomb":4875,"Ġgree":4876,"Ġabstract":4877,"Ġveter":4878,"hl":4879,"Ġchat":4880,"Ġexchange":4881,"Ġflow":4882,"Ġshah":4883,"Ġrubber":4884,"Ġnsw":4885,"Ġlegends":4886,"Ġleaves":4887,"Ġpocket":4888,"Ġspark":4889,"Ġsweater":4890,"Ġlaunches":4891,"Ġ<<":4892,"Ġsd":4893,"Ġjual":4894,"Ġchef":4895,"Ġghost":4896,"Ġ37":4897,"Ġfoods":4898,"Ġloop":4899,"Ġstraight":4900,"Ġprinted":4901,"Ġresc":4902,"Ġsyd":4903,"Ġwikiwand":4904,"Ġaesthetic":4905,"Ġgor":4906,"ained":4907,"wall":4908,"Ġliverpool":4909,"Ġtogether":4910,"Ġnative":4911,"Ġindoor":4912,"nie":4913,"Ġfamil":4914,"Ġvic":4915,"ois":4916,"Ġtiger":4917,"tic":4918,"more":4919,"Ġlabel":4920,"ashi":4921,"Ġbridal":4922,"si":4923,"Ġprimary":4924,"Ġbos":4925,"Ġgate":4926,"Ġlogos":4927,"Ġsak":4928,"Ġautomatic":4929,"Ġnfl":4930,"Ġvine":4931,"Ġstadium":4932,"Ġearrings":4933,"rian":4934,"itas":4935,"Ġbee":4936,"Ġposh":4937,"Ġjewell":4938,"eck":4939,"pace":4940,"Ġpieces":4941,"Ġelements":4942,"otte":4943,"igs":4944,"Ġweekly":4945,"Ġvision":4946,"Ġincre":4947,"ivity":4948,"Ġdrama":4949,"mad":4950,"Ġdefinition":4951,"Ġplaying":4952,"Ġoffers":4953,"Ġprepar":4954,"Ġpressure":4955,"enter":4956,"agr":4957,"Ġhaz":4958,"Ġload":4959,"Ġknife":4960,"Ġstack":4961,"Ġdinner":4962,"illo":4963,"esis":4964,"ht":4965,"Ġperform":4966,"idas":4967,"Ġcounter":4968,"Ġbuilt":4969,"jar":4970,"Ġmadrid":4971,"pi":4972,"Ġfilter":4973,"aine":4974,"zen":4975,"Ġclock":4976,"ivo":4977,"Ġalbums":4978,"Ġabb":4979,"Ġjanuary":4980,"Ġwireless":4981,"Ġdallas":4982,"Ġexec":4983,"Ġlaser":4984,"Ġcape":4985,"Ġadventures":4986,"Ġprotection":4987,"Ġjpg":4988,"Ġoverview":4989,"thers":4990,"Ġbenefits":4991,"Ġuniform":4992,"gers":4993,"aid":4994,"Ġud":4995,"Ġrack":4996,"ovic":4997,"Ġseven":4998,"Ġadam":4999,"Ġride":5000,"Ġflav":5001,"cion":5002,"Ġcovers":5003,"Ġsilic":5004,"uv":5005,"tail":5006,"Ġbond":5007,"Ġdy":5008,"Ġmanga":5009,"Ġpav":5010,"Ġholy":5011,"Ġhours":5012,"emic":5013,"erie":5014,"Ġchampionship":5015,"Ġassist":5016,"bro":5017,"Ġeliz":5018,"Ġauthent":5019,"aku":5020,"Ġrobot":5021,"Ġsculpture":5022,"Ġpt":5023,"Ġgoes":5024,"Ġnba":5025,"Ġ08":5026,"Ġbc":5027,"under":5028,"97":5029,"Ġdecorative":5030,"oat":5031,"Ġpine":5032,"Ġkor":5033,"Ġuniverse":5034,"Ġengagement":5035,"itan":5036,"Ġlyn":5037,"Ġalp":5038,"Ġsprings":5039,"Ġgalaxy":5040,"oves":5041,"Ġ05":5042,"Ġacry":5043,"kal":5044,"Ġcomplex":5045,"Ġposs":5046,"Ġastr":5047,"Ġkings":5048,"flix":5049,"case":5050,"Ġplug":5051,"Ġflying":5052,"Ġnaij":5053,"yard":5054,"Ġ52":5055,"ped":5056,"Ġvest":5057,"hs":5058,"Ġbil":5059,"isi":5060,"Ġitems":5061,"Ġbarcelona":5062,"Ġryan":5063,"usa":5064,"ided":5065,"Ġuser":5066,"Ġark":5067,"Ġcbs":5068,"Ġzip":5069,"iere":5070,"Ġeleg":5071,"Ġspecies":5072,"Ġcroc":5073,"Ġcole":5074,"ener":5075,"Ġcompos":5076,"Ġcollections":5077,"Ġdisp":5078,"Ġdubai":5079,"Ġbarr":5080,"Ġlit":5081,"Ġpants":5082,"Ġranch":5083,"Ġprep":5084,"Ġblanc":5085,"Ġsolo":5086,"ened":5087,"Ġkos":5088,"Ġbritain":5089,"Ġtie":5090,"Ġflu":5091,"Ġmant":5092,"Ġ2009":5093,"Ġparks":5094,"Ġpostcard":5095,"Ġpist":5096,"Ġ72":5097,"pression":5098,"atures":5099,"Ġhenry":5100,"ader":5101,"Ġshock":5102,"encil":5103,"Ġmund":5104,"Ġchan":5105,"mel":5106,"Ġdrawings":5107,"Ġjustice":5108,"Ġtaiwan":5109,"ances":5110,"Ġneigh":5111,"Ġwi":5112,"Ġkin":5113,"Ġatlanta":5114,"Ġmk":5115,"Ġorigin":5116,"Ġpsd":5117,"Ġkev":5118,"Ġfebr":5119,"Ġ2008":5120,"Ġinvestig":5121,"bol":5122,"Ġthrow":5123,"bourne":5124,"Ġrate":5125,"92":5126,"Ġpearl":5127,"Ġjazz":5128,"Ġwildlife":5129,"Ġrelief":5130,"Ġog":5131,"oller":5132,"Ġpent":5133,"Ġkol":5134,"Ġgil":5135,"ophy":5136,"ques":5137,"Ġspray":5138,"ares":5139,"Ġsul":5140,"ects":5141,"Ġgrav":5142,"Ġcanadian":5143,"Ġdak":5144,"overs":5145,"Ġcash":5146,"Ġfollowing":5147,"Ġbrok":5148,"Ġ95":5149,"Ġtagged":5150,"Ġmyth":5151,"comes":5152,"Ġsha":5153,"Ġbackgrounds":5154,"Ġvietnam":5155,"urt":5156,"Ġyard":5157,"Ġbronze":5158,"Ġ58":5159,"Ġwales":5160,"Ġsinger":5161,"itten":5162,"93":5163,"Ġguides":5164,"ismo":5165,"Ġinstant":5166,"Ġtrial":5167,"Ġafford":5168,"Ġbart":5169,"ghan":5170,"Ġrings":5171,"Ġcooper":5172,"Ġdatab":5173,"Ġantonio":5174,"Ġsydney":5175,"Ġvegan":5176,"Ġsched":5177,"isha":5178,"Ġcrow":5179,"Ġspin":5180,"Ġindex":5181,"oil":5182,"Ġarms":5183,"Ġcontent":5184,"Ġstructure":5185,"Ġ54":5186,"Ġlanc":5187,"Ġgreece":5188,"Ġgrill":5189,"Ġwaterproof":5190,"Ġ110":5191,"Ġcities":5192,"96":5193,"Ġgroc":5194,"Ġwwe":5195,"Ġmemory":5196,"izes":5197,"Ġremote":5198,"omet":5199,"Ġeven":5200,"Ġdisease":5201,"Ġord":5202,"Ġ78":5203,"Ġmist":5204,"Ġsmok":5205,"Ġprotest":5206,"Ġdas":5207,"ounts":5208,"Ġcasual":5209,"Ġdent":5210,"94":5211,"Ġdriver":5212,"Ġupdates":5213,"olio":5214,"Ġmcc":5215,"uits":5216,"Ġware":5217,"orter":5218,"Ġmud":5219,"ieval":5220,"Ġeagle":5221,"erald":5222,"Ġcinema":5223,"Ġtablet":5224,"Ġoregon":5225,"Ġpainted":5226,"2021":5227,"Ġvehicles":5228,"Ġdecember":5229,"Ġanat":5230,"Ġultr":5231,"Ġ68":5232,"Ġsung":5233,"oration":5234,"Ġboutique":5235,"Ġactivity":5236,"time":5237,"Ġboot":5238,"Ġcondition":5239,"Ġmurder":5240,"mes":5241,"ledge":5242,"Ġhart":5243,"Ġwattpad":5244,"Ġkilled":5245,"Ġregional":5246,"itis":5247,"enix":5248,"oku":5249,"stock":5250,"Ġtube":5251,"'ve":5252,"Ġmaz":5253,"Ġseattle":5254,"Ġcorner":5255,"Ġamong":5256,"Ġhir":5257,"Ġhors":5258,"Ġbrick":5259,"Ġcompan":5260,"Ġcorre":5261,"Ġtops":5262,"Ġ03":5263,"Ġtraff":5264,"Ġshooting":5265,"cn":5266,"Ġbullet":5267,"iper":5268,"Ġariz":5269,"Ġpeakpx":5270,"Ġacrylic":5271,"naija":5272,"Ġhamp":5273,"ugal":5274,"Ġnetflix":5275,"Ġont":5276,"atan":5277,"Ġlaptop":5278,"Ġpillow":5279,"Ġbreakfast":5280,"Ġacid":5281,"oji":5282,"online":5283,"rah":5284,"Ġran":5285,"Ġcontract":5286,"Ġdecal":5287,"Ġrisk":5288,"Ġwhis":5289,"Ġsalv":5290,"Ġsarah":5291,"bul":5292,"Ġanimation":5293,"Ġsustain":5294,"Ġcomplet":5295,"Ġdw":5296,"ardo":5297,"Ġargent":5298,"Ġsams":5299,"Ġtrend":5300,"Ġrights":5301,"Ġagent":5302,"Ġsterling":5303,"Ġwomens":5304,"Ġcats":5305,"Ġmold":5306,"Ġarth":5307,"Ġeco":5308,"Ġeach":5309,"Ġelectronic":5310,"ailed":5311,"Ġgay":5312,"Ġladies":5313,"Ġposhmark":5314,"Ġdos":5315,"Ġniss":5316,"Ġapps":5317,"Ġjesus":5318,"Ġwrestling":5319,"erts":5320,"Ġblade":5321,"Ġstyles":5322,"Ġquestion":5323,"Ġcalendar":5324,"uba":5325,"Ġ600":5326,"ulu":5327,"Ġswed":5328,"Ġweap":5329,"Ġras":5330,"Ġnotebook":5331,"Ġbracelet":5332,"Ġtrim":5333,"Ġsolution":5334,"ibr":5335,"Ġpolitical":5336,"Ġsig":5337,"Ġ101":5338,"Ġlp":5339,"kart":5340,"ieve":5341,"ees":5342,"iko":5343,"Ġpipe":5344,"phia":5345,"Ġcyber":5346,"Ġ85":5347,"ivia":5348,"Ġnamed":5349,"bell":5350,"ince":5351,"hes":5352,"Ġlower":5353,"bus":5354,"Ġbrother":5355,"Ġdess":5356,"Ġ190":5357,"itr":5358,"Ġws":5359,"Ġmight":5360,"Ġfear":5361,"Ġeffects":5362,"eda":5363,"Ġmarsh":5364,"Ġturk":5365,"Ġprinting":5366,"Ġtact":5367,"Ġtodd":5368,"Ġmedieval":5369,"Ġdeg":5370,"Ġsuz":5371,"Ġnd":5372,"Ġnetnaija":5373,"ray":5374,"Ġchemistry":5375,"alia":5376,"Ġks":5377,"Ġexamples":5378,"Ġclay":5379,"azy":5380,"Ġgum":5381,"Ġgoal":5382,"agreen":5383,"Ġnoticias":5384,"ensh":5385,"Ġhousing":5386,"Ġparents":5387,"hd":5388,"Ġcompl":5389,"Ġfzmovies":5390,"Ġgeneration":5391,"atar":5392,"Ġseg":5393,"eni":5394,"Ġhack":5395,"Ġlargest":5396,"Ġknight":5397,"Ġalso":5398,"Ġchemical":5399,"Ġwatercolor":5400,"Ġpoetry":5401,"Ġbutton":5402,"Ġberg":5403,"bag":5404,"wick":5405,"ikes":5406,"cia":5407,"Ġfebruary":5408,"Ġempire":5409,"Ġtra":5410,"Ġautumn":5411,"Ġlak":5412,"Ġbecome":5413,"Ġhunter":5414,"Ġgig":5415,"inas":5416,"Ġadjustable":5417,"avi":5418,"Ġfinish":5419,"atics":5420,"Ġoutlet":5421,"Ġbasic":5422,"asty":5423,"Ġpregn":5424,"van":5425,"Ġdatabase":5426,"Ġcases":5427,"Ġdribb":5428,"Ġarizona":5429,"Ġwhats":5430,"idays":5431,"Ġmul":5432,"adelphia":5433,"Ġ47":5434,"Ġwis":5435,"Ġrio":5436,"Ġunc":5437,"Ġthanks":5438,"Ġahead":5439,"Ġpolitics":5440,"Ġelizabeth":5441,"Ġlawn":5442,"airs":5443,"Ġsayings":5444,"Ġshay":5445,"Ġbin":5446,"Ġmaker":5447,"log":5448,"Ġalbert":5449,"Ġremember":5450,"Ġhashtag":5451,"Ġsequ":5452,"Ġemail":5453,"vention":5454,"Ġnaijagreen":5455,"Ġcamer":5456,"Ġcabinet":5457,"Ġnaijagreenmovies":5458,"tech":5459,"ament":5460,"Ġcartoons":5461,"Ġbenz":5462,"Ġgy":5463,"Ġfeet":5464,"Ġclosed":5465,"Ġgour":5466,"Ġbooking":5467,"Ġtrucks":5468,"Ġrates":5469,"kshire":5470,"Ġtah":5471,"otten":5472,"Ġeastern":5473,"Ġmicrosoft":5474,"Ġconcrete":5475,"Ġpretty":5476,"Ġfiles":5477,"Ġnue":5478,"Ġacross":5479,"Ġquarter":5480,"Ġlazada":5481,"Ġreturns":5482,"Ġalexander":5483,"fire":5484,"Ġmural":5485,"aren":5486,"Ġmixed":5487,"Ġshadow":5488,"Ġchrome":5489,"brid":5490,"pat":5491,"Ġanne":5492,"Ġ1920":5493,"ager":5494,"Ġalways":5495,"ifier":5496,"Ġaffordable":5497,"ilar":5498,"oint":5499,"Ġinfl":5500,"Ġtok":5501,"Ġroute":5502,"Ġdifference":5503,"len":5504,"Ġdribbble":5505,"Ġkas":5506,"Ġmarriage":5507,"Ġ04":5508,"acao":5509,"Ġwhole":5510,"sch":5511,"Ġhits":5512,"Ġstraw":5513,"iza":5514,"terior":5515,"Ġintell":5516,"Ġvid":5517,"Ġyor":5518,"Ġcycling":5519,"Ġcottage":5520,"rich":5521,"Ġshut":5522,"asse":5523,"Ġkrish":5524,"esta":5525,"Ġauthentic":5526,"Ġmotion":5527,"front":5528,"Ġpcs":5529,"Ġsang":5530,"Ġraf":5531,"Ġza":5532,"ounce":5533,"Ġphiladelphia":5534,"Ġune":5535,"Ġshares":5536,"Ġward":5537,"watch":5538,"Ġlift":5539,"Ġrevolution":5540,"Ġbrian":5541,"achi":5542,"ered":5543,"Ġ63":5544,"Ġnote":5545,"Ġbj":5546,"Ġera":5547,"Ġ07":5548,"Ġaus":5549,"Ġregister":5550,"Ġrick":5551,"ually":5552,"Ġexpert":5553,"Ġromantic":5554,"fi":5555,"idence":5556,"Ġriv":5557,"acle":5558,"Ġhyp":5559,"Ġquad":5560,"Ġscientific":5561,"ipart":5562,"Ġjewellery":5563,"inson":5564,"amel":5565,"Ġcolomb":5566,"Ġ59":5567,"Ġdomain":5568,"Ġflood":5569,"Ġnutr":5570,"Ġmg":5571,"Ġepic":5572,"Ġoutfits":5573,"Ġsq":5574,"Ġ2007":5575,"Ġbutterfly":5576,"Ġvas":5577,"Ġnissan":5578,"Ġdesp":5579,"Ġsilhou":5580,"Ġkath":5581,"Ġcateg":5582,"Ġlegal":5583,"Ġupper":5584,"igen":5585,"ulator":5586,"Ġvalve":5587,"Ġcalls":5588,"Ġconfir":5589,"ector":5590,"Ġbrands":5591,"Ġheroes":5592,"Ġstrength":5593,"oka":5594,"Ġsimpl":5595,"ailand":5596,"Ġalchetron":5597,"ucle":5598,"Ġpyr":5599,"Ġkle":5600,"Ġchin":5601,"Ġinsurance":5602,"Ġretr":5603,"yon":5604,"igar":5605,"Ġthen":5606,"quet":5607,"Ġmotiv":5608,"Ġstores":5609,"Ġasp":5610,"hal":5611,"Ġhour":5612,"Ġmole":5613,"Ġpackaging":5614,"wal":5615,"Ġhorror":5616,"Ġstats":5617,"Ġdue":5618,"Ġformula":5619,"Ġdefense":5620,"Ġ1080":5621,"Ġdiet":5622,"Ġplanning":5623,"Ġjosh":5624,"Ġkevin":5625,"Ġjunior":5626,"Ġskull":5627,"Ġbush":5628,"Ġfotos":5629,"Ġsame":5630,"esa":5631,"Ġsexy":5632,"Ġcolon":5633,"Ġenjoy":5634,"Ġhelmet":5635,"eway":5636,"umbers":5637,"Ġfiber":5638,"Ġrefr":5639,"Ġcleaning":5640,"Ġcave":5641,"inks":5642,"Ġstrateg":5643,"Ġreleases":5644,"Ġhiking":5645,"Ġthailand":5646,"Ġbudget":5647,"Ġsection":5648,"ifi":5649,"Ġ53":5650,"Ġsalon":5651,"Ġstunning":5652,"Ġtropical":5653,"Ġhanging":5654,"Ġswimming":5655,"Ġfanpop":5656,"Ġpops":5657,"Ġeu":5658,"Ġ06":5659,"Ġrelationship":5660,"Ġbeginn":5661,"rem":5662,"Ġsince":5663,"agar":5664,"iders":5665,"Ġpatio":5666,"Ġpatrick":5667,"Ġcultural":5668,"osph":5669,"Ġabd":5670,"Ġpolicy":5671,"Ġdial":5672,"ined":5673,"Ġfaith":5674,"Ġanna":5675,"Ġpuzzle":5676,"Ġ46":5677,"Ġted":5678,"Ġdemocr":5679,"Ġlodge":5680,"Ġphoenix":5681,"Ġalf":5682,"embly":5683,"Ġseal":5684,"iors":5685,"Ġsuff":5686,"Ġcredit":5687,"iev":5688,"Ġott":5689,"Ġelite":5690,"angan":5691,"yo":5692,"Ġrabb":5693,"Ġskate":5694,"Ġapplication":5695,"aser":5696,"Ġorient":5697,"Ġobject":5698,"lar":5699,"Ġfreed":5700,"Ġtruth":5701,"Ġlect":5702,"ses":5703,"Ġsewing":5704,"Ġ56":5705,"Ġmarble":5706,"fs":5707,"Ġflickriver":5708,"Ġ51":5709,"Ġthai":5710,"Ġfigur":5711,"tics":5712,"lers":5713,"Ġrules":5714,"Ġkart":5715,"Ġnak":5716,"Ġrv":5717,"'ll":5718,"Ġdemon":5719,"iew":5720,"Ġtheory":5721,"jay":5722,"Ġbrothers":5723,"Ġmarie":5724,"Ġmountains":5725,"emy":5726,"Ġpunj":5727,"Ġfilms":5728,"itzer":5729,"Ġmorg":5730,"enh":5731,"uh":5732,"Ġcompetition":5733,"Ġhindu":5734,"Ġevolution":5735,"Ġcosta":5736,"gal":5737,"aran":5738,"Ġreasons":5739,"Ġgir":5740,"eyeb":5741,"alls":5742,"Ġmemor":5743,"Ġdivers":5744,"Ġfanart":5745,"Ġconv":5746,"Ġrif":5747,"Ġkate":5748,"Ġpositive":5749,"eyeboston":5750,"Ġgazette":5751,"ached":5752,"Ġprogress":5753,"rolet":5754,"Ġdinosaur":5755,"Ġank":5756,"Ġpandemic":5757,"Ġtile":5758,"Ġgon":5759,"Ġcharm":5760,"Ġfried":5761,"Ġgrace":5762,"Ġcatch":5763,"Ġstudios":5764,"Ġspreadshirt":5765,"Ġhs":5766,"Ġmerchand":5767,"Ġchevrolet":5768,"Ġawes":5769,"Ġlum":5770,"Ġbread":5771,"Ġsample":5772,"Ġantiques":5773,"Ġfake":5774,"iest":5775,"Ġosc":5776,"Ġboom":5777,"issa":5778,"Ġcarpet":5779,"Ġsatur":5780,"Ġexhibition":5781,"Ġkaz":5782,"Ġgene":5783,"Ġbars":5784,"Ġadvanced":5785,"Ġdup":5786,"Ġdv":5787,"Ġric":5788,"Ġmb":5789,"Ġproduc":5790,"eston":5791,"roit":5792,"hor":5793,"Ġnr":5794,"apping":5795,"Ġnint":5796,"azzle":5797,"Ġmaur":5798,"Ġfolk":5799,"Ġhello":5800,"ieg":5801,"Ġtourist":5802,"Ġslow":5803,"wy":5804,"Ġsaree":5805,"ku":5806,"Ġsofa":5807,"Ġgian":5808,"Ġfairy":5809,"Ġbackpack":5810,"Ġspeaker":5811,"wide":5812,"Ġcolorful":5813,"Ġ66":5814,"Ġfunction":5815,"Ġsever":5816,"Ġthank":5817,"Ġangle":5818,"elin":5819,"oro":5820,"Ġthing":5821,"Ġcrist":5822,"folio":5823,"Ġchop":5824,"apt":5825,"Ġdum":5826,"Ġtesting":5827,"Ġdebut":5828,"vania":5829,"Ġwol":5830,"Ġtong":5831,"Ġcum":5832,"Ġtes":5833,"Ġdib":5834,"Ġmeasure":5835,"Ġnm":5836,"Ġprincip":5837,"Ġsporting":5838,"Ġwarm":5839,"Ġwitch":5840,"Ġslim":5841,"Ġoutfit":5842,"ublin":5843,"ouver":5844,"Ġillustrated":5845,"Ġjane":5846,"Ġadmin":5847,"Ġstrip":5848,"Ġothers":5849,"oir":5850,"Ġinstrument":5851,"Ġclassroom":5852,"Ġcycle":5853,"Ġdetail":5854,"Ġreach":5855,"Ġ360":5856,"okes":5857,"eme":5858,"Ġsciences":5859,"coln":5860,"inois":5861,"Ġratings":5862,"Ġpitch":5863,"Ġofficer":5864,"lon":5865,"pan":5866,"otes":5867,"Ġshoulder":5868,"Ġbranding":5869,"Ġjoint":5870,"Ġintellig":5871,"Ġcort":5872,"Ġseen":5873,"Ġbam":5874,"obo":5875,"91":5876,"mus":5877,"Ġharm":5878,"Ġhed":5879,"Ġjump":5880,"rat":5881,"Ġtas":5882,"pson":5883,"Ġlincoln":5884,"Ġraz":5885,"Ġcelebrates":5886,"Ġsamsung":5887,"Ġstret":5888,"tim":5889,"Ġbum":5890,"finder":5891,"Ġcruise":5892,"hel":5893,"Ġbeck":5894,"Ġdiscussion":5895,"etic":5896,"cy":5897,"Ġagricult":5898,"Ġcommission":5899,"Ġinflu":5900,"Ġnur":5901,"Ġmanager":5902,"Ġhoriz":5903,"Ġlessons":5904,"Ġprotein":5905,"Ġassembly":5906,"Ġcelebrate":5907,"Ġmoment":5908,"iba":5909,"Ġvik":5910,"Ġ2006":5911,"estra":5912,"Ġ41":5913,"ogy":5914,"Ġnz":5915,"hedr":5916,"Ġemoji":5917,"Ġtol":5918,"Ġsquad":5919,"Ġwhatsapp":5920,"Ġhans":5921,"Ġqueens":5922,"lia":5923,"Ġhonor":5924,"Ġeric":5925,"terest":5926,"opter":5927,"do":5928,"Ġmario":5929,"haus":5930,"unner":5931,"Ġmaterials":5932,"Ġearn":5933,"Ġleading":5934,"Ġlex":5935,"Ġnursery":5936,"Ġresidential":5937,"Ġmessage":5938,"Ġaver":5939,"eling":5940,"Ġceleb":5941,"kt":5942,"Ġelementary":5943,"Ġimportant":5944,"Ġjeans":5945,"Ġrag":5946,"Ġreserve":5947,"Ġ09":5948,"Ġholidays":5949,"Ġtechnical":5950,"Ġbelg":5951,"onde":5952,"Ġelection":5953,"05":5954,"mont":5955,"Ġlicense":5956,"Ġnw":5957,"Ġsimon":5958,"Ġitem":5959,"bird":5960,"Ġunve":5961,"ski":5962,"Ġanthony":5963,"Ġtape":5964,"Ġresume":5965,"Ġbanner":5966,"Ġcostumes":5967,"Ġ98":5968,"Ġclinic":5969,"ishi":5970,"Ġchelsea":5971,"uta":5972,"Ġreports":5973,"Ġatlas":5974,"Ġscen":5975,"Ġrah":5976,"Ġclimb":5977,"Ġ125":5978,"olas":5979,"Ġ62":5980,"ono":5981,"Ġexample":5982,"Ġsilhouette":5983,"Ġvenue":5984,"Ġperu":5985,"lah":5986,"Ġfond":5987,"Ġbrun":5988,"Ġtelegr":5989,"motion":5990,"oca":5991,"Ġqual":5992,"Ġdating":5993,"Ġalong":5994,"Ġrugby":5995,"Ġpitts":5996,"Ġpromo":5997,"Ġhawaii":5998,"Ġzoo":5999,"Ġchip":6000,"Ġrena":6001,"Ġanch":6002,"Ġbotan":6003,"Ġawesome":6004,"Ġwisc":6005,"Ġdil":6006,"Ġ2005":6007,"Ġbean":6008,"Ġrandom":6009,"Ġcherry":6010,"mat":6011,"dam":6012,"Ġlie":6013,"Ġyours":6014,"Ġclinical":6015,"min":6016,"Ġdivision":6017,"Ġbun":6018,"Ġlemon":6019,"Ġgau":6020,"now":6021,"Ġdetroit":6022,"Ġrt":6023,"Ġarsen":6024,"Ġappro":6025,"Ġchoice":6026,"Ġnumbers":6027,"Ġshorts":6028,"Ġbog":6029,"Ġwrap":6030,"pul":6031,"Ġgoth":6032,"avan":6033,"Ġrand":6034,"Ġcollab":6035,"raine":6036,"Ġrecept":6037,"Ġgrocery":6038,"cd":6039,"Ġneeds":6040,"Ġwishes":6041,"Ġhp":6042,"Ġdenver":6043,"sl":6044,"Ġimall":6045,"Ġwid":6046,"Ġlegacy":6047,"Ġworkout":6048,"Ġlith":6049,"Ġcarb":6050,"Ġ57":6051,"Ġcharlotte":6052,"Ġaviation":6053,"Ġartific":6054,"Ġpromotions":6055,"onse":6056,"Ġsf":6057,"Ġteams":6058,"Ġkw":6059,"Ġsolved":6060,"Ġaid":6061,"Ġdirt":6062,"Ġmerchandise":6063,"Ġglobe":6064,"store":6065,"Ġmode":6066,"Ġnos":6067,"Ġslip":6068,"Ġ800":6069,"Ġdiesel":6070,"Ġfinger":6071,"Ġsis":6072,"Ġamid":6073,"put":6074,"Ġhidden":6075,"ivid":6076,"uga":6077,"Ġnucle":6078,"Ġloun":6079,"Ġsurvey":6080,"Ġgrowing":6081,"Ġstephen":6082,"Ġduck":6083,"Ġsupplier":6084,"Ġtelugu":6085,"anny":6086,"Ġportfolio":6087,"Ġbid":6088,"otted":6089,"Ġolympic":6090,"acional":6091,"Ġmig":6092,"Ġbeca":6093,"Ġhardcover":6094,"amer":6095,"ially":6096,"Ġcrisis":6097,"Ġinfant":6098,"Ġcapac":6099,"Ġsister":6100,"Ġrig":6101,"Ġlines":6102,"Ġglasses":6103,"opr":6104,"Ġfred":6105,"anes":6106,"Ġislamic":6107,"Ġgather":6108,"bles":6109,"Ġrocket":6110,"Ġacqu":6111,"Ġscre":6112,"anz":6113,"Ġactive":6114,"Ġarticles":6115,"Ġcutting":6116,"Ġelectrical":6117,"amas":6118,"Ġdhgate":6119,"Ġtoile":6120,"ived":6121,"Ġphase":6122,"Ġ69":6123,"Ġmeat":6124,"Ġcomfort":6125,"Ġshang":6126,"Ġpremiere":6127,"Ġtransm":6128,"Ġnintendo":6129,"Ġrecent":6130,"Ġincluding":6131,"Ġoutside":6132,"Ġapproach":6133,"Ġbug":6134,"Ġbadge":6135,"Ġpilot":6136,"Ġdelic":6137,"Ġexecut":6138,"Ġhyper":6139,"asia":6140,"Ġnort":6141,"Ġ123":6142,"nut":6143,"52":6144,"Ġtony":6145,"Ġintroduction":6146,"Ġdriving":6147,"Ġxl":6148,"Ġturbo":6149,"Ġpotter":6150,"Ġwedd":6151,"Ġrip":6152,"Ġpes":6153,"Ġshaz":6154,"Ġissues":6155,"Ġpolish":6156,"Ġnash":6157,"ingo":6158,"Ġillinois":6159,"nl":6160,"Ġmental":6161,"Ġgent":6162,"Ġplane":6163,"Ġseb":6164,"Ġment":6165,"Ġmush":6166,"ields":6167,"Ġemergency":6168,"Ġgad":6169,"Ġembroid":6170,"Ġrevealed":6171,"Ġrooms":6172,"agi":6173,"Ġpackage":6174,"Ġjason":6175,"Ġbone":6176,"Ġbecause":6177,"cat":6178,"Ġchampion":6179,"Ġgirlfriend":6180,"Ġmetall":6181,"Ġinstruments":6182,"Ġattractions":6183,"Ġpon":6184,"die":6185,"bed":6186,"Ġsoap":6187,"ibs":6188,"wire":6189,"Ġmai":6190,"tion":6191,"Ġeth":6192,"Ġemble":6193,"Ġgur":6194,"Ġtheater":6195,"Ġgia":6196,"onsin":6197,"Ġforward":6198,"Ġprovince":6199,"Ġbrooklyn":6200,"Ġwet":6201,"Ġembroidery":6202,"Ġcosmet":6203,"Ġselect":6204,"cut":6205,"Ġtraffic":6206,"Ġkrist":6207,"Ġarchitects":6208,"Ġleadership":6209,"Ġfotograf":6210,"ozen":6211,"ework":6212,"56":6213,"Ġdash":6214,"este":6215,"ulated":6216,"Ġdublin":6217,"Ġportugal":6218,"Ġbao":6219,"Ġtac":6220,"uge":6221,"Ġrud":6222,"Ġoxford":6223,"Ġcrim":6224,"Ġislam":6225,"uster":6226,"edic":6227,"Ġplac":6228,"Ġpowered":6229,"Ġcp":6230,"Ġorb":6231,"Ġstitch":6232,"Ġhybrid":6233,"cot":6234,"icol":6235,"Ġappear":6236,"Ġmega":6237,"Ġpropos":6238,"Ġnob":6239,"Ġ76":6240,"Ġtir":6241,"uine":6242,"Ġdailymotion":6243,"yen":6244,"stic":6245,"Ġmahar":6246,"Ġbatman":6247,"opher":6248,"Ġlok":6249,"Ġkeral":6250,"Ġjin":6251,"Ġwrite":6252,"Ġbai":6253,"Ġpvc":6254,"Ġplease":6255,"the":6256,"shop":6257,"plement":6258,"Ġwisconsin":6259,"ahan":6260,"Ġyes":6261,"Ġthough":6262,"Ġviews":6263,"ctional":6264,"Ġphysical":6265,"Ġidea":6266,"Ġkansas":6267,"Ġdm":6268,"ault":6269,"lasses":6270,"Ġdiagn":6271,"Ġ180":6272,"Ġpepper":6273,"aron":6274,"Ġnich":6275,"Ġlives":6276,"Ġjal":6277,"Ġproblem":6278,"Ġgamb":6279,"Ġ<>":6280,"Ġstrate":6281,"Ġconsum":6282,"Ġsaturday":6283,"Ġpatients":6284,"Ġisol":6285,"Ġbiggest":6286,"Ġppt":6287,"Ġzazzle":6288,"Ġletters":6289,"Ġpoll":6290,"Ġmissing":6291,"Ġlength":6292,"Ġeuro":6293,"Ġwee":6294,"Ġmapio":6295,"apes":6296,"Ġexercise":6297,"Ġpatterns":6298,"Ġplaza":6299,"Ġexterior":6300,"Ġtamp":6301,"Ġstatistics":6302,"Ġcliparts":6303,"Ġlewis":6304,"Ġkm":6305,"estone":6306,"acher":6307,"Ġgreeting":6308,"Ġbild":6309,"Ġchenn":6310,"Ġcomedy":6311,"mag":6312,"gor":6313,"emony":6314,"Ġcelebration":6315,"Ġartificial":6316,"iji":6317,"Ġvanc":6318,"Ġ'":6319,"Ġdraft":6320,"pk":6321,"ilton":6322,"Ġlob":6323,"Ġbicycle":6324,"Ġ67":6325,"Ġspee":6326,"Ġhaber":6327,"Ġpoland":6328,"gio":6329,"ayan":6330,"lets":6331,"break":6332,"ately":6333,"Ġwings":6334,"Ġdiction":6335,"istration":6336,"Ġfrozen":6337,"Ġclark":6338,"Ġunic":6339,"Ġintroduc":6340,"Ġshazam":6341,"Ġens":6342,"Ġjeep":6343,"Ġpersonalized":6344,"Ġbiology":6345,"encer":6346,"Ġhos":6347,"stick":6348,"Ġ88":6349,"pin":6350,"Ġaudible":6351,"angel":6352,"Ġbelle":6353,"etta":6354,"Ġrescue":6355,"Ġthor":6356,"Ġtent":6357,"anga":6358,"Ġrelated":6359,"Ġstrategy":6360,"Ġinteresting":6361,"54":6362,"dha":6363,"Ġtribute":6364,"Ġmile":6365,"Ġnaz":6366,"apped":6367,"Ġexpos":6368,"Ġgrant":6369,"Ġforeign":6370,"idae":6371,"Ġaquarium":6372,"Ġbrief":6373,"Ġinjury":6374,"Ġpinterest":6375,"Ġalpha":6376,"Ġminimal":6377,"Ġ61":6378,"Ġsensor":6379,"Ġcitiz":6380,"Ġace":6381,"Ġselling":6382,"Ġcomes":6383,"Ġbiz":6384,"Ġboost":6385,"Ġsession":6386,"ething":6387,"Ġmarried":6388,"Ġkerala":6389,"Ġpencil":6390,"igraph":6391,"Ġimagenes":6392,"Ġchennai":6393,"Ġfederal":6394,"Ġsoon":6395,"Ġhear":6396,"Ġgarage":6397,"Ġsmile":6398,"Ġsauce":6399,"Ġschedule":6400,"Ġcelebrities":6401,"Ġkem":6402,"Ġchest":6403,"ikh":6404,"Ġxi":6405,"Ġchal":6406,"Ġspotlight":6407,"Ġskills":6408,"Ġauf":6409,"Ġscrew":6410,"Ġgoss":6411,"Ġmaint":6412,"omi":6413,"icial":6414,"asing":6415,"king":6416,"Ġwants":6417,"Ġpetr":6418,"ibility":6419,"Ġorland":6420,"Ġmej":6421,"tree":6422,"Ġpixel":6423,"Ġpond":6424,"wo":6425,"Ġtaking":6426,"jer":6427,"Ġstring":6428,"Ġstew":6429,"hill":6430,"Ġhipp":6431,"Ġvictory":6432,"weight":6433,"Ġ900":6434,"Ġmau":6435,"Ġzimb":6436,"Ġdans":6437,"iant":6438,"Ġkumar":6439,"ylvania":6440,"Ġmoving":6441,"Ġbrasil":6442,"Ġrach":6443,"Ġedward":6444,"Ġcircuit":6445,"ibi":6446,"Ġcolumbia":6447,"Ġextension":6448,"Ġthunder":6449,"Ġslide":6450,"Ġtopic":6451,"pose":6452,"Ġpoints":6453,"Ġipad":6454,"Ġcompass":6455,"Ġstem":6456,"eration":6457,"isl":6458,"Ġwayfair":6459,"Ġarsenal":6460,"Ġprob":6461,"Ġsplit":6462,"othe":6463,"Ġminnes":6464,"Ġwarehouse":6465,"essed":6466,"atives":6467,"Ġmatthew":6468,"arr":6469,"burn":6470,"ooth":6471,"Ġpra":6472,"Ġindiana":6473,"Ġboyfriend":6474,"ometer":6475,"Ġwinner":6476,"Ġnepal":6477,"53":6478,"Ġngu":6479,"Ġgol":6480,"Ġcuis":6481,"Ġproof":6482,"Ġmam":6483,"kg":6484,"Ġtort":6485,"Ġls":6486,"Ġlun":6487,"Ġreserv":6488,"rets":6489,"Ġglam":6490,"pot":6491,"Ġmonte":6492,"Ġrecomm":6493,"Ġreflect":6494,"Ġspoil":6495,"Ġsummit":6496,"Ġmarath":6497,"Ġdestinations":6498,"Ġdone":6499,"isex":6500,"Ġforces":6501,"Ġjewish":6502,"iah":6503,"Ġprison":6504,"alla":6505,"oty":6506,"aje":6507,"Ġbom":6508,"rain":6509,"Ġgeek":6510,"Ġneon":6511,"Ġspecific":6512,"Ġvancouver":6513,"Ġcorporation":6514,"Ġthreat":6515,"Ġrally":6516,"erse":6517,"Ġindivid":6518,"Ġupgr":6519,"Ġwig":6520,"Ġcay":6521,"Ġwarrior":6522,"Ġentry":6523,"Ġcustomer":6524,"Ġsain":6525,"Ġemot":6526,"ushi":6527,"rell":6528,"Ġknowledge":6529,"Ġutah":6530,"Ġmelbourne":6531,"Ġhut":6532,"umi":6533,"Ġwinning":6534,"Ġceremony":6535,"Ġpartner":6536,"Ġbever":6537,"Ġpont":6538,"Ġgives":6539,"Ġkelly":6540,"Ġvarious":6541,"Ġshoe":6542,"Ġlis":6543,"Ġquant":6544,"Ġverm":6545,"auf":6546,"ogo":6547,"rig":6548,"Ġnoble":6549,"Ġsubs":6550,"Ġacademic":6551,"Ġredfin":6552,"Ġcertific":6553,"Ġgat":6554,"Ġgrande":6555,"Ġbw":6556,"Ġtransformers":6557,"Ġmilan":6558,"Ġhole":6559,"Ġminnesota":6560,"inar":6561,"Ġjur":6562,"Ġmck":6563,"gie":6564,"opia":6565,"Ġtiny":6566,"ued":6567,"Ġbreast":6568,"fan":6569,"Ġproductid":6570,"Ġdiff":6571,"Ġsignature":6572,"Ġeducational":6573,"Ġridge":6574,"Ġpuerto":6575,"Ġvend":6576,"ebooks":6577,"Ġflats":6578,"engers":6579,"Ġcrack":6580,"Ġblind":6581,"Ġsobre":6582,"Ġbeef":6583,"estic":6584,"Ġalab":6585,"anti":6586,"borough":6587,"Ġzen":6588,"Ġfiction":6589,"Ġadapter":6590,"Ġtelevision":6591,"Ġinteractive":6592,"Ġhobby":6593,"Ġengr":6594,"Ġalexand":6595,"Ġmum":6596,"Ġhairst":6597,"02":6598,"Ġcandid":6599,"Ġhunt":6600,"Ġpittsburgh":6601,"low":6602,"Ġthemes":6603,"Ġameric":6604,"Ġadidas":6605,"Ġcrazy":6606,"Ġfighter":6607,"Ġbead":6608,"quer":6609,"oman":6610,"Ġjuan":6611,"Ġkenya":6612,"Ġia":6613,"Ġdeer":6614,"Ġdoors":6615,"Ġcollectible":6616,"ipur":6617,"roy":6618,"Ġonce":6619,"Ġcalcul":6620,"Ġsche":6621,"Ġafghan":6622,"Ġpaw":6623,"Ġmember":6624,"Ġlem":6625,"ruit":6626,"igns":6627,"uxe":6628,"Ġjacob":6629,"Ġfreedom":6630,"ries":6631,"Ġmultiple":6632,"Ġmonths":6633,"uro":6634,"phone":6635,"pre":6636,"Ġboxing":6637,"chain":6638,"Ġcompanies":6639,"Ġrealty":6640,"Ġling":6641,"Ġfirm":6642,"Ġportland":6643,"hai":6644,"Ġmatte":6645,"Ġtib":6646,"eli":6647,"Ġboth":6648,"cular":6649,"Ġds":6650,"esent":6651,"Ġvene":6652,"Ġcalm":6653,"asha":6654,"Ġlud":6655,"apa":6656,"adas":6657,"Ġfs":6658,"jet":6659,"Ġweddings":6660,"Ġthu":6661,"Ġapart":6662,"Ġlen":6663,"Ġlanka":6664,"quest":6665,"Ġsnake":6666,"Ġcnn":6667,"Ġpatri":6668,"Ġinnovation":6669,"oko":6670,"Ġyacht":6671,"0000":6672,"Ġextr":6673,"Ġnou":6674,"file":6675,"Ġ97":6676,"Ġsimilar":6677,"Ġmarketplace":6678,"Ġdave":6679,"Ġcv":6680,"veland":6681,"blog":6682,"Ġdutch":6683,"Ġreporter":6684,"Ġbench":6685,"Ġdanger":6686,"Ġshaped":6687,"rix":6688,"ologies":6689,"Ġgenuine":6690,"tress":6691,"Ġopinion":6692,"Ġopport":6693,"Ġpenns":6694,"Ġbreath":6695,"Ġaccord":6696,"Ġchanges":6697,"Ġlesson":6698,"Ġwang":6699,"Ġabebooks":6700,"aji":6701,"Ġontario":6702,"84":6703,"commod":6704,"Ġmars":6705,"Ġviral":6706,"Ġpron":6707,"Ġfail":6708,"Ġced":6709,"Ġspeech":6710,"Ġnutrition":6711,"inda":6712,"Ġsurface":6713,"Ġparadise":6714,"Ġarrested":6715,"alore":6716,"word":6717,"Ġoptim":6718,"Ġorlando":6719,"onn":6720,"Ġglen":6721,"Ġporcel":6722,"bert":6723,"Ġtwist":6724,"Ġopportun":6725,"Ġwilson":6726,"Ġceiling":6727,"Ġaccommod":6728,"Ġaerial":6729,"Ġreprod":6730,"Ġmunicip":6731,"Ġgourmet":6732,"iology":6733,"omo":6734,"live":6735,"Ġhealthcare":6736,"Ġworksheet":6737,"Ġarrow":6738,"erk":6739,"ei":6740,"Ġdrill":6741,"Ġrect":6742,"Ġimperial":6743,"desert":6744,"Ġeleph":6745,"Ġcompr":6746,"Ġdictionary":6747,"Ġkrishna":6748,"Ġvogue":6749,"Ġpapers":6750,"Ġbent":6751,"Ġceo":6752,"Ġmetrop":6753,"Ġcleveland":6754,"nt":6755,"Ġroller":6756,"Ġbegin":6757,"Ġtig":6758,"Ġlakes":6759,"Ġsilicone":6760,"Ġforec":6761,"ifying":6762,"park":6763,"Ġquiz":6764,"Ġlb":6765,"Ġfinally":6766,"Ġtemperature":6767,"Ġbranch":6768,"iento":6769,"outs":6770,"Ġsomething":6771,"Ġlounge":6772,"Ġknit":6773,"59":6774,"Ġmuscle":6775,"Ġmonday":6776,"Ġboats":6777,"Ġsoph":6778,"Ġconce":6779,"Ġdod":6780,"eezy":6781,"cing":6782,"Ġris":6783,"Ġ74":6784,"ovo":6785,"Ġunisex":6786,"Ġkad":6787,"Ġcarry":6788,"Ġbrings":6789,"Ġsteven":6790,"Ġmiller":6791,"Ġjoh":6792,"Ġskirt":6793,"Ġjennifer":6794,"Ġcompon":6795,"Ġassess":6796,"Ġ2004":6797,"Ġhog":6798,"Ġminute":6799,"Ġreader":6800,"Ġxx":6801,"Ġenvironmental":6802,"Ġein":6803,"Ġ350":6804,"desertcart":6805,"Ġlunch":6806,"Ġevil":6807,"Ġeg":6808,"Ġcruz":6809,"orf":6810,"Ġfighting":6811,"Ġfancy":6812,"Ġforever":6813,"Ġreun":6814,"Ġcambridge":6815,"kl":6816,"flower":6817,"Ġcells":6818,"Ġreleased":6819,"Ġtales":6820,"Ġyorkshire":6821,"Ġreality":6822,"esi":6823,"Ġrm":6824,"Ġtob":6825,"apolis":6826,"Ġdigest":6827,"86":6828,"Ġcommer":6829,"Ġlon":6830,"leri":6831,"Ġpint":6832,"jan":6833,"Ġgw":6834,"Ġeight":6835,"Ġcathedr":6836,"olia":6837,"Ġ77":6838,"Ġstress":6839,"Ġalco":6840,"Ġ73":6841,"inton":6842,"uin":6843,"Ġrecovery":6844,"appd":6845,"Ġchoose":6846,"Ġpets":6847,"Ġsov":6848,"Ġimg":6849,"esto":6850,"boro":6851,"Ġconsider":6852,"Ġuntappd":6853,"Ġhuge":6854,"Ġshield":6855,"Ġresource":6856,"Ġfoam":6857,"Ġeaster":6858,"Ġscenes":6859,"Ġmesh":6860,"Ġsie":6861,"Ġroot":6862,"Ġfaces":6863,"Ġpors":6864,"Ġoklah":6865,"iding":6866,"Ġphotographic":6867,"Ġjustin":6868,"Ġbulk":6869,"Ġnova":6870,"Ġbold":6871,"Ġcuisine":6872,"Ġyi":6873,"Ġvoy":6874,"aire":6875,"Ġresponse":6876,"09":6877,"Ġincred":6878,"std":6879,"Ġcrypt":6880,"Ġhighway":6881,"ships":6882,"oche":6883,"pulse":6884,"Ġpip":6885,"nia":6886,"Ġvolley":6887,"face":6888,"Ġghana":6889,"Ġmagnetic":6890,"Ġproblems":6891,"Ġdevice":6892,"57":6893,"Ġsupreme":6894,"nite":6895,"Ġstrap":6896,"Ġmack":6897,"Ġmovement":6898,"arten":6899,"Ġmick":6900,"wards":6901,"Ġparking":6902,"bt":6903,"51":6904,"Ġdai":6905,"Ġnv":6906,"Ġthick":6907,"Ġconvert":6908,"Ġpens":6909,"Ġsib":6910,"Ġjared":6911,"atta":6912,"Ġfamilies":6913,"Ġremix":6914,"Ġliz":6915,"Ġsag":6916,"Ġkapoor":6917,"89":6918,"Ġbend":6919,"Ġmystery":6920,"Ġerr":6921,"Ġbaj":6922,"andon":6923,"Ġenh":6924,"Ġmayor":6925,"Ġ1970":6926,"ridge":6927,"Ġgund":6928,"Ġanatomy":6929,"Ġelegant":6930,"Ġworkers":6931,"Ġbung":6932,"pts":6933,"Ġparent":6934,"Ġads":6935,"kit":6936,"Ġnewspaper":6937,"alam":6938,"Ġ1960":6939,"Ġbour":6940,"Ġjungle":6941,"Ġkash":6942,"Ġclaims":6943,"Ġmoments":6944,"Ġinstallation":6945,"Ġgradu":6946,"Ġtrails":6947,"Ġufc":6948,"Ġgord":6949,"Ġuz":6950,"Ġgreater":6951,"Ġowner":6952,"avel":6953,"Ġsund":6954,"Ġatlantic":6955,"Ġcolombia":6956,"Ġcul":6957,"Ġphilos":6958,"Ġurdu":6959,"Ġtaste":6960,"Ġns":6961,"Ġadvertising":6962,"Ġcommunication":6963,"tar":6964,"Ġsut":6965,"Ġpottery":6966,"atus":6967,"ustan":6968,"Ġoklahoma":6969,"Ġpeek":6970,"Ġexcell":6971,"Ġcush":6972,"icing":6973,"Ġwick":6974,"Ġtriple":6975,"Ġdistance":6976,"Ġjing":6977,"Ġsony":6978,"law":6979,"Ġhamilton":6980,"cal":6981,"Ġpride":6982,"Ġrecruit":6983,"Ġmonkey":6984,"Ġhousehold":6985,"uum":6986,"Ġmushroom":6987,"Ġhomem":6988,"Ġtus":6989,"etti":6990,"Ġnatur":6991,"Ġeveryone":6992,"Ġhire":6993,"Ġallen":6994,"Ġthous":6995,"Ġchile":6996,"Ġcopy":6997,"ded":6998,"Ġnether":6999,"oodle":7000,"Ġbts":7001,"sav":7002,"look":7003,"asting":7004,"anta":7005,"Ġlut":7006,"Ġspac":7007,"Ġrol":7008,"Ġdelta":7009,"Ġbroken":7010,"Ġmaine":7011,"Ġcalled":7012,"Ġteachers":7013,"Ġpredict":7014,"Ġexpect":7015,"Ġgramm":7016,"Ġwu":7017,"Ġanalytics":7018,"Ġplays":7019,"Ġinches":7020,"Ġshark":7021,"aven":7022,"Ġcem":7023,"Ġglitter":7024,"Ġtriang":7025,"Ġcoal":7026,"Ġpam":7027,"Ġresult":7028,"Ġswiss":7029,"Ġcommerce":7030,"Ġans":7031,"igraphy":7032,"Ġtooth":7033,"Ġcyl":7034,"Ġmouth":7035,"abe":7036,"night":7037,"Ġcategory":7038,"df":7039,"oker":7040,"stdibs":7041,"uar":7042,"Ġharr":7043,"Ġdl":7044,"Ġgloss":7045,"Ġscottish":7046,"ogram":7047,"Ġbapt":7048,"Ġgn":7049,"Ġmoc":7050,"info":7051,"Ġowl":7052,"orp":7053,"Ġdeluxe":7054,"enders":7055,"icul":7056,"Ġarena":7057,"tons":7058,"Ġenterprise":7059,"Ġheld":7060,"Ġspar":7061,"Ġdemand":7062,"Ġjoins":7063,"Ġgp":7064,"Ġdolls":7065,"Ġpierre":7066,"Ġemblem":7067,"Ġplain":7068,"Ġsaudi":7069,"Ġwre":7070,"Ġneighbor":7071,"Ġdust":7072,"icia":7073,"Ġprad":7074,"Ġmachin":7075,"Ġpennsylvania":7076,"Ġeating":7077,"Ġdee":7078,"Ġcountr":7079,"Ġfinance":7080,"Ġbt":7081,"gun":7082,"Ġdonald":7083,"Ġshayari":7084,"Ġexecutive":7085,"Ġbuffalo":7086,"Ġsmooth":7087,"Ġspiritual":7088,"Ġtractor":7089,"Ġhann":7090,"Ġbuildings":7091,"Ġnorway":7092,"Ġbride":7093,"flip":7094,"Ġolive":7095,"Ġvot":7096,"othing":7097,"Ġvolt":7098,"Ġmarina":7099,"Ġvolks":7100,"Ġbillion":7101,"Ġalan":7102,"vn":7103,"Ġserver":7104,"87":7105,"83":7106,"hammer":7107,"Ġlid":7108,"bal":7109,"imi":7110,"Ġquartz":7111,"Ġupcoming":7112,"master":7113,"Ġnine":7114,"Ġcourses":7115,"erton":7116,"print":7117,"03":7118,"Ġbuzz":7119,"Ġgreg":7120,"Ġtier":7121,"Ġresin":7122,"plus":7123,"lists":7124,"Ġprayer":7125,"Ġflipkart":7126,"Ġdreams":7127,"Ġpresents":7128,"rise":7129,"Ġbreed":7130,"Ġwax":7131,"Ġcher":7132,"Ġbis":7133,"Ġsunglasses":7134,"Ġov":7135,"Ġyo":7136,"Ġtactical":7137,"Ġcomparison":7138,"erver":7139,"Ġdecorations":7140,"Ġtexture":7141,"Ġzill":7142,"Ġcrop":7143,"Ġargentina":7144,"thr":7145,"Ġtil":7146,"aud":7147,"Ġarn":7148,"Ġdecl":7149,"Ġrecogn":7150,"Ġtyr":7151,"Ġwrit":7152,"Ġadults":7153,"Ġcroat":7154,"Ġmadison":7155,"Ġessay":7156,"Ġforg":7157,"Ġglow":7158,"Ġumb":7159,"04":7160,"Ġmaison":7161,"Ġdick":7162,"cu":7163,"Ġpony":7164,"din":7165,"pp":7166,"Ġanchor":7167,"iste":7168,"ennial":7169,"issions":7170,"agne":7171,"pix":7172,"rs":7173,"Ġminiature":7174,"lox":7175,"Ġgenius":7176,"Ġchalleng":7177,"Ġscand":7178,"Ġaccident":7179,"mg":7180,"Ġwaste":7181,"Ġcandle":7182,"Ġinspirational":7183,"amics":7184,"oba":7185,"bean":7186,"Ġreh":7187,"Ġln":7188,"edi":7189,"82":7190,"Ġclassified":7191,"Ġgreatest":7192,"Ġindustries":7193,"Ġdidn":7194,"Ġthoughts":7195,"Ġalabama":7196,"Ġvictorian":7197,"Ġbengal":7198,"Ġadop":7199,"Ġbaltim":7200,"Ġchristopher":7201,"Ġsaid":7202,"Ġglas":7203,"Ġrecre":7204,"itted":7205,"ahn":7206,"Ġike":7207,"Ġukraine":7208,"isation":7209,"Ġbaltimore":7210,"lee":7211,"Ġtournament":7212,"Ġpersp":7213,"Ġcompat":7214,"Ġarmor":7215,"Ġleave":7216,"Ġlatin":7217,"Ġeconomy":7218,"Ġhealing":7219,"ometric":7220,"Ġcreated":7221,"Ġporcelain":7222,"Ġbish":7223,"uu":7224,"Ġdavis":7225,"lt":7226,"Ġclassical":7227,"Ġpole":7228,"Ġandy":7229,"ea":7230,"Ġscoot":7231,"Ġvelvet":7232,"esco":7233,"Ġdawn":7234,"Ġdeco":7235,"Ġgabri":7236,"Ġfoss":7237,"Ġchamber":7238,"Ġrivers":7239,"opy":7240,"Ġdancing":7241,"Ġrepresent":7242,"Ġdul":7243,"Ġyet":7244,"Ġalcohol":7245,"ettes":7246,"Ġmathem":7247,"aged":7248,"Ġpla":7249,"imon":7250,"Ġdiss":7251,"Ġinvestment":7252,"Ġoptions":7253,"Ġfortnite":7254,"Ġfame":7255,"Ġswitzer":7256,"Ġcatalog":7257,"Ġcakes":7258,"Ġdiscovery":7259,"Ġalum":7260,"uela":7261,"Ġsend":7262,"Ġliterature":7263,"Ġpricepulse":7264,"boo":7265,"ilo":7266,"Ġcrush":7267,"Ġwan":7268,"Ġporsche":7269,"Ġcrest":7270,"ught":7271,"leans":7272,"elson":7273,"Ġfate":7274,"Ġmx":7275,"Ġcalligraphy":7276,"Ġexplained":7277,"itty":7278,"enos":7279,"Ġworksheets":7280,"biz":7281,"gow":7282,"Ġmodule":7283,"Ġgorge":7284,"emble":7285,"Ġrustic":7286,"Ġbarnes":7287,"itat":7288,"Ġpunch":7289,"Ġrespons":7290,"Ġnursing":7291,"Ġahmed":7292,"Ġmonument":7293,"omes":7294,"Ġdodge":7295,"Ġhyder":7296,"Ġtrou":7297,"Ġmedal":7298,"Ġbubble":7299,"ption":7300,"Ġharley":7301,"etooth":7302,"Ġbalance":7303,"Ġsuk":7304,"Ġpurch":7305,"Ġyamaha":7306,"Ġphysics":7307,"Ġcanyon":7308,"Ġlaura":7309,"Ġdecals":7310,"uran":7311,"Ġmustang":7312,"Ġole":7313,"Ġfreder":7314,"Ġworldwide":7315,"Ġthin":7316,"Ġwow":7317,"ols":7318,"Ġstere":7319,"lie":7320,"Ġhindustan":7321,"Ġiowa":7322,"Ġ2003":7323,"Ġthought":7324,"body":7325,"eborg":7326,"Ġthose":7327,"Ġhats":7328,"Ġstanding":7329,"Ġguns":7330,"Ġcbc":7331,"Ġmorgan":7332,"Ġdeuts":7333,"Ġtale":7334,"Ġflo":7335,"Ġwo":7336,"Ġbluetooth":7337,"bach":7338,"Ġregular":7339,"Ġposted":7340,"Ġescape":7341,"Ġjama":7342,"Ġampl":7343,"haw":7344,"Ġhearts":7345,"Ġcorporate":7346,"Ġtoilet":7347,"ocation":7348,"Ġshore":7349,"Ġion":7350,"Ġhammer":7351,"Ġpem":7352,"Ġsb":7353,"Ġsalad":7354,"Ġtid":7355,"Ġrolling":7356,"Ġgrid":7357,"Ġuber":7358,"Ġjakarta":7359,"Ġsax":7360,"Ġgut":7361,"amo":7362,"500":7363,"Ġscript":7364,"Ġrecap":7365,"Ġsas":7366,"Ġdiecast":7367,"Ġelevation":7368,"Ġsans":7369,"Ġswitzerland":7370,"Ġtt":7371,"Ġblanket":7372,"Ġvolleyball":7373,"wd":7374,"Ġconnection":7375,"ograp":7376,"Ġserial":7377,"Ġknown":7378,"Ġvish":7379,"Ġarchitectural":7380,"Ġtou":7381,"Ġturkish":7382,"lab":7383,"ups":7384,"Ġrider":7385,"Ġ79":7386,"Ġ71":7387,"Ġzu":7388,"Ġruby":7389,"Ġces":7390,"antes":7391,"Ġner":7392,"akt":7393,"Ġvamp":7394,"ared":7395,"ipped":7396,"Ġbound":7397,"Ġost":7398,"Ġtalent":7399,"Ġmits":7400,"aciones":7401,"Ġfinds":7402,"Ġastron":7403,"Ġwand":7404,"Ġreact":7405,"Ġdb":7406,"Ġtack":7407,"wagen":7408,"Ġanderson":7409,"zel":7410,"Ġposition":7411,"ighth":7412,"Ġsuperm":7413,"nn":7414,"Ġwaters":7415,"Ġgratis":7416,"Ġlisa":7417,"Ġstuffed":7418,"dd":7419,"Ġcancel":7420,"Ġcathedral":7421,"ucci":7422,"mc":7423,"06":7424,"oyd":7425,"Ġhydra":7426,"Ġminor":7427,"Ġsweden":7428,"Ġdescription":7429,"Ġmeets":7430,"Ġwednes":7431,"Ġshared":7432,"imeo":7433,"Ġseaf":7434,"ech":7435,"plant":7436,"casts":7437,"Ġserving":7438,"Ġmaple":7439,"Ġef":7440,"Ġwrong":7441,"alu":7442,"Ġmamm":7443,"Ġana":7444,"Ġharris":7445,"Ġdang":7446,"Ġbundle":7447,"rence":7448,"Ġsuzuki":7449,"Ġpublishing":7450,"Ġdian":7451,"Ġalliance":7452,"Ġyog":7453,"Ġcombat":7454,"Ġmeter":7455,"Ġrecon":7456,"Ġbrainly":7457,"mir":7458,"rac":7459,"Ġmigr":7460,"chat":7461,"Ġsites":7462,"ampton":7463,"Ġmaxim":7464,"oise":7465,"Ġcrochet":7466,"Ġ89":7467,"vy":7468,"Ġcoral":7469,"Ġchess":7470,"Ġpolar":7471,"Ġstrike":7472,"Ġcarp":7473,"Ġmiles":7474,"Ġwalker":7475,"Ġalternative":7476,"Ġkg":7477,"Ġkot":7478,"apur":7479,"enia":7480,"Ġolympics":7481,"mingham":7482,"Ġrenov":7483,"Ġcompact":7484,"Ġclasses":7485,"Ġdestination":7486,"Ġlecture":7487,"Ġshaw":7488,"isan":7489,"Ġparl":7490,"Ġnaruto":7491,"Ġjard":7492,"Ġgauge":7493,"Ġbrack":7494,"Ġgown":7495,"Ġshops":7496,"Ġcoins":7497,"yler":7498,"Ġsonic":7499,"Ġalaska":7500,"Ġvimeo":7501,"Ġadvice":7502,"Ġclick":7503,"Ġaccommodation":7504,"Ġcarib":7505,"Ġdesigned":7506,"ouri":7507,"Ġsources":7508,"Ġprogramm":7509,"ahl":7510,"aug":7511,"Ġluis":7512,"Ġlt":7513,"owski":7514,"Ġgill":7515,"Ġalphab":7516,"Ġextract":7517,"Ġreplica":7518,"Ġcontainer":7519,"opl":7520,"Ġkre":7521,"Ġgossip":7522,"Ġsuv":7523,"eler":7524,"Ġgoteborg":7525,"Ġmuk":7526,"Ġspy":7527,"Ġstylish":7528,"Ġrobin":7529,"lington":7530,"Ġterror":7531,"Ġmanufacturing":7532,"Ġlisting":7533,"Ġtorn":7534,"Ġkup":7535,"Ġcg":7536,"xy":7537,"rys":7538,"Ġfisher":7539,"aq":7540,"Ġorleans":7541,"Ġ700":7542,"Ġ750":7543,"uman":7544,"Ġwag":7545,"Ġfrog":7546,"Ġdna":7547,"Ġrocks":7548,"Ġ2002":7549,"Ġwoods":7550,"geon":7551,"elo":7552,"Ġethn":7553,"Ġblues":7554,"Ġheaven":7555,"Ġsao":7556,"nic":7557,"Ġflam":7558,"mouth":7559,"mal":7560,"screen":7561,"Ġios":7562,"Ġbirmingham":7563,"ophone":7564,"Ġsustainable":7565,"eca":7566,"Ġmemories":7567,"Ġmasters":7568,"Ġsmoke":7569,"Ġkolk":7570,"Ġsatell":7571,"Ġshim":7572,"Ġpotential":7573,"ilities":7574,"Ġelephant":7575,"urb":7576,"Ġ1950":7577,"Ġkeyboard":7578,"athy":7579,"Ġresidence":7580,"Ġcz":7581,"Ġredd":7582,"cht":7583,"Ġrepubl":7584,"Ġidentity":7585,"Ġwit":7586,"ologist":7587,"ocal":7588,"Ġreform":7589,"Ġdoct":7590,"Ġchate":7591,"Ġworst":7592,"Ġsharp":7593,"Ġtechnologies":7594,"Ġdiary":7595,"Ġactors":7596,"Ġmitch":7597,"Ġvaccine":7598,"Ġentr":7599,"Ġfolding":7600,"Ġecho":7601,"Ġremoval":7602,"Ġstarting":7603,"Ġrein":7604,"Ġdell":7605,"Ġmatter":7606,"Ġrim":7607,"Ġkul":7608,"Ġnetherlands":7609,"Ġmylov":7610,"Ġtenness":7611,"Ġagre":7612,"Ġinvent":7613,"abay":7614,"Ġclips":7615,"Ġcong":7616,"inel":7617,"Ġnormal":7618,"Ġcigar":7619,"Ġmyloview":7620,"Ġplot":7621,"Ġsoup":7622,"Ġhex":7623,"Ġmundo":7624,"dm":7625,"inding":7626,"hips":7627,"you":7628,"Ġamp":7629,"Ġzillow":7630,"Ġappoint":7631,"Ġcapit":7632,"Ġmechanical":7633,"ingham":7634,"Ġbrist":7635,"Ġreference":7636,"Ġpanor":7637,"Ġrush":7638,"Ġyourself":7639,"oved":7640,"Ġchanging":7641,"Ġgeograph":7642,"ycles":7643,"Ġ92":7644,"Ġmontreal":7645,"nz":7646,"Ġdrinks":7647,"Ġelse":7648,"Ġrural":7649,"Ġorchestra":7650,"Ġpatient":7651,"Ġhyderabad":7652,"Ġhuff":7653,"Ġguru":7654,"Ġbros":7655,"sky":7656,"elier":7657,"Ġcors":7658,"Ġini":7659,"lib":7660,"Ġsurvival":7661,"Ġxbox":7662,"Ġcra":7663,"posters":7664,"Ġbikes":7665,"Ġanimated":7666,"bie":7667,"Ġanswer":7668,"heast":7669,"Ġdegree":7670,"Ġimprove":7671,"awiki":7672,"Ġperm":7673,"Ġbbq":7674,"Ġsheets":7675,"hammad":7676,"Ġowned":7677,"Ġmuslim":7678,"web":7679,"Ġwiz":7680,"Ġistan":7681,"ensions":7682,"Ġtone":7683,"Ġlily":7684,"oday":7685,"Ġmarkets":7686,"item":7687,"Ġhomemade":7688,"ladesh":7689,"Ġphotographs":7690,"Ġbanks":7691,"Ġunicorn":7692,"Ġrelax":7693,"Ġparticip":7694,"icut":7695,"Ġtran":7696,"urst":7697,"iman":7698,"idel":7699,"Ġbs":7700,"Ġlik":7701,"Ġphill":7702,"Ġpowerful":7703,"Ġsuccessful":7704,"iler":7705,"piece":7706,"Ġbaker":7707,"Ġeditorial":7708,"Ġathletic":7709,"Ġorganization":7710,"Ġnuclear":7711,"Ġanswers":7712,"Ġhelic":7713,"Ġdistribution":7714,"Ġcanal":7715,"Ġunderstand":7716,"endra":7717,"Ġnhat":7718,"Ġses":7719,"Ġtweet":7720,"ulations":7721,"Ġsector":7722,"Ġpoem":7723,"acker":7724,"anne":7725,"ably":7726,"Ġ2001":7727,"Ġvt":7728,"Ġrifle":7729,"Ġbust":7730,"Ġ220":7731,"Ġcauses":7732,"Ġreligion":7733,"Ġrup":7734,"Ġtennessee":7735,"Ġnails":7736,"Ġsai":7737,"gov":7738,"Ġlig":7739,"Ġleads":7740,"Ġsod":7741,"Ġkolkata":7742,"Ġgro":7743,"Ġhet":7744,"Ġorthod":7745,"Ġaub":7746,"Ġgodd":7747,"Ġdipl":7748,"Ġshiv":7749,"Ġistanbul":7750,"Ġyel":7751,"fu":7752,"hun":7753,"Ġunderstanding":7754,"Ġdeliver":7755,"Ġclimbing":7756,"Ġsoldier":7757,"Ġiniti":7758,"Ġplaylists":7759,"walk":7760,"Ġwinners":7761,"Ġrefer":7762,"Ġpais":7763,"Ġfew":7764,"Ġheights":7765,"Ġjuice":7766,"Ġkiller":7767,"Ġwednesday":7768,"Ġ96":7769,"Ġnev":7770,"Ġvecteezy":7771,"rom":7772,"sha":7773,"Ġcreating":7774,"Ġcorp":7775,"Ġuv":7776,"Ġswing":7777,"Ġuses":7778,"Ġexcel":7779,"Ġrabbit":7780,"Ġcontroller":7781,"Ġfn":7782,"Ġfeaturing":7783,"Ġscores":7784,"Ġninja":7785,"flow":7786,"Ġvie":7787,"glas":7788,"Ġvalentine":7789,"Ġresolution":7790,"Ġmrs":7791,"Ġhug":7792,"Ġexpans":7793,"atsu":7794,"Ġstatement":7795,"Ġsepar":7796,"Ġcasting":7797,"Ġcocktail":7798,"Ġespan":7799,"arat":7800,"rec":7801,"oring":7802,"Ġwellness":7803,"Ġjonathan":7804,"Ġroblox":7805,"Ġsyl":7806,"Ġcrossing":7807,"Ġpopsugar":7808,"obook":7809,"Ġchill":7810,"amento":7811,"eu":7812,"Ġdispl":7813,"Ġconservation":7814,"Ġintelligence":7815,"Ġsecrets":7816,"Ġshelf":7817,"Ġhamm":7818,"umps":7819,"Ġrhe":7820,"Ġgrab":7821,"aci":7822,"Ġbali":7823,"Ġkarn":7824,"bank":7825,"101":7826,"Ġmachines":7827,"Ġgand":7828,"Ġsuite":7829,"Ġaustria":7830,"atherine":7831,"Ġbrake":7832,"Ġbiological":7833,"Ġzerochan":7834,"agu":7835,"Ġlub":7836,"Ġreason":7837,"Ġboxes":7838,"Ġcharlie":7839,"Ġcree":7840,"Ġdollar":7841,"idos":7842,"Ġpossible":7843,"Ġrichmond":7844,"Ġfleet":7845,"agh":7846,"Ġrising":7847,"aining":7848,"ichi":7849,"rest":7850,"Ġcommand":7851,"Ġamar":7852,"elia":7853,"Ġmargar":7854,"Ġgoals":7855,"Ġcertified":7856,"Ġwarriors":7857,"Ġexperi":7858,"Ġmeas":7859,"Ġnico":7860,"Ġideal":7861,"anche":7862,"Ġchir":7863,"Ġarthur":7864,"Ġimpress":7865,"ounds":7866,"Ġbangalore":7867,"Ġhij":7868,"Ġsuites":7869,"Ġcocon":7870,"brook":7871,"asta":7872,"Ġort":7873,"Ġpsychology":7874,"Ġjaw":7875,"Ġbangladesh":7876,"Ġinsider":7877,"Ġarte":7878,"Ġluck":7879,"ws":7880,"Ġfusion":7881,"Ġcraw":7882,"Ġamy":7883,"Ġwyn":7884,"Ġgraff":7885,"Ġkpop":7886,"Ġmock":7887,"Ġblow":7888,"asion":7889,"Ġvase":7890,"jun":7891,"Ġlod":7892,"Ġht":7893,"inum":7894,"Ġern":7895,"isco":7896,"Ġnagar":7897,"hot":7898,"Ġsweatshirt":7899,"Ġticket":7900,"Ġspecs":7901,"Ġmods":7902,"Ġvacuum":7903,"Ġwanted":7904,"Ġuae":7905,"erta":7906,"Ġmerm":7907,"Ġtimber":7908,"Ġbrewing":7909,"Ġmama":7910,"Ġtill":7911,"Ġventa":7912,"Ġbakery":7913,"ilia":7914,"Ġindividual":7915,"oco":7916,"Ġperfume":7917,"Ġpicks":7918,"Ġbeads":7919,"Ġdoesn":7920,"isch":7921,"Ġrab":7922,"Ġpassion":7923,"Ġetc":7924,"Ġrangers":7925,"Ġfinding":7926,"inge":7927,"Ġcatawiki":7928,"Ġmaryland":7929,"Ġsier":7930,"Ġtonight":7931,"books":7932,"Ġket":7933,"entyr":7934,"Ġembro":7935,"Ġrenew":7936,"Ġchu":7937,"Ġcarlos":7938,"Ġrey":7939,"kel":7940,"ensis":7941,"ango":7942,"Ġxiang":7943,"Ġdoing":7944,"Ġobserver":7945,"Ġemotional":7946,"Ġvirus":7947,"scenter":7948,"Ġgib":7949,"Ġroger":7950,"Ġhund":7951,"Ġcheaper":7952,"Ġjav":7953,"Ġbrig":7954,"uku":7955,"Ġjessica":7956,"oya":7957,"Ġwarhammer":7958,"obile":7959,"bir":7960,"81":7961,"ctions":7962,"wh":7963,"Ġmarin":7964,"Ġartsy":7965,"aping":7966,"Ġoem":7967,"rics":7968,"phot":7969,"inch":7970,"Ġlucky":7971,"gets":7972,"saventyr":7973,"Ġgoteborgsaventyr":7974,"Ġgoteborgsaventyrscenter":7975,"Ġiconic":7976,"ographed":7977,"Ġcinem":7978,"rf":7979,"Ġinject":7980,"Ġkt":7981,"Ġwaterfall":7982,"Ġballet":7983,"Ġgulf":7984,"Ġ1990":7985,"page":7986,"Ġtuc":7987,"Ġaks":7988,"Ġgb":7989,"Ġkirk":7990,"Ġreaction":7991,"Ġtp":7992,"Ġpune":7993,"Ġtray":7994,"Ġdob":7995,"Ġlol":7996,"Ġtav":7997,"Ġwir":7998,"Ġprograms":7999,"Ġ1999":8000,"Ġfount":8001,"Ġvenez":8002,"urai":8003,"Ġapply":8004,"Ġtranslation":8005,"Ġmv":8006,"Ġblocks":8007,"Ġchairs":8008,"oshi":8009,"Ġunkn":8010,"Ġhey":8011,"Ġdiscounts":8012,"Ġships":8013,"Ġhend":8014,"Ġconver":8015,"Ġmasks":8016,"Ġturns":8017,"Ġbec":8018,"Ġsuperst":8019,"Ġsep":8020,"Ġpec":8021,"Ġchronicle":8022,"Ġcasino":8023,"Ġloose":8024,"Ġ1980":8025,"Ġdealers":8026,"Ġkai":8027,"hm":8028,"Ġaux":8029,"Ġmeans":8030,"utt":8031,"ady":8032,"Ġfemin":8033,"Ġtrig":8034,"Ġconse":8035,"elt":8036,"Ġwithin":8037,"Ġcompare":8038,"essa":8039,"uced":8040,"Ġabove":8041,"Ġcodes":8042,"icion":8043,"Ġvolkswagen":8044,"lev":8045,"Ġembroider":8046,"fare":8047,"Ġxin":8048,"orrow":8049,"Ġsalary":8050,"Ġstrawberry":8051,"Ġronald":8052,"stad":8053,"Ġspoon":8054,"apak":8055,"Ġelder":8056,"Ġmend":8057,"Ġitalia":8058,"Ġkentucky":8059,"ention":8060,"Ġavoid":8061,"hand":8062,"Ġretire":8063,"Ġkak":8064,"Ġrequest":8065,"Ġobserv":8066,"food":8067,"las":8068,"Ġparam":8069,"Ġ84":8070,"Ġleban":8071,"Ġhak":8072,"Ġdere":8073,"hoot":8074,"Ġjen":8075,"Ġpolo":8076,"Ġlaws":8077,"Ġmood":8078,"Ġgovernor":8079,"Ġsg":8080,"Ġjas":8081,"oly":8082,"Ġconduct":8083,"Ġreligious":8084,"Ġdz":8085,"Ġtote":8086,"Ġkann":8087,"ische":8088,"Ġabandon":8089,"Ġcroatia":8090,"Ġapplications":8091,"Ġshir":8092,"Ġsneakers":8093,"Ġbarbara":8094,"eed":8095,"pass":8096,"Ġtro":8097,"Ġlayer":8098,"Ġforecast":8099,"Ġabsol":8100,"Ġwarning":8101,"Ġholland":8102,"Ġalphabet":8103,"Ġdirectory":8104,"Ġrit":8105,"Ġtablets":8106,"Ġbuddha":8107,"agan":8108,"Ġroutes":8109,"ctic":8110,"Ġsunrise":8111,"Ġpixabay":8112,"Ġbn":8113,"Ġcollector":8114,"abilia":8115,"Ġfeatured":8116,"Ġsignal":8117,"Ġrope":8118,"ted":8119,"Ġbarrel":8120,"Ġtire":8121,"Ġhaven":8122,"Ġincredible":8123,"Ġdew":8124,"uli":8125,"Ġavec":8126,"Ġgta":8127,"iled":8128,"Ġdek":8129,"attan":8130,"Ġmining":8131,"force":8132,"ebec":8133,"Ġflooring":8134,"Ġpian":8135,"Ġrolls":8136,"Ġcompatible":8137,"Ġsugg":8138,"Ġowners":8139,"Ġgob":8140,"Ġcf":8141,"Ġpunk":8142,"atter":8143,"Ġech":8144,"Ġpale":8145,"ciation":8146,"Ġvul":8147,"Ġcuc":8148,"Ġurg":8149,"Ġfol":8150,"Ġgloves":8151,"Ġpf":8152,"Ġleh":8153,"zech":8154,"hus":8155,"Ġunknown":8156,"Ġpopulation":8157,"Ġlawrence":8158,"ahr":8159,"Ġwifi":8160,"olitan":8161,"Ġpins":8162,"Ġcolored":8163,"atti":8164,"Ġ94":8165,"Ġkoh":8166,"uters":8167,"rot":8168,"300":8169,"Ġnose":8170,"Ġjudge":8171,"Ġterminal":8172,"Ġcua":8173,"Ġgender":8174,"Ġmull":8175,"eder":8176,"ylon":8177,"Ġbottom":8178,"Ġcritical":8179,"Ġfastest":8180,"areness":8181,"Ġsmash":8182,"Ġalmost":8183,"Ġdella":8184,"Ġromance":8185,"Ġsomeone":8186,"icide":8187,"Ġmuz":8188,"Ġferrari":8189,"Ġvertical":8190,"asis":8191,"unte":8192,"Ġgop":8193,"Ġmcdon":8194,"Ġgrove":8195,"Ġian":8196,"Ġwaist":8197,"Ġsatellite":8198,"Ġneighborhood":8199,"fest":8200,"Ġheads":8201,"Ġkang":8202,"lett":8203,"Ġclash":8204,"Ġimprovement":8205,"Ġprosp":8206,"Ġstills":8207,"Ġdevil":8208,"ben":8209,"Ġmedit":8210,"mund":8211,"orney":8212,"Ġadhes":8213,"Ġacou":8214,"Ġgathering":8215,"Ġdeng":8216,"Ġwalls":8217,"uals":8218,"good":8219,"Ġgrou":8220,"Ġawareness":8221,"Ġstretch":8222,"Ġlocations":8223,"otech":8224,"Ġgoddess":8225,"Ġlovely":8226,"js":8227,"Ġexploring":8228,"istor":8229,"ulia":8230,"Ġreveal":8231,"Ġassociates":8232,"lings":8233,"Ġcause":8234,"Ġthinking":8235,"enance":8236,"Ġhigher":8237,"Ġsurr":8238,"Ġaka":8239,"Ġcookies":8240,"idi":8241,"Ġsafari":8242,"Ġbiden":8243,"cos":8244,"Ġriding":8245,"Ġartnet":8246,"Ġkindpng":8247,"Ġsatin":8248,"Ġexpansion":8249,"Ġturb":8250,"Ġmyan":8251,"Ġdrone":8252,"deal":8253,"Ġbry":8254,"Ġjohnny":8255,"Ġnach":8256,"Ġsymph":8257,"Ġlauren":8258,"Ġembroidered":8259,"Ġgust":8260,"Ġzel":8261,"Ġselection":8262,"Ġgs":8263,"Ġcame":8264,"Ġsharma":8265,"Ġtc":8266,"usal":8267,"Ġtl":8268,"Ġspell":8269,"Ġdelicious":8270,"Ġfootage":8271,"ulous":8272,"Ġsynony":8273,"Ġeveryday":8274,"emen":8275,"Ġsink":8276,"Ġdrops":8277,"Ġhorses":8278,"eo":8279,"Ġtalking":8280,"Ġliberty":8281,"atable":8282,"Ġsebast":8283,"fil":8284,"Ġconserv":8285,"Ġguar":8286,"Ġpurpose":8287,"Ġmoore":8288,"Ġcargo":8289,"Ġminutes":8290,"Ġproud":8291,"Ġcosm":8292,"Ġforms":8293,"Ġblouse":8294,"Ġdenn":8295,"Ġvisitors":8296,"illon":8297,"Ġribbon":8298,"Ġswan":8299,"map":8300,"Ġscrap":8301,"Ġzi":8302,"Ġsheep":8303,"ikan":8304,"Ġgraduation":8305,"Ġral":8306,"ende":8307,"Ġcapacity":8308,"abh":8309,"Ġplanner":8310,"Ġpk":8311,"Ġtomorrow":8312,"Ġcontinues":8313,"Ġwinds":8314,"Ġnavig":8315,"Ġbulbs":8316,"Ġ1500":8317,"iker":8318,"Ġfog":8319,"Ġzoom":8320,"Ġthurs":8321,"utch":8322,"Ġhydraul":8323,"Ġges":8324,"Ġez":8325,"Ġvegetable":8326,"Ġmosc":8327,"Ġlockdown":8328,"Ġbeet":8329,"alg":8330,"Ġplated":8331,"Ġbamboo":8332,"Ġtet":8333,"esy":8334,"Ġemma":8335,"clos":8336,"Ġfarmers":8337,"Ġmansion":8338,"Ġbeginners":8339,"Ġdecision":8340,"asan":8341,"Ġpeach":8342,"Ġrated":8343,"Ġmontana":8344,"Ġhaving":8345,"Ġmalay":8346,"Ġmolecular":8347,"Ġcritic":8348,"Ġgymn":8349,"Ġstrugg":8350,"Ġpione":8351,"Ġbald":8352,"Ġroast":8353,"Ġseam":8354,"Ġpharmacy":8355,"Ġdispos":8356,"haust":8357,"Ġcdr":8358,"Ġimmun":8359,"Ġbei":8360,"azer":8361,"Ġbeard":8362,"Ġsentinel":8363,"Ġmoss":8364,"Ġcharger":8365,"Ġcombo":8366,"Ġatm":8367,"Ġplum":8368,"Ġdouglas":8369,"Ġcalc":8370,"Ġharbor":8371,"Ġblvd":8372,"Ġsandwich":8373,"Ġhelps":8374,"150":8375,"Ġpodcasts":8376,"Ġgicle":8377,"igi":8378,"Ġemily":8379,"Ġfits":8380,"Ġmujer":8381,"Ġcoupe":8382,"Ġmats":8383,"Ġsuggest":8384,"Ġgiclee":8385,"Ġmemorabilia":8386,"iolet":8387,"Ġupload":8388,"Ġdesertcart":8389,"Ġkota":8390,"Ġpradesh":8391,"Ġrover":8392,"Ġoptical":8393,"Ġbroadway":8394,"Ġrf":8395,"Ġpays":8396,"Ġphotoc":8397,"Ġwent":8398,"Ġbackyard":8399,"Ġnbc":8400,"Ġmichelle":8401,"Ġ130":8402,"Ġfifa":8403,"Ġdefe":8404,"Ġedin":8405,"Ġannounced":8406,"Ġfrost":8407,"Ġexperts":8408,"rob":8409,"Ġikea":8410,"Ġranking":8411,"Ġdates":8412,"Ġtru":8413,"ders":8414,"Ġexhaust":8415,"Ġstarter":8416,"Ġnights":8417,"Ġpanda":8418,"Ġchord":8419,"Ġuss":8420,"base":8421,"Ġantib":8422,"Ġrico":8423,"Ġcomponents":8424,"Ġadvis":8425,"Ġnaj":8426,"best":8427,"Ġoperation":8428,"Ġfavour":8429,"castle":8430,"Ġmanila":8431,"Ġsuspension":8432,"Ġmanh":8433,"Ġnothing":8434,"Ġlightning":8435,"Ġalleg":8436,"Ġkep":8437,"Ġlah":8438,"Ġ210":8439,"asth":8440,"cester":8441,"Ġgardening":8442,"reader":8443,"Ġdavids":8444,"Ġattend":8445,"uti":8446,"Ġnem":8447,"Ġpuppy":8448,"Ġcact":8449,"Ġwayne":8450,"Ġdenim":8451,"iaz":8452,"pharm":8453,"Ġpp":8454,"Ġmissouri":8455,"Ġcoastal":8456,"Ġdetached":8457,"Ġsach":8458,"Ġmason":8459,"Ġquebec":8460,"Ġdetailed":8461,"Ġhurric":8462,"2020":8463,"Ġgrain":8464,"Ġsynth":8465,"Ġbrill":8466,"Ġnhl":8467,"Ġlater":8468,"Ġsout":8469,"Ġbears":8470,"Ġ93":8471,"kie":8472,"Ġarabic":8473,"Ġfundra":8474,"Ġtues":8475,"Ġceltic":8476,"Ġbuddh":8477,"dc":8478,"Ġprevent":8479,"Ġbenn":8480,"Ġcamb":8481,"Ġjoom":8482,"Ġinfin":8483,"ollo":8484,"shi":8485,"Ġharvest":8486,"limited":8487,"antine":8488,"Ġlal":8489,"rin":8490,"zone":8491,"Ġdrawn":8492,"Ġmlb":8493,"Ġlovers":8494,"Ġconcern":8495,"Ġclassics":8496,"Ġdock":8497,"Ġzap":8498,"hao":8499,"Ġinner":8500,"Ġillustrator":8501,"onge":8502,"Ġnacional":8503,"boards":8504,"Ġmma":8505,"Ġtart":8506,"Ġlegendary":8507,"Ġdeport":8508,"Ġgrip":8509,"Ġspots":8510,"far":8511,"yth":8512,"aho":8513,"Ġlibre":8514,"Ġcanc":8515,"Ġstrat":8516,"Ġmanor":8517,"Ġsympt":8518,"Ġwriter":8519,"Ġprize":8520,"Ġmonthly":8521,"Ġserious":8522,"Ġago":8523,"Ġatom":8524,"cement":8525,"Ġrussell":8526,"Ġguys":8527,"Ġalice":8528,"Ġextreme":8529,"undai":8530,"Ġvisits":8531,"owe":8532,"Ġaa":8533,"Ġtopographic":8534,"Ġdeutsch":8535,"Ġcertificate":8536,"Ġpx":8537,"Ġholding":8538,"enty":8539,"Ġcaribbean":8540,"Ġchateau":8541,"Ġpyth":8542,"Ġalert":8543,"Ġfees":8544,"Ġsyndr":8545,"Ġcollar":8546,"anned":8547,"Ġamber":8548,"Ġplaylist":8549,"Ġderm":8550,"Ġtravels":8551,"Ġlogin":8552,"issance":8553,"Ġbuying":8554,"Ġoffset":8555,"Ġsour":8556,"Ġwrist":8557,"Ġ1998":8558,"Ġsexual":8559,"Ġsailing":8560,"cin":8561,"Ġmoroc":8562,"Ġbotanical":8563,"Ġparade":8564,"Ġshak":8565,"etown":8566,"Ġrailroad":8567,"heart":8568,"Ġpasta":8569,"Ġaffairs":8570,"elor":8571,"city":8572,"Ġwander":8573,"iber":8574,"Ġhoward":8575,"ewood":8576,"Ġreop":8577,"Ġcoconut":8578,"Ġvote":8579,"Ġpray":8580,"rones":8581,"Ġwwii":8582,"Ġromania":8583,"affe":8584,"Ġbegins":8585,"Ġhudson":8586,"Ġtelegraph":8587,"Ġhyundai":8588,"Ġgraffiti":8589,"Ġcharter":8590,"Ġabu":8591,"oso":8592,"Ġluke":8593,"Ġvariety":8594,"Ġweapon":8595,"Ġvw":8596,"Ġups":8597,"Ġsic":8598,"Ġhistoria":8599,"zt":8600,"Ġcach":8601,"Ġcurtain":8602,"Ġattorney":8603,"Ġends":8604,"alis":8605,"Ġmeal":8606,"erb":8607,"Ġvolunte":8608,"aler":8609,"Ġuntuk":8610,"Ġspons":8611,"Ġprofessor":8612,"Ġjab":8613,"Ġrapid":8614,"Ġdied":8615,"Ġisa":8616,"Ġcarrier":8617,"Ġ86":8618,"Ġsight":8619,"Ġpromotion":8620,"Ġanh":8621,"Ġmtg":8622,"udio":8623,"Ġgary":8624,"rant":8625,"ining":8626,"Ġairbn":8627,"inter":8628,"market":8629,"Ġwc":8630,"rett":8631,"wi":8632,"Ġsean":8633,"Ġbeige":8634,"Ġrosa":8635,"mill":8636,"Ġaudiobook":8637,"Ġinteriors":8638,"Ġflags":8639,"Ġreef":8640,"aton":8641,"Ġhaut":8642,"Ġfarms":8643,"Ġcharge":8644,"Ġmetallic":8645,"Ġtables":8646,"Ġbeaches":8647,"atural":8648,"Ġhq":8649,"opp":8650,"Ġish":8651,"Ġnasa":8652,"Ġharga":8653,"Ġbaking":8654,"Ġbabies":8655,"Ġfully":8656,"erno":8657,"Ġgiving":8658,"Ġstarts":8659,"Ġpotato":8660,"Ġrevol":8661,"iso":8662,"Ġframes":8663,"Ġfillable":8664,"iable":8665,"Ġdepart":8666,"Ġassessment":8667,"Ġnickel":8668,"Ġduc":8669,"Ġplates":8670,"Ġdari":8671,"enberg":8672,"Ġswift":8673,"Ġdair":8674,"Ġvillas":8675,"Ġairlines":8676,"Ġgog":8677,"clipart":8678,"Ġczech":8679,"Ġcube":8680,"Ġzimbio":8681,"Ġpeters":8682,"Ġtrag":8683,"Ġbunny":8684,"days":8685,"Ġlaugh":8686,"Ġknee":8687,"fix":8688,"Ġscholarship":8689,"Ġdiabet":8690,"Ġreuters":8691,"Ġboe":8692,"etts":8693,"Ġbikini":8694,"Ġtoddler":8695,"Ġleop":8696,"Ġbreaks":8697,"Ġagriculture":8698,"Ġbehav":8699,"Ġprofession":8700,"bes":8701,"uras":8702,"Ġcharity":8703,"Ġpickup":8704,"Ġdespite":8705,"Ġvern":8706,"Ġxia":8707,"Ġvijay":8708,"edo":8709,"Ġfon":8710,"Ġincrease":8711,"Ġweird":8712,"Ġglasgow":8713,"Ġroses":8714,"Ġinaug":8715,"ahu":8716,"Ġyarn":8717,"Ġbolt":8718,"Ġperman":8719,"Ġtiles":8720,"boat":8721,"isy":8722,"Ġnorthwest":8723,"Ġpregnancy":8724,"Ġnewest":8725,"Ġegyptian":8726,"Ġjimmy":8727,"ertility":8728,"Ġecu":8729,"Ġbruce":8730,"Ġagents":8731,"Ġassass":8732,"Ġhollow":8733,"Ġcollectables":8734,"Ġteeth":8735,"Ġtox":8736,"Ġrectang":8737,"Ġrecommend":8738,"Ġskelet":8739,"ools":8740,"Ġsurprise":8741,"Ġspotted":8742,"Ġexpression":8743,"Ġassault":8744,"akan":8745,"pies":8746,"Ġlanding":8747,"feld":8748,"Ġviking":8749,"Ġmaintenance":8750,"Ġsunny":8751,"Ġyan":8752,"cards":8753,"Ġmessages":8754,"Ġramp":8755,"Ġcomments":8756,"Ġprinter":8757,"Ġgroups":8758,"atoes":8759,"Ġtaken":8760,"Ġthompson":8761,"Ġtiss":8762,"Ġdragons":8763,"Ġamster":8764,"Ġadmission":8765,"Ġcondo":8766,"Ġmermaid":8767,"Ġdeterm":8768,"Ġtrains":8769,"ivos":8770,"Ġbloss":8771,"Ġviolin":8772,"Ġneut":8773,"gas":8774,"yi":8775,"Ġresorts":8776,"unnel":8777,"Ġcentro":8778,"quin":8779,"Ġtrick":8780,"Ġlistings":8781,"Ġconfl":8782,"Ġquint":8783,"Ġmyspace":8784,"Ġchen":8785,"Ġornament":8786,"Ġ91":8787,"Ġprix":8788,"Ġzee":8789,"Ġportraits":8790,"Ġkarl":8791,"Ġfactor":8792,"otta":8793,"Ġsharing":8794,"Ġshad":8795,"Ġairpl":8796,"Ġcushion":8797,"bh":8798,"Ġalltr":8799,"imm":8800,"Ġcurry":8801,"Ġtimeline":8802,"Ġdaw":8803,"Ġchallenges":8804,"Ġcran":8805,"Ġresidents":8806,"Ġsierra":8807,"Ġvat":8808,"Ġministry":8809,"Ġdoctors":8810,"Ġmarks":8811,"Ġvess":8812,"Ġhoa":8813,"Ġfilip":8814,"Ġviolence":8815,"kap":8816,"Ġbroch":8817,"Ġrespond":8818,"Ġvista":8819,"Ġhydro":8820,"Ġtough":8821,"Ġaaron":8822,"Ġsimply":8823,"Ġinsect":8824,"Ġmedi":8825,"Ġchor":8826,"omat":8827,"Ġethi":8828,"Ġzod":8829,"Ġsyndrome":8830,"onne":8831,"Ġclaim":8832,"Ġlaboratory":8833,"Ġvibr":8834,"lay":8835,"Ġinfographic":8836,"Ġneedle":8837,"Ġsense":8838,"Ġbecomes":8839,"uard":8840,"Ġzhi":8841,"Ġmounted":8842,"Ġunf":8843,"Ġalloy":8844,"mania":8845,"Ġshowing":8846,"Ġrw":8847,"Ġsure":8848,"Ġballoon":8849,"Ġkayak":8850,"Ġpressreader":8851,"Ġnashville":8852,"ivor":8853,"icos":8854,"Ġsetting":8855,"Ġornam":8856,"Ġamsterdam":8857,"Ġmachinery":8858,"Ġbeds":8859,"Ġshine":8860,"Ġbulletin":8861,"Ġbeats":8862,"Ġcrane":8863,"Ġresistance":8864,"Ġpngitem":8865,"Ġsounds":8866,"Ġcatering":8867,"Ġrotary":8868,"Ġcelebrating":8869,"Ġstones":8870,"illes":8871,"Ġairbnb":8872,"aham":8873,"Ġbuc":8874,"Ġsteak":8875,"Ġunderground":8876,"Ġhuffpost":8877,"Ġallposters":8878,"Ġdavidson":8879,"eon":8880,"Ġkok":8881,"Ġtests":8882,"Ġcookie":8883,"Ġnt":8884,"Ġlamin":8885,"via":8886,"Ġpublish":8887,"Ġherm":8888,"itters":8889,"Ġresistant":8890,"Ġreel":8891,"Ġbehavior":8892,"amar":8893,"Ġpoor":8894,"Ġfragr":8895,"udo":8896,"will":8897,"auer":8898,"Ġdisord":8899,"Ġeffective":8900,"Ġdealer":8901,"Ġthursday":8902,"Ġpartnership":8903,"Ġrule":8904,"Ġstarted":8905,"Ġalarm":8906,"Ġfriendship":8907,"Ġdorm":8908,"Ġgraf":8909,"irs":8910,"Ġconsulting":8911,"maker":8912,"Ġcylinder":8913,"Ġ87":8914,"erte":8915,"Ġzd":8916,"Ġdolph":8917,"Ġgd":8918,"oux":8919,"Ġavengers":8920,"rick":8921,"Ġsoviet":8922,"Ġhamb":8923,"Ġrut":8924,"Ġalien":8925,"Ġzhu":8926,"Ġtreasure":8927,"isse":8928,"Ġrever":8929,"astics":8930,"Ġue":8931,"Ġweapons":8932,"Ġschl":8933,"Ġsoldiers":8934,"Ġchevy":8935,"Ġnex":8936,"Ġjol":8937,"Ġfountain":8938,"Ġrus":8939,"Ġnaut":8940,"rus":8941,"Ġbeast":8942,"Ġstewart":8943,"Ġmarit":8944,"Ġconnector":8945,"Ġrex":8946,"aby":8947,"Ġsandals":8948,"Ġgluten":8949,"Ġrachel":8950,"Ġchance":8951,"Ġpumpkin":8952,"Ġminiatures":8953,"Ġjohann":8954,"Ġorganiz":8955,"crib":8956,"iera":8957,"Ġcutter":8958,"ukee":8959,"uler":8960,"Ġoppos":8961,"Ġcreat":8962,"Ġbristol":8963,"Ġareas":8964,"Ġfrequ":8965,"stown":8966,"Ġashley":8967,"Ġemployee":8968,"Ġphones":8969,"Ġmyster":8970,"Ġautograph":8971,"Ġballs":8972,"club":8973,"Ġcorrect":8974,"Ġprest":8975,"Ġkod":8976,"Ġeggs":8977,"Ġ160":8978,"fon":8979,"Ġisle":8980,"Ġmoist":8981,"Ġsons":8982,"Ġwright":8983,"Ġdd":8984,"Ġtuesday":8985,"Ġzur":8986,"Ġpastel":8987,"var":8988,"Ġ240":8989,"raj":8990,"Ġfacial":8991,"Ġidol":8992,"Ġcara":8993,"Ġentrepr":8994,"Ġwearing":8995,"abl":8996,"jamin":8997,"Ġwp":8998,"Ġchase":8999,"Ġestately":9000,"Ġburger":9001,"Ġscout":9002,"Ġborrow":9003,"Ġoverst":9004,"Ġmedpharm":9005,"rent":9006,"Ġmedpharmres":9007,"Ġmoh":9008,"atha":9009,"isb":9010,"appa":9011,"Ġtriangle":9012,"foot":9013,"Ġmoth":9014,"eros":9015,"aic":9016,"Ġkara":9017,"Ġamor":9018,"Ġinvol":9019,"Ġpuff":9020,"iatric":9021,"Ġincome":9022,"Ġbanana":9023,"odel":9024,"otr":9025,"Ġpenguin":9026,"Ġmate":9027,"Ġ140":9028,"Ġkamp":9029,"Ġcountries":9030,"ardi":9031,"Ġpall":9032,"Ġsunsh":9033,"omin":9034,"Ġmeh":9035,"Ġmassage":9036,"Ġbella":9037,"Ġbukal":9038,"itos":9039,"Ġmercury":9040,"cont":9041,"opic":9042,"Ġlover":9043,"Ġwait":9044,"Ġcanon":9045,"Ġalltrails":9046,"Ġgross":9047,"Ġchildhood":9048,"power":9049,"Ġsalmon":9050,"Ġduke":9051,"Ġscreensh":9052,"Ġbasil":9053,"Ġtampa":9054,"Ġfacult":9055,"Ġsizes":9056,"Ġsult":9057,"Ġcolumn":9058,"Ġbukalapak":9059,"Ġedinburgh":9060,"iced":9061,"ician":9062,"Ġsham":9063,"Ġiw":9064,"Ġ1995":9065,"Ġprecision":9066,"ologia":9067,"400":9068,"Ġbelgium":9069,"Ġthorn":9070,"Ġhua":9071,"Ġgriff":9072,"Ġlinen":9073,"charge":9074,"Ġqld":9075,"oline":9076,"Ġpurchase":9077,"Ġmorris":9078,"Ġsole":9079,"Ġdir":9080,"Ġtransportation":9081,"yd":9082,"yll":9083,"Ġgundam":9084,"Ġquilt":9085,"Ġmineral":9086,"cla":9087,"Ġmichel":9088,"Ġdairy":9089,"ancing":9090,"Ġverd":9091,"Ġsurgical":9092,"baru":9093,"Ġgorgeous":9094,"Ġemerald":9095,"Ġafghanistan":9096,"Ġmong":9097,"Ġrumah":9098,"Ġages":9099,"gard":9100,"Ġlm":9101,"Ġvampire":9102,"Ġmulticol":9103,"uo":9104,"achus":9105,"Ġanyone":9106,"Ġlung":9107,"Ġsheph":9108,"Ġmoves":9109,"entr":9110,"Ġcharts":9111,"Ġgujar":9112,"see":9113,"Ġguit":9114,"Ġrestoration":9115,"Ġyelp":9116,"gm":9117,"Ġcliff":9118,"Ġmoscow":9119,"Ġsort":9120,"pty":9121,"Ġaltitude":9122,"Ġbeth":9123,"Ġindependence":9124,"ahi":9125,"Ġich":9126,"astock":9127,"Ġsaving":9128,"Ġasc":9129,"Ġfixed":9130,"airie":9131,"Ġleak":9132,"Ġunveils":9133,"'d":9134,"Ġautographed":9135,"bel":9136,"kok":9137,"Ġjug":9138,"Ġcrab":9139,"Ġoval":9140,"Ġcontinental":9141,"Ġsett":9142,"Ġsurpr":9143,"Ġfinder":9144,"Ġhul":9145,"Ġtyler":9146,"Ġparker":9147,"Ġscooter":9148,"Ġactually":9149,"Ġethnic":9150,"hub":9151,"Ġanos":9152,"Ġsev":9153,"Ġebooks":9154,"Ġintel":9155,"Ġtowards":9156,"Ġdean":9157,"Ġcemet":9158,"Ġhawk":9159,"aceae":9160,"emes":9161,"Ġao":9162,"Ġdomestic":9163,"Ġbd":9164,"Ġlipstick":9165,"vents":9166,"olls":9167,"Ġoscar":9168,"Ġupon":9169,"Ġgmb":9170,"Ġmitsub":9171,"Ġtibet":9172,"Ġgps":9173,"aved":9174,"anas":9175,"Ġschw":9176,"Ġdevices":9177,"encing":9178,"Ġpowers":9179,"uca":9180,"Ġbure":9181,"ouses":9182,"Ġgroom":9183,"Ġ1997":9184,"Ġvap":9185,"Ġkeys":9186,"Ġcouns":9187,"Ġdistribut":9188,"Ġlinks":9189,"Ġdag":9190,"lam":9191,"Ġjade":9192,"Ġlich":9193,"Ġming":9194,"ighters":9195,"Ġagu":9196,"Ġleis":9197,"Ġbattles":9198,"Ġchapel":9199,"Ġvand":9200,"Ġlantern":9201,"Ġoperations":9202,"Ġvet":9203,"Ġcreation":9204,"Ġfen":9205,"girl":9206,"Ġbroadcast":9207,"Ġvincent":9208,"Ġcleaner":9209,"Ġgifs":9210,"Ġactual":9211,"enburg":9212,"Ġqing":9213,"Ġarabia":9214,"Ġberry":9215,"Ġjh":9216,"Ġpunjabi":9217,"Ġhalo":9218,"plash":9219,"Ġvenice":9220,"Ġreddit":9221,"Ġhydraulic":9222,"obil":9223,"Ġappre":9224,"Ġinsights":9225,"Ġrx":9226,"Ġseafood":9227,"Ġpab":9228,"Ġthir":9229,"Ġves":9230,"alm":9231,"Ġtransmission":9232,"find":9233,"ija":9234,"Ġvice":9235,"Ġrunner":9236,"Ġspice":9237,"Ġunity":9238,"Ġmitsubishi":9239,"Ġtrap":9240,"Ġston":9241,"Ġrakuten":9242,"Ġdesc":9243,"inet":9244,"Ġsoy":9245,"oti":9246,"home":9247,"grad":9248,"Ġturtle":9249,"Ġrevis":9250,"rock":9251,"Ġdangerous":9252,"Ġgordon":9253,"Ġcomun":9254,"Ġcraig":9255,"Ġcemetery":9256,"Ġeditor":9257,"Ġstrategies":9258,"Ġsushi":9259,"ums":9260,"Ġarchae":9261,"Ġnations":9262,"Ġlarastock":9263,"Ġcout":9264,"Ġej":9265,"Ġknock":9266,"Ġsisters":9267,"Ġalive":9268,"Ġinstruct":9269,"Ġrefriger":9270,"ernity":9271,"600":9272,"Ġlouisiana":9273,"ahub":9274,"uez":9275,"Ġkend":9276,"Ġstreets":9277,"Ġacoustic":9278,"oscope":9279,"astr":9280,"Ġnewspapers":9281,"istani":9282,"Ġisolated":9283,"Ġloan":9284,"Ġrhin":9285,"Ġblonde":9286,"Ġrough":9287,"Ġfounder":9288,"Ġrocky":9289,"Ġwen":9290,"Ġbucket":9291,"Ġlotus":9292,"hat":9293,"Ġhide":9294,"Ġgalleries":9295,"Ġcolumbus":9296,"orth":9297,"Ġgin":9298,"ergy":9299,"Ġmitula":9300,"ytr":9301,"Ġgale":9302,"Ġexotic":9303,"Ġsacred":9304,"Ġtransit":9305,"Ġfaux":9306,"Ġoliver":9307,"Ġcheer":9308,"Ġcontrovers":9309,"elect":9310,"Ġdamage":9311,"Ġchrys":9312,"coin":9313,"Ġroots":9314,"Ġevans":9315,"Ġvil":9316,"Ġbottles":9317,"Ġrash":9318,"Ġduo":9319,"inde":9320,"ittee":9321,"Ġmutual":9322,"Ġvans":9323,"Ġshanghai":9324,"Ġfantastic":9325,"1080":9326,"Ġnit":9327,"Ġcampbell":9328,"Ġtransformation":9329,"bia":9330,"Ġadapt":9331,"Ġfeather":9332,"Ġjackets":9333,"Ġuntil":9334,"Ġtek":9335,"Ġpanc":9336,"plan":9337,"Ġmethods":9338,"Ġ105":9339,"Ġlaf":9340,"Ġkeb":9341,"Ġdiving":9342,"Ġmyanmar":9343,"Ġnelson":9344,"Ġdear":9345,"Ġweeks":9346,"avo":9347,"Ġsymptoms":9348,"Ġcedar":9349,"Ġciud":9350,"Ġplatinum":9351,"Ġabandoned":9352,"estry":9353,"wind":9354,"Ġphilip":9355,"uls":9356,"quote":9357,"Ġclassifieds":9358,"pen":9359,"Ġbulb":9360,"Ġcharged":9361,"Ġsick":9362,"Ġkah":9363,"Ġtrailers":9364,"xl":9365,"weg":9366,"Ġsynt":9367,"Ġpreschool":9368,"awan":9369,"journ":9370,"iph":9371,"ippi":9372,"Ġgala":9373,"ouds":9374,"Ġroc":9375,"ulo":9376,"Ġ82":9377,"Ġroma":9378,"Ġscarf":9379,"mins":9380,"Ġtint":9381,"Ġard":9382,"Ġgap":9383,"iche":9384,"Ġalc":9385,"Ġpregnant":9386,"Ġinsight":9387,"jas":9388,"Ġphant":9389,"lav":9390,"adan":9391,"through":9392,"Ġbernard":9393,"style":9394,"estr":9395,"Ġrefuge":9396,"Ġgovt":9397,"Ġhatch":9398,"Ġsimulator":9399,"india":9400,"Ġsynonyms":9401,"Ġaim":9402,"Ġrp":9403,"dog":9404,"Ġconversion":9405,"ccion":9406,"Ġsusan":9407,"Ġphen":9408,"Ġ1996":9409,"Ġwritten":9410,"jin":9411,"Ġantig":9412,"Ġobl":9413,"Ġthermal":9414,"Ġindic":9415,"Ġsuch":9416,"Ġandrea":9417,"Ġqatar":9418,"jp":9419,"Ġmoz":9420,"Ġisn":9421,"iu":9422,"phones":9423,"build":9424,"dar":9425,"Ġparish":9426,"hall":9427,"Ġbelieve":9428,"imap":9429,"Ġsuperh":9430,"Ġew":9431,"Ġsara":9432,"Ġinfinity":9433,"Ġfigurine":9434,"Ġeve":9435,"ece":9436,"ingen":9437,"Ġdame":9438,"Ġkawaii":9439,"Ġoutline":9440,"bin":9441,"Ġaccording":9442,"Ġentreprene":9443,"ienne":9444,"zon":9445,"Ġmarg":9446,"Ġdp":9447,"Ġlabels":9448,"Ġmeditation":9449,"Ġnay":9450,"Ġ000":9451,"Ġfence":9452,"Ġclamp":9453,"Ġusd":9454,"Ġkeychain":9455,"jos":9456,"Ġhairstyles":9457,"Ġbands":9458,"Ġquan":9459,"uer":9460,"Ġzak":9461,"Ġpython":9462,"oured":9463,"Ġbelow":9464,"Ġdye":9465,"Ġmh":9466,"Ġwealth":9467,"Ġbub":9468,"Ġgest":9469,"Ġtricks":9470,"Ġ83":9471,"Ġthes":9472,"athers":9473,"caa":9474,"Ġadhesive":9475,"Ġhappened":9476,"Ġoven":9477,"Ġtrophy":9478,"Ġgone":9479,"Ġnun":9480,"Ġadvoc":9481,"Ġexplos":9482,"azar":9483,"Ġseasons":9484,"Ġpads":9485,"hard":9486,"Ġfoil":9487,"ondo":9488,"Ġdried":9489,"ively":9490,"Ġcommunities":9491,"Ġdefence":9492,"Ġtowel":9493,"ecca":9494,"Ġcac":9495,"nu":9496,"Ġblend":9497,"drop":9498,"Ġgren":9499,"Ġcustomized":9500,"Ġeats":9501,"Ġeug":9502,"Ġangry":9503,"Ġjail":9504,"Ġcommittee":9505,"Ġmitchell":9506,"Ġjamie":9507,"Ġspoilers":9508,"Ġbrow":9509,"Ġnewcastle":9510,"Ġscoop":9511,"Ġones":9512,"tz":9513,"Ġff":9514,"Ġwonderful":9515,"Ġoverstock":9516,"Ġreceives":9517,"Ġfranklin":9518,"reg":9519,"amon":9520,"Ġnurse":9521,"inth":9522,"Ġlighth":9523,"Ġpermanent":9524,"Ġkilling":9525,"Ġhighest":9526,"Ġmash":9527,"Ġivan":9528,"Ġginger":9529,"Ġchak":9530,"Ġyug":9531,"Ġstationery":9532,"Ġsind":9533,"Ġwsj":9534,"Ġeagles":9535,"deg":9536,"Ġbast":9537,"Ġtechniques":9538,"Ġassort":9539,"Ġmatters":9540,"Ġbrut":9541,"Ġskyline":9542,"Ġgeom":9543,"Ġlebanon":9544,"Ġwake":9545,"Ġassistant":9546,"guide":9547,"Ġfarmhouse":9548,"Ġfung":9549,"Ġpdff":9550,"Ġmassachus":9551,"Ġrestr":9552,"Ġchips":9553,"athi":9554,"Ġzo":9555,"Ġexist":9556,"Ġpakistani":9557,"Ġbearing":9558,"Ġespana":9559,"Ġsocks":9560,"Ġsteem":9561,"Ġupgrade":9562,"Ġmisc":9563,"Ġzhong":9564,"Ġgeometric":9565,"Ġhugh":9566,"acia":9567,"isen":9568,"Ġleisure":9569,"Ġ1200":9570,"enta":9571,"Ġfoll":9572,"Ġnatal":9573,"Ġkav":9574,"Ġmassachusetts":9575,"elles":9576,"Ġleo":9577,"bra":9578,"Ġnewborn":9579,"Ġcontinu":9580,"Ġ1994":9581,"Ġsplash":9582,"Ġsleeping":9583,"Ġlisted":9584,"Ġ365":9585,"Ġconstit":9586,"jee":9587,"Ġmassive":9588,"ucker":9589,"sten":9590,"Ġpdffiller":9591,"antha":9592,"quir":9593,"enson":9594,"Ġgmbh":9595,"robe":9596,"bd":9597,"Ġinjured":9598,"Ġcarnival":9599,"adh":9600,"ods":9601,"kat":9602,"Ġroberts":9603,"Ġcnc":9604,"Ġenamel":9605,"Ġwhisky":9606,"Ġfourth":9607,"Ġcork":9608,"Ġstrand":9609,"otto":9610,"Ġwer":9611,"rik":9612,"Ġkop":9613,"daily":9614,"Ġmou":9615,"Ġgiven":9616,"Ġie":9617,"Ġtracks":9618,"Ġfract":9619,"Ġvl":9620,"Ġmickey":9621,"strom":9622,"Ġfeb":9623,"Ġinvit":9624,"Ġbilly":9625,"Ġcredits":9626,"Ġmiguel":9627,"Ġaccused":9628,"Ġbumper":9629,"Ġenough":9630,"pon":9631,"Ġdiario":9632,"amba":9633,"Ġserie":9634,"game":9635,"Ġdix":9636,"Ġshri":9637,"Ġnuevo":9638,"Ġcactus":9639,"Ġdx":9640,"Ġtrab":9641,"Ġsubm":9642,"Ġterrace":9643,"uly":9644,"Ġkauf":9645,"folk":9646,"inny":9647,"Ġgain":9648,"Ġaluminium":9649,"ivan":9650,"Ġvenues":9651,"Ġmoham":9652,"lari":9653,"Ġguitars":9654,"Ġdung":9655,"Ġkob":9656,"opez":9657,"essions":9658,"tec":9659,"Ġbien":9660,"Ġhilton":9661,"Ġcoaching":9662,"Ġome":9663,"Ġyak":9664,"Ġhass":9665,"Ġpatt":9666,"Ġperth":9667,"alon":9668,"Ġdestimap":9669,"Ġexped":9670,"Ġiraq":9671,"Ġhose":9672,"Ġdownloadable":9673,"omon":9674,"Ġfarming":9675,"Ġzodiac":9676,"Ġflora":9677,"Ġile":9678,"Ġfinn":9679,"Ġintegrated":9680,"Ġcorps":9681,"Ġmuhammad":9682,"inated":9683,"Ġsubaru":9684,"Ġkyle":9685,"Ġ1992":9686,"wap":9687,"Ġhate":9688,"Ġjog":9689,"Ġstamps":9690,"Ġmoto":9691,"Ġkv":9692,"Ġshan":9693,"Ġakt":9694,"Ġallow":9695,"Ġhelicopter":9696,"Ġhighland":9697,"aurus":9698,"Ġkard":9699,"Ġjava":9700,"Ġunlimited":9701,"ewell":9702,"Ġlands":9703,"Ġrook":9704,"Ġwheat":9705,"Ġmilwa":9706,"Ġroads":9707,"Ġrica":9708,"Ġterbaru":9709,"Ġmanif":9710,"Ġimmigr":9711,"yu":9712,"Ġwalter":9713,"Ġkes":9714,"Ġwallet":9715,"ivals":9716,"Ġcompre":9717,"Ġisab":9718,"Ġbibli":9719,"Ġscratch":9720,"Ġpest":9721,"inct":9722,"itory":9723,"Ġpean":9724,"Ġacres":9725,"Ġwei":9726,"Ġwn":9727,"Ġpractical":9728,"Ġherbal":9729,"Ġguo":9730,"Ġthrones":9731,"Ġcontrib":9732,"cles":9733,"Ġtowns":9734,"Ġtoe":9735,"Ġshu":9736,"Ġoral":9737,"Ġmediterr":9738,"utan":9739,"user":9740,"Ġoxy":9741,"Ġtriv":9742,"Ġincludes":9743,"Ġmey":9744,"Ġphilosophy":9745,"Ġgly":9746,"Ġ97814":9747,"images":9748,"Ġsoil":9749,"how":9750,"Ġthi":9751,"olla":9752,"dk":9753,"Ġiceland":9754,"Ġfunko":9755,"Ġcollective":9756,"Ġbless":9757,"Ġ1940":9758,"Ġdynasty":9759,"iot":9760,"Ġmetropolitan":9761,"Ġcoord":9762,"Ġcivic":9763,"Ġprior":9764,"Ġvib":9765,"ocar":9766,"Ġcomput":9767,"Ġvip":9768,"Ġfifth":9769,"Ġdocumentation":9770,"Ġpulse":9771,"Ġfunding":9772,"ascular":9773,"Ġstev":9774,"Ġbeam":9775,"Ġfossil":9776,"atz":9777,"Ġgraham":9778,"Ġtreas":9779,"hof":9780,"Ġangh":9781,"Ġsitting":9782,"Ġprost":9783,"Ġvall":9784,"Ġmarathon":9785,"Ġdevon":9786,"appy":9787,"Ġmarco":9788,"Ġgentle":9789,"eton":9790,"Ġhurricane":9791,"Ġkual":9792,"Ġdynamic":9793,"phy":9794,"otti":9795,"Ġ97815":9796,"Ġvida":9797,"Ġsebastian":9798,"Ġdrinking":9799,"Ġgamer":9800,"Ġpunjab":9801,"Ġremove":9802,"lik":9803,"Ġville":9804,"Ġsunshine":9805,"Ġtrying":9806,"Ġtook":9807,"Ġhouzz":9808,"acon":9809,"Ġdram":9810,"Ġsignific":9811,"Ġtribal":9812,"Ġmagical":9813,"iny":9814,"Ġspeak":9815,"Ġjerry":9816,"Ġinternal":9817,"icient":9818,"Ġfloating":9819,"Ġtend":9820,"Ġkub":9821,"asters":9822,"Ġlevels":9823,"Ġvod":9824,"Ġconsole":9825,"Ġprocessing":9826,"Ġcreator":9827,"Ġfunctional":9828,"Ġsaints":9829,"Ġarkansas":9830,"Ġcompress":9831,"aye":9832,"Ġsights":9833,"idades":9834,"Ġconversation":9835,"Ġlawyer":9836,"ivel":9837,"arket":9838,"Ġcic":9839,"Ġflexible":9840,"Ġdenmark":9841,"Ġbishop":9842,"arak":9843,"Ġabbey":9844,"omen":9845,"Ġvy":9846,"Ġtold":9847,"Ġcongrat":9848,"Ġvanity":9849,"truct":9850,"Ġnoise":9851,"Ġadds":9852,"Ġcreations":9853,"andy":9854,"zn":9855,"Ġfb":9856,"Ġaccept":9857,"pes":9858,"Ġemper":9859,"Ġcinc":9860,"Ġprotector":9861,"assy":9862,"arna":9863,"quis":9864,"kon":9865,"imir":9866,"Ġhomework":9867,"Ġgong":9868,"Ġcorv":9869,"Ġentrance":9870,"Ġvig":9871,"Ġsanct":9872,"Ġdn":9873,"Ġretirement":9874,"Ġarctic":9875,"Ġfacility":9876,"ije":9877,"bit":9878,"Ġfry":9879,"atos":9880,"mate":9881,"Ġshift":9882,"Ġmartial":9883,"aram":9884,"anca":9885,"Ġcypr":9886,"Ġholds":9887,"Ġalumni":9888,"immer":9889,"Ġmilwaukee":9890,"Ġwatching":9891,"enza":9892,"andra":9893,"rome":9894,"Ġsubst":9895,"Ġsponge":9896,"Ġguil":9897,"Ġsuits":9898,"Ġspiral":9899,"Ġcarved":9900,"Ġcoil":9901,"Ġtwins":9902,"Ġshowcase":9903,"Ġ1993":9904,"Ġbare":9905,"Ġemployees":9906,"Ġlaund":9907,"Ġlcd":9908,"music":9909,"Ġmilitar":9910,"Ġderby":9911,"Ġgothic":9912,"ss":9913,"inals":9914,"Ġbusinesses":9915,"360":9916,"icit":9917,"Ġpanels":9918,"Ġvu":9919,"Ġmodi":9920,"Ġcres":9921,"Ġconsumer":9922,"ically":9923,"ilation":9924,"Ġbij":9925,"Ġformal":9926,"eti":9927,"Ġthemed":9928,"Ġharbour":9929,"Ġalfred":9930,"urga":9931,"teria":9932,"Ġalleged":9933,"Ġcollins":9934,"atra":9935,"Ġimaging":9936,"Ġfaculty":9937,"bee":9938,"Ġdispens":9939,"Ġangels":9940,"Ġbooth":9941,"giving":9942,"ading":9943,"Ġstanley":9944,"dan":9945,"Ġsummary":9946,"Ġrenaissance":9947,"Ġshade":9948,"Ġcosmetics":9949,"Ġdivor":9950,"Ġsik":9951,"alan":9952,"oki":9953,"Ġlinear":9954,"hp":9955,"Ġtells":9956,"Ġhoy":9957,"Ġcontinue":9958,"Ġpacks":9959,"Ġarrang":9960,"iament":9961,"atem":9962,"Ġdigit":9963,"Ġboards":9964,"rina":9965,"Ġingred":9966,"Ġmoor":9967,"Ġbedrooms":9968,"anto":9969,"Ġsek":9970,"Ġbrazilian":9971,"Ġappe":9972,"Ġempty":9973,"Ġalam":9974,"Ġhari":9975,"Ġbons":9976,"Ġwt":9977,"lection":9978,"Ġchester":9979,"Ġzam":9980,"Ġecl":9981,"Ġgrup":9982,"Ġclas":9983,"zan":9984,"Ġnie":9985,"Ġpork":9986,"Ġsupplement":9987,"Ġhumor":9988,"Ġmurray":9989,"Ġunits":9990,"rt":9991,"Ġfid":9992,"eves":9993,"Ġnoi":9994,"illas":9995,"Ġarcade":9996,"rie":9997,"zed":9998,"Ġplaystation":9999,"Ġdocs":10000,"Ġstrange":10001,"azi":10002,"Ġbeta":10003,"Ġserge":10004,"Ġcuba":10005,"marks":10006,"Ġlup":10007,"Ġtelesc":10008,"Ġmaharash":10009,"unda":10010,"istro":10011,"Ġstein":10012,"Ġivory":10013,"Ġ1991":10014,"rique":10015,"Ġ3000":10016,"Ġkx":10017,"Ġphotoshoot":10018,"Ġcair":10019,"Ġdus":10020,"Ġnost":10021,"chair":10022,"hin":10023,"Ġlose":10024,"Ġolx":10025,"Ġtrips":10026,"Ġgameplay":10027,"250":10028,"Ġhamburg":10029,"Ġsamurai":10030,"Ġshamp":10031,"Ġvisiting":10032,"Ġfinals":10033,"Ġyuan":10034,"Ġgreens":10035,"arya":10036,"hir":10037,"Ġlinux":10038,"Ġmoi":10039,"Ġarqu":10040,"igur":10041,"Ġjulia":10042,"Ġauthority":10043,"Ġvlad":10044,"Ġtradition":10045,"Ġcitizen":10046,"Ġanak":10047,"Ġ1969":10048,"Ġperspective":10049,"Ġ450":10050,"Ġpud":10051,"emi":10052,"Ġ1968":10053,"Ġgerm":10054,"Ġespn":10055,"Ġthousands":10056,"adol":10057,"Ġpaj":10058,"Ġnoir":10059,"icas":10060,"Ġhosts":10061,"Ġfy":10062,"Ġdrain":10063,"Ġprediction":10064,"fy":10065,"Ġyum":10066,"Ġlions":10067,"Ġranked":10068,"Ġpus":10069,"Ġgc":10070,"Ġknot":10071,"iq":10072,"Ġexperim":10073,"Ġabuse":10074,"Ġtrac":10075,"Ġcarter":10076,"inos":10077,"Ġinvitation":10078,"odor":10079,"Ġhawai":10080,"anco":10081,"aten":10082,"Ġcolonial":10083,"Ġmais":10084,"Ġpatrol":10085,"Ġsta":10086,"Ġreported":10087,"Ġpouch":10088,"Ġregistration":10089,"Ġspecifications":10090,"working":10091,"tha":10092,"Ġcommander":10093,"Ġcincinn":10094,"Ġkeeps":10095,"Ġalone":10096,"Ġkut":10097,"Ġjie":10098,"Ġinvestigation":10099,"track":10100,"bay":10101,"ulum":10102,"loe":10103,"Ġmango":10104,"Ġholly":10105,"Ġpricing":10106,"enced":10107,"Ġcoded":10108,"Ġevidence":10109,"Ġextended":10110,"Ġruth":10111,"shirts":10112,"Ġkaren":10113,"Ġwak":10114,"Ġsouven":10115,"Ġphu":10116,"Ġlg":10117,"Ġwelding":10118,"Ġtrending":10119,"Ġyank":10120,"Ġjelly":10121,"Ġmann":10122,"Ġtian":10123,"apple":10124,"Ġtf":10125,"Ġloves":10126,"Ġlegs":10127,"Ġorg":10128,"Ġairplane":10129,"Ġnir":10130,"Ġbian":10131,"Ġthumb":10132,"iar":10133,"Ġdice":10134,"otherapy":10135,"asant":10136,"Ġdys":10137,"Ġparliament":10138,"Ġhag":10139,"oire":10140,"Ġlots":10141,"bad":10142,"Ġconnecticut":10143,"Ġambass":10144,"olds":10145,"Ġsultan":10146,"rella":10147,"Ġhm":10148,"iciency":10149,"Ġclaire":10150,"Ġpref":10151,"Ġanghami":10152,"Ġinstructions":10153,"Ġcec":10154,"Ġcovered":10155,"Ġplayoff":10156,"prop":10157,"Ġchampagne":10158,"Ġturner":10159,"vac":10160,"Ġpalest":10161,"Ġdepth":10162,"Ġlj":10163,"Ġneo":10164,"Ġcage":10165,"Ġfasc":10166,"Ġadvance":10167,"Ġvitamin":10168,"Ġyas":10169,"Ġsinging":10170,"Ġfavourite":10171,"Ġanx":10172,"ancer":10173,"Ġwarren":10174,"Ġfender":10175,"Ġmadh":10176,"anni":10177,"Ġdiversity":10178,"Ġtshirt":10179,"Ġpalette":10180,"Ġkia":10181,"Ġlighthouse":10182,"Ġutility":10183,"Ġpublications":10184,"Ġdocumentary":10185,"cam":10186,"iate":10187,"Ġals":10188,"Ġreunion":10189,"Ġknights":10190,"Ġstroke":10191,"Ġvoyage":10192,"Ġdessert":10193,"jack":10194,"Ġcincinnati":10195,"Ġmobil":10196,"bek":10197,"Ġcouples":10198,"Ġchampionships":10199,"eeper":10200,"Ġclouds":10201,"Ġluk":10202,"Ġchaos":10203,"Ġranger":10204,"ande":10205,"km":10206,"Ġslides":10207,"Ġfelt":10208,"Ġzum":10209,"Ġerror":10210,"Ġadded":10211,"Ġdrew":10212,"Ġjunk":10213,"Ġsecondary":10214,"Ġterry":10215,"Ġagreement":10216,"usalem":10217,"Ġstereo":10218,"Ġpoems":10219,"Ġcourier":10220,"Ġamph":10221,"Ġalter":10222,"Ġloy":10223,"arios":10224,"Ġmidi":10225,"Ġpikpng":10226,"Ġnevada":10227,"Ġipl":10228,"Ġdive":10229,"class":10230,"Ġfork":10231,"Ġevangel":10232,"Ġmississ":10233,"Ġadvant":10234,"Ġjets":10235,"Ġbenjamin":10236,"Ġfields":10237,"Ġhedge":10238,"Ġpov":10239,"ebe":10240,"Ġralph":10241,"Ġjamaica":10242,"Ġbash":10243,"Ġaverage":10244,"Ġchad":10245,"Ġpersonality":10246,"Ġblast":10247,"Ġneil":10248,"Ġskys":10249,"Ġrepe":10250,"Ġperry":10251,"ourt":10252,"Ġhelm":10253,"Ġ1989":10254,"Ġfinland":10255,"Ġador":10256,"Ġarbor":10257,"Ġpanama":10258,"Ġlinda":10259,"Ġpyram":10260,"Ġmathematics":10261,"eny":10262,"Ġmediterrane":10263,"Ġlaure":10264,"Ġcups":10265,"Ġvital":10266,"Ġaccessory":10267,"Ġtb":10268,"inho":10269,"Ġrept":10270,"Ġchanged":10271,"Ġliga":10272,"Ġshepherd":10273,"Ġleeds":10274,"Ġverde":10275,"Ġamanda":10276,"Ġbhag":10277,"Ġexplorer":10278,"Ġeval":10279,"Ġlever":10280,"azzi":10281,"orph":10282,"ignment":10283,"Ġstair":10284,"Ġorchid":10285,"mah":10286,"dles":10287,"Ġnicole":10288,"bas":10289,"Ġspeakers":10290,"Ġreception":10291,"Ġnebr":10292,"Ġsamuel":10293,"Ġsnack":10294,"Ġincluded":10295,"Ġlucas":10296,"Ġorthodox":10297,"Ġpinclipart":10298,"Ġmatrix":10299,"Ġinver":10300,"Ġglory":10301,"Ġdibuj":10302,"atin":10303,"Ġcorona":10304,"Ġbeij":10305,"Ġgods":10306,"Ġviolet":10307,"Ġgarcia":10308,"uana":10309,"Ġguild":10310,"Ġunsplash":10311,"Ġdome":10312,"esse":10313,"Ġimpl":10314,"Ġfeeling":10315,"ernet":10316,"Ġbulgar":10317,"Ġgraduate":10318,"Ġferry":10319,"Ġquiet":10320,"Ġclutch":10321,"Ġbrochure":10322,"Ġsymphony":10323,"Ġmarshall":10324,"Ġrin":10325,"Ġpackages":10326,"nis":10327,"Ġwines":10328,"Ġmim":10329,"Ġspear":10330,"Ġabsor":10331,"Ġbracket":10332,"Ġtask":10333,"110":10334,"Ġsuperc":10335,"Ġmunicipal":10336,"Ġgranite":10337,"onna":10338,"Ġchronicles":10339,"blo":10340,"Ġnaval":10341,"Ġjake":10342,"games":10343,"icio":10344,"Ġwhale":10345,"Ġmonitoring":10346,"Ġnotre":10347,"Ġspaces":10348,"atur":10349,"Ġjerusalem":10350,"Ġheating":10351,"Ġlime":10352,"Ġwaves":10353,"lot":10354,"Ġchibi":10355,"Ġping":10356,"Ġnotice":10357,"Ġrasp":10358,"Ġpenins":10359,"Ġprofit":10360,"Ġtrainer":10361,"Ġbert":10362,"Ġgrammar":10363,"Ġelim":10364,"Ġsilent":10365,"Ġshiva":10366,"Ġgabriel":10367,"Ġdrugs":10368,"120":10369,"Ġmejores":10370,"Ġdt":10371,"Ġgiants":10372,"Ġciudad":10373,"ulture":10374,"Ġadams":10375,"Ġgonz":10376,"Ġmarker":10377,"Ġepisodes":10378,"Ġdao":10379,"Ġautomation":10380,"Ġevol":10381,"roe":10382,"Ġmast":10383,"Ġoriental":10384,"Ġaged":10385,"Ġbarbie":10386,"Ġqueensland":10387,"nell":10388,"Ġlightweight":10389,"Ġcaf":10390,"Ġgoat":10391,"Ġwoven":10392,"Ġcamps":10393,"zh":10394,"Ġstu":10395,"iw":10396,"Ġcooling":10397,"Ġlaunched":10398,"Ġregul":10399,"Ġrend":10400,"Ġreverse":10401,"Ġhorizon":10402,"arus":10403,"Ġbitcoin":10404,"Ġlv":10405,"2019":10406,"Ġxs":10407,"pres":10408,"acha":10409,"heet":10410,"Ġpioneer":10411,"Ġdengan":10412,"Ġclubs":10413,"Ġcruc":10414,"Ġsymbols":10415,"Ġsnapdeal":10416,"Ġfalcon":10417,"allow":10418,"Ġih":10419,"Ġflorence":10420,"Ġburning":10421,"Ġairs":10422,"Ġhampshire":10423,"Ġ1930":10424,"oodles":10425,"Ġeste":10426,"Ġfutbol":10427,"Ġbisc":10428,"Ġlease":10429,"wer":10430,"Ġpiet":10431,"Ġspeaks":10432,"Ġbulld":10433,"lio":10434,"Ġcoverage":10435,"Ġemir":10436,"Ġdisapp":10437,"mans":10438,"Ġcartoonstock":10439,"Ġloud":10440,"Ġidaho":10441,"Ġrb":10442,"Ġcro":10443,"icht":10444,"Ġnigerian":10445,"Ġofficials":10446,"Ġlayout":10447,"Ġfrases":10448,"Ġzomb":10449,"Ġpirate":10450,"Ġcloset":10451,"Ġmalayalam":10452,"Ġpue":10453,"Ġfeder":10454,"Ġdakota":10455,"Ġwv":10456,"Ġcirca":10457,"empt":10458,"ewalls":10459,"Ġmari":10460,"Ġpistol":10461,"Ġhac":10462,"Ġmaya":10463,"Ġbarry":10464,"Ġfauc":10465,"Ġ230":10466,"Ġbangkok":10467,"Ġbobby":10468,"Ġclearance":10469,"ega":10470,"Ġbroo":10471,"Ġchur":10472,"Ġwired":10473,"Ġkeith":10474,"Ġsuperman":10475,"sex":10476,"Ġnetworks":10477,"Ġlite":10478,"search":10479,"Ġankle":10480,"utter":10481,"Ġmotorcycles":10482,"Ġkunst":10483,"aires":10484,"Ġspicy":10485,"eva":10486,"brite":10487,"Ġdestiny":10488,"Ġouts":10489,"Ġbeginner":10490,"Ġtecn":10491,"Ġtrivia":10492,"Ġspirits":10493,"Ġsard":10494,"Ġmississippi":10495,"1000":10496,"Ġhike":10497,"Ġindigen":10498,"Ġnebraska":10499,"Ġmaharashtra":10500,"atchi":10501,"Ġwordpress":10502,"Ġsage":10503,"Ġfiref":10504,"Ġpuzzles":10505,"Ġtracker":10506,"Ġalto":10507,"Ġcuff":10508,"odia":10509,"Ġsuccul":10510,"Ġmosque":10511,"ystem":10512,"opes":10513,"ovan":10514,"andi":10515,"Ġnorman":10516,"Ġjue":10517,"Ġfinale":10518,"Ġtoxic":10519,"hee":10520,"Ġbasics":10521,"Ġimgflip":10522,"Ġlowest":10523,"Ġfellow":10524,"Ġ1967":10525,"Ġlowes":10526,"esha":10527,"Ġbiod":10528,"enga":10529,"Ġcogn":10530,"Ġcottages":10531,"Ġcaught":10532,"Ġporter":10533,"Ġpose":10534,"Ġretreat":10535,"uni":10536,"Ġtrong":10537,"Ġfrag":10538,"ataka":10539,"Ġberm":10540,"Ġdiana":10541,"Ġshampoo":10542,"Ġannounce":10543,"Ġcommunications":10544,"Ġteddy":10545,"Ġgrape":10546,"lem":10547,"Ġtomb":10548,"Ġsuperior":10549,"Ġtracking":10550,"Ġeuropa":10551,"enas":10552,"Ġmighty":10553,"Ġrevel":10554,"Ġminimalist":10555,"Ġprogramme":10556,"Ġwisdom":10557,"Ġspectrum":10558,"Ġshakes":10559,"Ġinflatable":10560,"Ġaqua":10561,"etime":10562,"Ġvienna":10563,"Ġmete":10564,"Ġnearly":10565,"uitton":10566,"Ġtres":10567,"itals":10568,"Ġtrium":10569,"sv":10570,"Ġdale":10571,"Ġexpand":10572,"Ġrealistic":10573,"pir":10574,"Ġcrunch":10575,"Ġminim":10576,"Ġhappiness":10577,"Ġrecreation":10578,"Ġdemo":10579,"Ġblossom":10580,"Ġpedro":10581,"Ġinfras":10582,"Ġorganizer":10583,"Ġsuperhero":10584,"Ġlimit":10585,"kov":10586,"Ġzag":10587,"Ġhelping":10588,"Ġpied":10589,"Ġseas":10590,"Ġtommy":10591,"Ġfoster":10592,"fre":10593,"Ġ1900":10594,"Ġhearing":10595,"kir":10596,"Ġwalnut":10597,"Ġtitanium":10598,"Ġorders":10599,"Ġmog":10600,"Ġramb":10601,"Ġnig":10602,"Ġvuitton":10603,"Ġfixt":10604,"Ġparties":10605,"Ġmaxi":10606,"Ġmicrosc":10607,"125":10608,"core":10609,"mn":10610,"orld":10611,"Ġrue":10612,"Ġsoftball":10613,"ebra":10614,"Ġeau":10615,"Ġtiff":10616,"Ġlarry":10617,"Ġflyer":10618,"green":10619,"pling":10620,"Ġfee":10621,"Ġimplement":10622,"Ġeid":10623,"Ġved":10624,"Ġsmartphone":10625,"dal":10626,"Ġsanti":10627,"Ġkashmir":10628,"Ġcement":10629,"Ġturned":10630,"Ġproductions":10631,"Ġ81":10632,"Ġpeekyou":10633,"Ġrajasth":10634,"tera":10635,"Ġpne":10636,"Ġtokopedia":10637,"shore":10638,"ubs":10639,"stream":10640,"ready":10641,"Ġnylon":10642,"Ġmodes":10643,"Ġmarcus":10644,"Ġflame":10645,"borne":10646,"mu":10647,"800":10648,"Ġvang":10649,"Ġcornwall":10650,"Ġgf":10651,"Ġbelfast":10652,"Ġober":10653,"Ġwend":10654,"coal":10655,"Ġprops":10656,"Ġdart":10657,"Ġoccup":10658,"Ġbachelor":10659,"Ġdiw":10660,"atr":10661,"Ġncaa":10662,"Ġphotographers":10663,"Ġgra":10664,"afa":10665,"1200":10666,"Ġkost":10667,"Ġrpg":10668,"Ġchuck":10669,"Ġprogramming":10670,"xi":10671,"inka":10672,"Ġnascar":10673,"Ġdwar":10674,"Ġwah":10675,"bound":10676,"Ġcatherine":10677,"Ġpatent":10678,"Ġsynthetic":10679,"Ġpitt":10680,"Ġdeutschland":10681,"Ġstephan":10682,"Ġrumors":10683,"Ġtomato":10684,"horn":10685,"Ġkatie":10686,"Ġbuilder":10687,"Ġsteemit":10688,"chet":10689,"omer":10690,"stre":10691,"esign":10692,"Ġbarber":10693,"gam":10694,"Ġhandbag":10695,"angi":10696,"pler":10697,"Ġphilippine":10698,"rod":10699,"Ġcheng":10700,"Ġallevents":10701,"Ġreplace":10702,"Ġknives":10703,"ajan":10704,"Ġraise":10705,"arre":10706,"Ġpope":10707,"Ġrespect":10708,"Ġmcl":10709,"acio":10710,"holm":10711,"900":10712,"draw":10713,"Ġprotective":10714,"Ġcriminal":10715,"ernal":10716,"Ġformation":10717,"fun":10718,"Ġ1984":10719,"Ġskateboard":10720,"Ġboeing":10721,"Ġrouge":10722,"Ġimportance":10723,"Ġpriest":10724,"Ġsided":10725,"Ġmercado":10726,"Ġruff":10727,"Ġselected":10728,"Ġconditions":10729,"Ġconte":10730,"mod":10731,"Ġbard":10732,"umber":10733,"Ġbatter":10734,"Ġ925":10735,"Ġprimer":10736,"Ġlump":10737,"mates":10738,"Ġjia":10739,"Ġmattress":10740,"Ġlets":10741,"Ġstol":10742,"amine":10743,"Ġneu":10744,"Ġluna":10745,"Ġdanny":10746,"Ġpou":10747,"igne":10748,"pixel":10749,"Ġanything":10750,"Ġbrom":10751,"Ġbecame":10752,"Ġleaving":10753,"Ġyourquote":10754,"Ġcrus":10755,"Ġpenny":10756,"Ġyuk":10757,"Ġbleacher":10758,"Ġgeography":10759,"Ġcircular":10760,"Ġevaluation":10761,"Ġaurora":10762,"Ġarb":10763,"jes":10764,"ajo":10765,"eware":10766,"350":10767,"andez":10768,"Ġklein":10769,"gary":10770,"Ġworship":10771,"Ġ1988":10772,"Ġpersian":10773,"Ġpastor":10774,"Ġjoshua":10775,"Ġvor":10776,"Ġunlock":10777,"Ġexport":10778,"icon":10779,"Ġdiabetes":10780,"Ġnumer":10781,"boys":10782,"Ġofficers":10783,"Ġfax":10784,"Ġedu":10785,"Ġdens":10786,"Ġmub":10787,"Ġninos":10788,"whe":10789,"Ġtight":10790,"bug":10791,"Ġfilled":10792,"Ġschem":10793,"Ġnol":10794,"icus":10795,"Ġjeremy":10796,"Ġlopez":10797,"health":10798,"Ġpaso":10799,"Ġspecialist":10800,"Ġjp":10801,"Ġeventbrite":10802,"Ġpeninsula":10803,"commer":10804,"rag":10805,"Ġloved":10806,"Ġjardin":10807,"Ġworlds":10808,"Ġbiom":10809,"Ġadministration":10810,"awi":10811,"Ġhoc":10812,"Ġprevention":10813,"Ġstands":10814,"Ġjumps":10815,"Ġhort":10816,"Ġeva":10817,"Ġsaatchi":10818,"Ġskins":10819,"Ġsouthwest":10820,"Ġmonsters":10821,"Ġchim":10822,"Ġsalvador":10823,"Ġtrinity":10824,"Ġearthqu":10825,"Ġelf":10826,"ankar":10827,"adores":10828,"Ġassociated":10829,"Ġsevent":10830,"Ġcure":10831,"Ġoch":10832,"shot":10833,"Ġhudl":10834,"Ġatr":10835,"Ġprovinc":10836,"Ġchains":10837,"Ġbrewery":10838,"Ġmascot":10839,"Ġcasc":10840,"Ġextern":10841,"Ġbios":10842,"yster":10843,"123":10844,"abs":10845,"Ġexhibit":10846,"Ġkobo":10847,"Ġding":10848,"adia":10849,"onica":10850,"Ġtutorials":10851,"Ġbree":10852,"Ġjulian":10853,"Ġhelen":10854,"Ġrr":10855,"Ġcardi":10856,"Ġconcentr":10857,"Ġdump":10858,"assic":10859,"Ġsaga":10860,"Ġfreel":10861,"Ġeden":10862,"Ġinhib":10863,"Ġteahub":10864,"ycling":10865,"Ġhc":10866,"Ġdennis":10867,"Ġdebate":10868,"Ġsho":10869,"ukh":10870,"Ġbez":10871,"Ġshed":10872,"Ġmotivation":10873,"cano":10874,"Ġbaptist":10875,"journal":10876,"Ġspecialty":10877,"Ġtd":10878,"Ġchun":10879,"Ġguine":10880,"Ġopener":10881,"Ġpassenger":10882,"Ġlaud":10883,"Ġrecruitment":10884,"Ġuganda":10885,"Ġmosaic":10886,"Ġpeac":10887,"tructure":10888,"Ġae":10889,"Ġchlor":10890,"Ġintroducing":10891,"Ġunderwater":10892,"Ġkisspng":10893,"Ġnostalg":10894,"abis":10895,"Ġnicholas":10896,"Ġnorfolk":10897,"Ġreus":10898,"arin":10899,"Ġmanhattan":10900,"Ġleopard":10901,"Ġheather":10902,"Ġhungary":10903,"Ġinitiative":10904,"orgh":10905,"Ġoxygen":10906,"esti":10907,"Ġmonaster":10908,"Ġcleanpng":10909,"Ġmodular":10910,"Ġmazda":10911,"Ġfalse":10912,"Ġcameron":10913,"Ġtesla":10914,"Ġgeneal":10915,"emia":10916,"ofit":10917,"Ġdedic":10918,"othy":10919,"rit":10920,"designs":10921,"Ġbeijing":10922,"Ġflavor":10923,"Ġcater":10924,"Ġbasin":10925,"Ġkc":10926,"link":10927,"Ġcomprar":10928,"shan":10929,"Ġbark":10930,"Ġschwar":10931,"Ġfuj":10932,"ogne":10933,"Ġcollaboration":10934,"Ġqi":10935,"Ġ178":10936,"Ġomega":10937,"Ġrevers":10938,"Ġpg":10939,"Ġ<>,":10940,"Ġhk":10941,"Ġties":10942,"Ġromeo":10943,"Ġantiqu":10944,"Ġoffices":10945,"Ġcarte":10946,"Ġbran":10947,"Ġtraveler":10948,"Ġsealed":10949,"Ġrequire":10950,"Ġsku":10951,"Ġwalks":10952,"Ġdei":10953,"Ġmills":10954,"Ġpngset":10955,"Ġjap":10956,"Ġatv":10957,"Ġskeleton":10958,"Ġthanh":10959,"Ġmcdonald":10960,"Ġnordic":10961,"Ġbrisb":10962,"Ġphotoshop":10963,"Ġending":10964,"Ġconstant":10965,"itial":10966,"Ġheadlines":10967,"Ġmop":10968,"Ġmw":10969,"Ġhern":10970,"Ġloopnet":10971,"Ġlinked":10972,"Ġeh":10973,"Ġsecretary":10974,"Ġsacram":10975,"Ġsmoking":10976,"Ġmuseums":10977,"atu":10978,"arez":10979,"Ġ170":10980,"encies":10981,"Ġcollabor":10982,"ifa":10983,"Ġpixels":10984,"Ġpreci":10985,"Ġlaundry":10986,"Ġturning":10987,"Ġgav":10988,"wig":10989,"Ġfell":10990,"Ġbhk":10991,"oja":10992,"Ġouter":10993,"Ġdeadly":10994,"eding":10995,"Ġdestroy":10996,"Ġbrisbane":10997,"Ġtunnel":10998,"Ġting":10999,"Ġpolic":11000,"Ġpoc":11001,"Ġdab":11002,"Ġreject":11003,"Ġturqu":11004,"times":11005,"stan":11006,"Ġsetup":11007,"Ġkeeping":11008,"Ġgastr":11009,"Ġengineer":11010,"inkle":11011,"Ġlonger":11012,"Ġveteran":11013,"Ġtwytr":11014,"Ġtemp":11015,"Ġnep":11016,"Ġlc":11017,"bb":11018,"Ġxing":11019,"uries":11020,"ibre":11021,"Ġreed":11022,"ewear":11023,"Ġbjp":11024,"Ġkarnataka":11025,"Ġwinn":11026,"Ġhoodies":11027,"Ġiconfinder":11028,"Ġtrent":11029,"Ġflour":11030,"Ġbelly":11031,"Ġtriumph":11032,"Ġexpo":11033,"Ġvoltage":11034,"Ġdeput":11035,"Ġconflict":11036,"Ġtaj":11037,"Ġthanksgiving":11038,"Ġfx":11039,"Ġmiy":11040,"Ġbillboard":11041,"Ġmixer":11042,"estrian":11043,"Ġtopper":11044,"Ġkennedy":11045,"Ġnoah":11046,"Ġsyria":11047,"Ġkurt":11048,"oru":11049,"Ġtigers":11050,"manuel":11051,"Ġ320":11052,"Ġdisposable":11053,"Ġroth":11054,"Ġdirty":11055,"avn":11056,"cio":11057,"Ġiq":11058,"Ġmodified":11059,"Ġpuppies":11060,"Ġyah":11061,"Ġwise":11062,"Ġmia":11063,"Ġrodrig":11064,"Ġcharges":11065,"Ġsamp":11066,"uber":11067,"Ġopportunity":11068,"Ġlegion":11069,"Ġdelay":11070,"Ġplayground":11071,"Ġchow":11072,"Ġded":11073,"Ġzw":11074,"Ġpete":11075,"icester":11076,"kw":11077,"otype":11078,"pol":11079,"Ġswedish":11080,"Ġgiov":11081,"hra":11082,"Ġathens":11083,"yam":11084,"Ġtouring":11085,"Ġodd":11086,"Ġbrandon":11087,"Ġfleece":11088,"Ġmatching":11089,"ulus":11090,"Ġ1600":11091,"Ġmovoto":11092,"Ġjoel":11093,"Ġ115":11094,"Ġemperor":11095,"Ġantenna":11096,"emor":11097,"Ġrams":11098,"Ġelections":11099,"Ġwim":11100,"Ġdien":11101,"Ġcine":11102,"Ġschm":11103,"Ġpasses":11104,"Ġwardrobe":11105,"aceut":11106,"Ġusers":11107,"Ġfruits":11108,"Ġcai":11109,"Ġcompreh":11110,"Ġbanker":11111,"Ġleast":11112,"Ġturismo":11113,"Ġrecording":11114,"Ġveterans":11115,"Ġallah":11116,"Ġjaguar":11117,"Ġinspiring":11118,"pear":11119,"Ġkinderg":11120,"iances":11121,"Ġslov":11122,"vor":11123,"Ġheb":11124,"asso":11125,"Ġbungal":11126,"Ġstim":11127,"Ġgrun":11128,"media":11129,"Ġbritt":11130,"Ġroh":11131,"Ġaxis":11132,"Ġpaid":11133,"eshire":11134,"Ġhoop":11135,"Ġreduc":11136,"tober":11137,"Ġtrio":11138,"Ġremains":11139,"Ġwells":11140,"Ġbrides":11141,"Ġmalta":11142,"Ġfis":11143,"Ġnathan":11144,"Ġsamples":11145,"Ġshots":11146,"Ġprepare":11147,"Ġidle":11148,"Ġessentials":11149,"Ġzar":11150,"Ġtapestry":11151,"Ġstir":11152,"Ġguan":11153,"Ġhier":11154,"letter":11155,"Ġdah":11156,"Ġdocuments":11157,"Ġlabs":11158,"sg":11159,"Ġphantom":11160,"Ġaston":11161,"ymph":11162,"alp":11163,"Ġquran":11164,"istle":11165,"Ġexperiences":11166,"Ġplumb":11167,"Ġvessel":11168,"Ġoutlook":11169,"Ġ1987":11170,"Ġmanus":11171,"Ġfederation":11172,"Ġtrendy":11173,"Ġpneum":11174,"Ġsailor":11175,"Ġwritings":11176,"where":11177,"Ġhers":11178,"Ġklipart":11179,"Ġguided":11180,"illion":11181,"Ġnegative":11182,"Ġcatalogue":11183,"Ġeuros":11184,"Ġgros":11185,"Ġeddie":11186,"ously":11187,"Ġcitizens":11188,"Ġench":11189,"Ġfiesta":11190,"Ġrenault":11191,"ensen":11192,"Ġgates":11193,"kes":11194,"Ġreduce":11195,"Ġ1985":11196,"Ġneeded":11197,"Ġestim":11198,"Ġoakland":11199,"Ġparas":11200,"eret":11201,"Ġdriven":11202,"Ġnearby":11203,"Ġmesa":11204,"etics":11205,"Ġtownship":11206,"amiento":11207,"Ġreproduction":11208,"Ġdepression":11209,"Ġklipartz":11210,"Ġstartup":11211,"Ġsaddle":11212,"olin":11213,"Ġlamborgh":11214,"Ġconvention":11215,"Ġbayern":11216,"Ġgenesis":11217,"Ġalpine":11218,"Ġscheme":11219,"hey":11220,"Ġtemporary":11221,"etz":11222,"Ġsco":11223,"Ġopportunities":11224,"Ġcupc":11225,"Ġhighlight":11226,"Ġ102":11227,"Ġinjection":11228,"Ġsuicide":11229,"Ġspart":11230,"Ġ1986":11231,"Ġmargaret":11232,"Ġbenefit":11233,"ibo":11234,"Ġbilder":11235,"lang":11236,"better":11237,"Ġlicens":11238,"Ġvag":11239,"Ġluz":11240,"Ġphosph":11241,"Ġmagazines":11242,"Ġports":11243,"fp":11244,"Ġshrimp":11245,"phis":11246,"Ġperc":11247,"Ġcouture":11248,"Ġtissue":11249,"Ġlug":11250,"Ġslot":11251,"Ġmapquest":11252,"Ġmeasurement":11253,"Ġbureau":11254,"Ġmechanism":11255,"Ġalready":11256,"Ġnecklaces":11257,"Ġadorable":11258,"obs":11259,"Ġmurah":11260,"Ġjigs":11261,"Ġecuador":11262,"Ġfacilities":11263,"Ġbonsai":11264,"Ġcampground":11265,"Ġzep":11266,"Ġpatches":11267,"Ġiris":11268,"Ġ108":11269,"Ġcowboy":11270,"alty":11271,"Ġsomers":11272,"Ġdiagnost":11273,"Ġskyscr":11274,"Ġmould":11275,"Ġbrah":11276,"enzo":11277,"erness":11278,"Ġlamborghini":11279,"Ġintegration":11280,"Ġfluid":11281,"Ġsecure":11282,"bike":11283,"atore":11284,"Ġtrin":11285,"udes":11286,"Ġmaritime":11287,"Ġngh":11288,"Ġtroy":11289,"Ġcharging":11290,"Ġhospitals":11291,"uckland":11292,"Ġspare":11293,"Ġhib":11294,"photos":11295,"Ġwhiskey":11296,"zhou":11297,"Ġheath":11298,"Ġcircus":11299,"Ġphr":11300,"Ġpound":11301,"Ġfres":11302,"Ġevo":11303,"Ġcoupon":11304,"Ġfacing":11305,"anj":11306,"once":11307,"Ġbru":11308,"Ġchalk":11309,"Ġdirection":11310,"ilion":11311,"Ġlavender":11312,"beat":11313,"Ġsapph":11314,"inning":11315,"Ġproced":11316,"Ġkitty":11317,"using":11318,"Ġnair":11319,"Ġreceiver":11320,"mun":11321,"ching":11322,"ception":11323,"Ġsamb":11324,"Ġplaya":11325,"Ġtribe":11326,"Ġforget":11327,"prod":11328,"Ġeater":11329,"Ġskip":11330,"Ġcasas":11331,"Ġavatar":11332,"Ġdau":11333,"icular":11334,"Ġcenters":11335,"Ġuttar":11336,"Ġjacqu":11337,"Ġnotting":11338,"Ġsees":11339,"Ġmyr":11340,"wave":11341,"gear":11342,"Ġfarmer":11343,"Ġnha":11344,"Ġplayed":11345,"Ġzl":11346,"Ġfiat":11347,"Ġcarri":11348,"Ġfranch":11349,"Ġkomb":11350,"Ġgoa":11351,"tn":11352,"Ġfang":11353,"gang":11354,"Ġpang":11355,"Ġsnacks":11356,"Ġkult":11357,"icted":11358,"Ġroz":11359,"leg":11360,"Ġindie":11361,"Ġharvey":11362,"Ġrankings":11363,"Ġpumps":11364,"Ġquil":11365,"Ġ5000":11366,"cas":11367,"Ġleonard":11368,"Ġradar":11369,"Ġhonors":11370,"osaurus":11371,"Ġdaisy":11372,"Ġshades":11373,"Ġwelcomes":11374,"Ġsist":11375,"Ġachiev":11376,"Ġbaba":11377,"Ġexercises":11378,"Ġjulie":11379,"Ġmelan":11380,"Ġvanilla":11381,"Ġcreed":11382,"ulate":11383,"Ġdivorce":11384,"quar":11385,"oran":11386,"Ġcrem":11387,"annah":11388,"Ġrelations":11389,"Ġglac":11390,"Ġdrivers":11391,"Ġexit":11392,"Ġexcellent":11393,"Ġauckland":11394,"Ġ104":11395,"Ġ1966":11396,"ska":11397,"Ġsubject":11398,"Ġcapsules":11399,"lette":11400,"Ġvalues":11401,"Ġlikely":11402,"Ġpharmac":11403,"Ġattacks":11404,"Ġsims":11405,"actic":11406,"Ġconcepts":11407,"Ġcere":11408,"Ġnab":11409,"Ġsurrey":11410,"Ġinduced":11411,"Ġseats":11412,"Ġelastic":11413,"Ġlgb":11414,"Ġmonter":11415,"Ġproposal":11416,"ept":11417,"Ġbeetle":11418,"Ġanxiety":11419,"Ġcone":11420,"Ġsull":11421,"Ġmapa":11422,"Ġcondos":11423,"Ġsantiago":11424,"Ġspeaking":11425,"Ġjad":11426,"Ġchant":11427,"Ġkindergarten":11428,"Ġleicester":11429,"Ġbarewalls":11430,"Ġscenic":11431,"amy":11432,"Ġjacques":11433,"Ġtires":11434,"Ġespanol":11435,"eez":11436,"Ġswims":11437,"zilla":11438,"Ġvape":11439,"Ġmarcel":11440,"Ġinfrastructure":11441,"Ġzhao":11442,"Ġespec":11443,"Ġgrac":11444,"Ġkyl":11445,"Ġfutur":11446,"atches":11447,"Ġtrader":11448,"Ġstations":11449,"Ġ1965":11450,"Ġjian":11451,"acular":11452,"qs":11453,"Ġbouquet":11454,"Ġmorph":11455,"Ġdayton":11456,"Ġasi":11457,"Ġjokes":11458,"Ġworker":11459,"hurst":11460,"Ġtram":11461,"ioni":11462,"Ġkannada":11463,"eley":11464,"Ġrobinson":11465,"Ġguatem":11466,"asaki":11467,"Ġcluster":11468,"Ġpractices":11469,"Ġmei":11470,"pic":11471,"Ġmultimedia":11472,"imer":11473,"iston":11474,"Ġshen":11475,"azione":11476,"Ġtweets":11477,"Ġworn":11478,"nel":11479,"Ġcalling":11480,"Ġapproved":11481,"acco":11482,"Ġguang":11483,"Ġanyr":11484,"Ġtinh":11485,"itta":11486,"Ġjurassic":11487,"Ġproducer":11488,"Ġmultif":11489,"Ġcruiser":11490,"levard":11491,"akk":11492,"Ġtrouble":11493,"Ġessex":11494,"rio":11495,"lord":11496,"Ġmulticolor":11497,"Ġbusy":11498,"icz":11499,"Ġzach":11500,"Ġelm":11501,"Ġbritann":11502,"mons":11503,"illac":11504,"Ġdana":11505,"azine":11506,"Ġvictims":11507,"eso":11508,"Ġflights":11509,"Ġhaunt":11510,"Ġanyrgb":11511,"Ġsimpson":11512,"Ġlists":11513,"Ġraven":11514,"Ġmediterranean":11515,"uchi":11516,"Ġmorocco":11517,"Ġtwitch":11518,"Ġbrock":11519,"yst":11520,"gee":11521,"Ġerg":11522,"Ġ128":11523,"Ġyach":11524,"Ġcw":11525,"Ġscrapbook":11526,"Ġdisaster":11527,"Ġodds":11528,"Ġolivia":11529,"Ġeyel":11530,"ewater":11531,"anners":11532,"lich":11533,"Ġcloser":11534,"ril":11535,"Ġwaiting":11536,"Ġbers":11537,"Ġkii":11538,"Ġofficially":11539,"ellation":11540,"Ġdecorating":11541,"Ġkis":11542,"anos":11543,"Ġruns":11544,"Ġcolours":11545,"365":11546,"Ġgarlic":11547,"Ġshowbiz":11548,"Ġrebel":11549,"Ġcooler":11550,"mare":11551,"Ġpurs":11552,"Ġnano":11553,"hart":11554,"Ġdemonstr":11555,"Ġprairie":11556,"ioh":11557,"Ġexternal":11558,"Ġstyling":11559,"Ġwizard":11560,"inf":11561,"Ġprobe":11562,"Ġscientists":11563,"Ġcuts":11564,"Ġexpedia":11565,"aken":11566,"Ġearl":11567,"Ġsurround":11568,"Ġpedal":11569,"Ġabroad":11570,"Ġforgotten":11571,"Ġ330":11572,"Ġstall":11573,"Ġalley":11574,"Ġexpected":11575,"Ġinterface":11576,"Ġprovide":11577,"001":11578,"Ġbuttons":11579,"Ġkoz":11580,"Ġnancy":11581,"Ġnewton":11582,"anza":11583,"free":11584,"inta":11585,"oval":11586,"wiki":11587,"Ġsupports":11588,"uyen":11589,"design":11590,"Ġinitial":11591,"Ġembr":11592,"Ġalv":11593,"Ġcove":11594,"ungen":11595,"Ġbrilliant":11596,"itors":11597,"Ġsofia":11598,"Ġpablo":11599,"Ġseeking":11600,"arte":11601,"Ġapollo":11602,"Ġobj":11603,"Ġjerseys":11604,"Ġcameras":11605,"Ġmodeling":11606,"aceutical":11607,"Ġbwc":11608,"Ġfict":11609,"Ġcharcoal":11610,"iosa":11611,"Ġottawa":11612,"alli":11613,"ells":11614,"Ġinterviews":11615,"Ġnes":11616,"Ġbea":11617,"Ġsue":11618,"pas":11619,"aware":11620,"Ġtransf":11621,"Ġtrang":11622,"annon":11623,"Ġhungama":11624,"erne":11625,"Ġars":11626,"iente":11627,"Ġluther":11628,"urr":11629,"Ġrival":11630,"Ġnicepng":11631,"Ġaccent":11632,"Ġfas":11633,"yx":11634,"Ġhimal":11635,"Ġraspberry":11636,"Ġpngfind":11637,"Ġmelissa":11638,"Ġnerd":11639,"Ġabdul":11640,"Ġharvard":11641,"Ġlocated":11642,"Ġpoison":11643,"trib":11644,"Ġbuilders":11645,"ivas":11646,"Ġada":11647,"enshin":11648,"iye":11649,"eback":11650,"Ġbail":11651,"Ġantibody":11652,"avia":11653,"Ġcraf":11654,"kop":11655,"Ġturquoise":11656,"ochem":11657,"Ġfet":11658,"Ġbeau":11659,"Ġrouter":11660,"Ġprat":11661,"iley":11662,"Ġperforming":11663,"Ġseeks":11664,"ologie":11665,"rif":11666,"Ġtwil":11667,"Ġinfection":11668,"fw":11669,"Ġnhan":11670,"Ġlucy":11671,"Ġwillow":11672,"Ġgos":11673,"Ġnina":11674,"Ġesta":11675,"Ġmessi":11676,"Ġmeadow":11677,"Ġmild":11678,"Ġcustomers":11679,"Ġairsoft":11680,"Ġdivine":11681,"Ġmunich":11682,"Ġtees":11683,"nan":11684,"Ġexplains":11685,"Ġporto":11686,"Ġphd":11687,"Ġjub":11688,"obl":11689,"Ġbandai":11690,"Ġstadt":11691,"aleigh":11692,"Ġindigenous":11693,"Ġcattle":11694,"Ġwagon":11695,"Ġweed":11696,"oit":11697,"Ġclown":11698,"Ġsteph":11699,"Ġminer":11700,"hz":11701,"Ġfitz":11702,"Ġvalle":11703,"Ġnpr":11704,"Ġgio":11705,"Ġlagos":11706,"Ġamericans":11707,"Ġgateway":11708,"enti":11709,"Ġjd":11710,"sche":11711,"Ġamplifier":11712,"Ġadela":11713,"Ġsticks":11714,"Ġteng":11715,"Ġhawaiian":11716,"Ġblush":11717,"anton":11718,"omatic":11719,"bage":11720,"Ġvocab":11721,"Ġley":11722,"Ġexcav":11723,"Ġmidnight":11724,"Ġrj":11725,"Ġathletes":11726,"Ġgosp":11727,"Ġharness":11728,"Ġpetit":11729,"Ġbav":11730,"Ġexperiment":11731,"Ġglad":11732,"Ġcorr":11733,"700":11734,"apse":11735,"arius":11736,"Ġronaldo":11737,"Ġconvertible":11738,"Ġlibraries":11739,"Ġbaked":11740,"asma":11741,"Ġempor":11742,"Ġsimulation":11743,"Ġpresidential":11744,"Ġradaris":11745,"ippers":11746,"los":11747,"Ġvolvo":11748,"Ġbonus":11749,"Ġmartha":11750,"Ġauthors":11751,"Ġdelight":11752,"Ġscreening":11753,"Ġbedding":11754,"rosse":11755,"Ġix":11756,"lane":11757,"entes":11758,"Ġfailure":11759,"Ġmetab":11760,"Ġfortune":11761,"Ġbing":11762,"Ġtackle":11763,"Ġdetection":11764,"Ġrebecca":11765,"Ġharrison":11766,"Ġkale":11767,"Ġloft":11768,"geons":11769,"Ġseller":11770,"Ġeconomics":11771,"code":11772,"Ġinsert":11773,"Ġmanuel":11774,"Ġcannabis":11775,"umen":11776,"Ġrecharge":11777,"ibu":11778,"Ġnarr":11779,"Ġsalem":11780,"Ġanalog":11781,"Ġhaberleri":11782,"lb":11783,"Ġengraving":11784,"Ġchau":11785,"Ġracer":11786,"Ġmonica":11787,"Ġsheriff":11788,"Ġsettle":11789,"Ġboulevard":11790,"Ġvad":11791,"Ġpw":11792,"Ġurb":11793,"Ġpapa":11794,"Ġscary":11795,"Ġnueva":11796,"Ġsedan":11797,"Ġcamel":11798,"mt":11799,"Ġornaments":11800,"names":11801,"Ġkuala":11802,"Ġketo":11803,"Ġfeeding":11804,"Ġdibujos":11805,"Ġmurphy":11806,"Ġphotocase":11807,"Ġvivo":11808,"Ġmish":11809,"Ġcrescent":11810,"bing":11811,"Ġhonest":11812,"itsu":11813,"Ġhaus":11814,"igure":11815,"gil":11816,"Ġguer":11817,"Ġstrategic":11818,"Ġlash":11819,"Ġdiagnosis":11820,"osi":11821,"Ġhif":11822,"urf":11823,"Ġuw":11824,"Ġhenri":11825,"ako":11826,"Ġglamour":11827,"Ġdeveloper":11828,"mx":11829,"oken":11830,"owy":11831,"Ġsubmar":11832,"Ġinspire":11833,"Ġjoan":11834,"Ġshelter":11835,"odo":11836,"Ġholl":11837,"Ġblake":11838,"Ġxu":11839,"Ġrapper":11840,"Ġtril":11841,"andro":11842,"acter":11843,"Ġtags":11844,"azzo":11845,"yson":11846,"eric":11847,"ovich":11848,"Ġhg":11849,"Ġinaugur":11850,"Ġobr":11851,"Ġbeverly":11852,"Ġroofing":11853,"Ġbeans":11854,"Ġentire":11855,"Ġposes":11856,"Ġsteering":11857,"Ġappliances":11858,"Ġsouls":11859,"Ġ1964":11860,"brush":11861,"ieri":11862,"Ġ103":11863,"Ġgemstone":11864,"Ġvars":11865,"Ġlynn":11866,"Ġbacon":11867,"Ġrating":11868,"Ġrugs":11869,"Ġcurs":11870,"Ġconfirmed":11871,"Ġjy":11872,"memes":11873,"Ġmoda":11874,"undy":11875,"Ġremembering":11876,"hog":11877,"Ġcarving":11878,"Ġdeezer":11879,"Ġtransition":11880,"xiv":11881,"Ġpug":11882,"smith":11883,"stead":11884,"Ġgucci":11885,"Ġmicrophone":11886,"Ġcyprus":11887,"Ġnewport":11888,"Ġjed":11889,"osphere":11890,"Ġdunk":11891,"Ġfilipino":11892,"Ġunus":11893,"Ġcalculator":11894,"Ġadvisor":11895,"Ġvaluation":11896,"Ġwalt":11897,"Ġcapitol":11898,"Ġplym":11899,"enny":11900,"Ġassorted":11901,"Ġpaulo":11902,"iani":11903,"tw":11904,"Ġconfirms":11905,"Ġstructures":11906,"osci":11907,"Ġfonts":11908,"bot":11909,"Ġalmond":11910,"Ġdishes":11911,"Ġundert":11912,"brand":11913,"Ġbamb":11914,"Ġvapor":11915,"Ġbmc":11916,"rist":11917,"Ġmanualzz":11918,"Ġcoaster":11919,"Ġpolished":11920,"Ġalger":11921,"Ġpolyester":11922,"Ġexplain":11923,"Ġdough":11924,"Ġquantum":11925,"Ġcollage":11926,"Ġidentification":11927,"Ġfrancois":11928,"Ġmare":11929,"Ġlandscaping":11930,"Ġestr":11931,"Ġprofessionals":11932,"iversity":11933,"Ġpis":11934,"ongs":11935,"uns":11936,"Ġhull":11937,"iten":11938,"Ġseekpng":11939,"Ġwoodland":11940,"Ġsurvivor":11941,"Ġpikist":11942,"Ġgreetings":11943,"Ġwatson":11944,"Ġseo":11945,"alsa":11946,"Ġseoul":11947,"inator":11948,"Ġkag":11949,"Ġtuning":11950,"Ġwarn":11951,"Ġlocom":11952,"Ġdior":11953,"Ġapplied":11954,"Ġgle":11955,"Ġcrowd":11956,"Ġmeasuring":11957,"Ġphilly":11958,"Ġobama":11959,"ifl":11960,"Ġversus":11961,"Ġsenate":11962,"Ġinfluence":11963,"ebu":11964,"Ġmalt":11965,"etto":11966,"pn":11967,"uffy":11968,"stadt":11969,"Ġxt":11970,"Ġpoker":11971,"Ġclan":11972,"yz":11973,"vr":11974,"Ġsos":11975,"Ġrajasthan":11976,"Ġexcellence":11977,"Ġmutualart":11978,"Ġdressing":11979,"Ġlima":11980,"ean":11981,"Ġitiner":11982,"Ġdex":11983,"Ġaruba":11984,"Ġjasm":11985,"Ġattach":11986,"kk":11987,"gos":11988,"Ġentrepreneur":11989,"Ġille":11990,"Ġtasting":11991,"igg":11992,"Ġbohem":11993,"Ġmunch":11994,"Ġvolcan":11995,"Ġoption":11996,"Ġsilicon":11997,"Ġcosmetic":11998,"Ġcharleston":11999,"Ġvermont":12000,"Ġcurtains":12001,"Ġtelep":12002,"Ġuh":12003,"Ġjacksonville":12004,"Ġstap":12005,"Ġdaddy":12006,"Ġpredictions":12007,"inski":12008,"Ġstefan":12009,"Ġtaxi":12010,"Ġsoutheast":12011,"Ġsophie":12012,"add":12013,"Ġreusable":12014,"Ġgeometry":12015,"Ġbould":12016,"Ġalberta":12017,"Ġneutral":12018,"step":12019,"Ġdurable":12020,"flies":12021,"pec":12022,"Ġdesigners":12023,"stand":12024,"clusion":12025,"gom":12026,"Ġfay":12027,"Ġagricultural":12028,"Ġposit":12029,"Ġnitr":12030,"Ġambassador":12031,"Ġdrift":12032,"Ġhof":12033,"Ġ1024":12034,"Ġfinished":12035,"guard":12036,"Ġpayment":12037,"Ġacceler":12038,"Ġvictim":12039,"ogan":12040,"Ġvenezuela":12041,"Ġsuspect":12042,"Ġreceive":12043,"Ġhein":12044,"fertility":12045,"Ġraleigh":12046,"Ġflute":12047,"Ġmerr":12048,"Ġnottingham":12049,"itled":12050,"Ġxian":12051,"Ġbore":12052,"Ġmald":12053,"enne":12054,"Ġrookie":12055,"Ġorbitz":12056,"Ġdani":12057,"Ġimpression":12058,"Ġjigsaw":12059,"ielo":12060,"Ġamr":12061,"Ġmapping":12062,"azaar":12063,"Ġarmen":12064,"Ġproduce":12065,"Ġ1979":12066,"Ġscenery":12067,"Ġgravity":12068,"Ġmemphis":12069,"ocity":12070,"zie":12071,"Ġtopps":12072,"onics":12073,"Ġsussex":12074,"Ġpeanut":12075,"Ġdestr":12076,"Ġtrem":12077,"Ġhale":12078,"Ġdiamonds":12079,"Ġtomatoes":12080,"Ġidentify":12081,"Ġnovelty":12082,"rupt":12083,"Ġastrology":12084,"Ġcompound":12085,"Ġethiopia":12086,"eco":12087,"Ġtopics":12088,"iban":12089,"Ġadministr":12090,"Ġtucson":12091,"Ġsheff":12092,"commerce":12093,"check":12094,"Ġmirac":12095,"Ġspencer":12096,"Ġindianapolis":12097,"Ġcalgary":12098,"Ġvault":12099,"Ġtowers":12100,"Ġelek":12101,"Ġwiring":12102,"angler":12103,"Ġmf":12104,"orne":12105,"wara":12106,"atro":12107,"upp":12108,"Ġproduk":12109,"ylan":12110,"Ġcros":12111,"noon":12112,"Ġparall":12113,"Ġprox":12114,"Ġdors":12115,"Ġwesternfertility":12116,"mith":12117,"held":12118,"Ġchatt":12119,"Ġmusica":12120,"Ġprotocol":12121,"Ġsymp":12122,"Ġlom":12123,"zu":12124,"Ġmarl":12125,"hawk":12126,"Ġcomposition":12127,"Ġgujarat":12128,"Ġfallout":12129,"Ġtwice":12130,"Ġfalling":12131,"Ġshaft":12132,"Ġsaras":12133,"Ġlivre":12134,"Ġroasted":12135,"pit":12136,"Ġdiaries":12137,"Ġdill":12138,"Ġodys":12139,"Ġfragrance":12140,"Ġhod":12141,"wes":12142,"Ġ135":12143,"comp":12144,"Ġrenovation":12145,"Ġkane":12146,"Ġdepend":12147,"Ġhabitat":12148,"Ġtune":12149,"Ġweiss":12150,"Ġzom":12151,"Ġngo":12152,"Ġtextile":12153,"Ġterms":12154,"Ġlacrosse":12155,"Ġlogan":12156,"Ġvh":12157,"Ġdiseases":12158,"Ġchamb":12159,"Ġkardash":12160,"Ġ225":12161,"idade":12162,"Ġfreight":12163,"Ġbarneb":12164,"Ġmurals":12165,"Ġtried":12166,"Ġserum":12167,"Ġnguyen":12168,"Ġprotests":12169,"Ġinews":12170,"Ġrodriguez":12171,"Ġdow":12172,"Ġbutler":12173,"umar":12174,"Ġchanel":12175,"Ġcerv":12176,"mand":12177,"icana":12178,"Ġsare":12179,"Ġsacramento":12180,"Ġsop":12181,"Ġvoor":12182,"Ġaccur":12183,"itech":12184,"Ġull":12185,"Ġtwilight":12186,"Ġcrystals":12187,"heads":12188,"oney":12189,"Ġempower":12190,"Ġgrave":12191,"Ġattempt":12192,"Ġboho":12193,"ifting":12194,"Ġkhal":12195,"Ġdop":12196,"Ġlloyd":12197,"Ġaccounting":12198,"uno":12199,"presso":12200,"Ġmcm":12201,"Ġstripe":12202,"Ġhabit":12203,"Ġcorvette":12204,"Ġmotivational":12205,"Ġsj":12206,"Ġnewly":12207,"Ġsapphire":12208,"Ġshakespear":12209,"Ġseamless":12210,"Ġfert":12211,"Ġtechnique":12212,"Ġrar":12213,"yers":12214,"itha":12215,"Ġarnold":12216,"Ġvocal":12217,"Ġfelix":12218,"Ġips":12219,"Ġmeanings":12220,"Ġfeng":12221,"Ġdynamics":12222,"Ġbrave":12223,"Ġbarnebys":12224,"aneous":12225,"Ġmasc":12226,"Ġuncle":12227,"Ġgandhi":12228,"Ġcyr":12229,"Ġpew":12230,"Ġpediatric":12231,"Ġasked":12232,"Ġkaufen":12233,"Ġopinions":12234,"Ġmeteor":12235,"athe":12236,"Ġcurly":12237,"official":12238,"Ġlgbt":12239,"Ġstriped":12240,"Ġclient":12241,"Ġdrawer":12242,"Ġtrash":12243,"Ġkb":12244,"html":12245,"Ġhannah":12246,"Ġesports":12247,"Ġimagen":12248,"Ġrebu":12249,"eye":12250,"Ġdrake":12251,"Ġcyn":12252,"ontal":12253,"asonic":12254,"access":12255,"Ġarmed":12256,"Ġzhang":12257,"Ġlistening":12258,"Ġ109":12259,"opus":12260,"Ġwallpaperbetter":12261,"Ġmusk":12262,"2018":12263,"Ġskyr":12264,"Ġmartine":12265,"Ġpersona":12266,"Ġfrequency":12267,"elets":12268,"fully":12269,"Ġdiscip":12270,"Ġaffinity":12271,"Ġdifferences":12272,"Ġsentence":12273,"new":12274,"Ġcurrency":12275,"Ġmerry":12276,"Ġskyscraper":12277,"Ġwashing":12278,"Ġfavim":12279,"Ġcaroline":12280,"corn":12281,"Ġparity":12282,"Ġmuff":12283,"Ġpige":12284,"nya":12285,"Ġtanks":12286,"borg":12287,"Ġconstruct":12288,"Ġounce":12289,"aval":12290,"Ġsigning":12291,"Ġtren":12292,"Ġbryan":12293,"uter":12294,"Ġlogistics":12295,"tes":12296,"Ġcombination":12297,"Ġearthquake":12298,"Ġkry":12299,"Ġwonderland":12300,"Ġbackdrop":12301,"Ġguess":12302,"Ġborg":12303,"iras":12304,"Ġmakers":12305,"agas":12306,"wash":12307,"Ġtamb":12308,"Ġcaramel":12309,"Ġplymouth":12310,"Ġhaj":12311,"agl":12312,"istas":12313,"Ġmein":12314,"Ġpostcards":12315,"Ġzelda":12316,"claim":12317,"Ġlack":12318,"Ġheels":12319,"abar":12320,"Ġnouve":12321,"Ġfictional":12322,"Ġbringing":12323,"Ġfotografia":12324,"estate":12325,"Ġ1978":12326,"Ġhostel":12327,"Ġfabrics":12328,"Ġlearned":12329,"iku":12330,"Ġwinery":12331,"Ġadelaide":12332,"ateur":12333,"Ġferg":12334,"arious":12335,"Ġbuddhist":12336,"Ġinterp":12337,"Ġiso":12338,"Ġacting":12339,"Ġplumbing":12340,"Ġconcord":12341,"Ġjunction":12342,"Ġloving":12343,"Ġcosts":12344,"Ġtorch":12345,"Ġsloven":12346,"iak":12347,"Ġdrunk":12348,"Ġdermat":12349,"Ġoffering":12350,"chem":12351,"Ġheel":12352,"part":12353,"pd":12354,"Ġstuart":12355,"Ġpanther":12356,"spot":12357,"Ġerik":12358,"idian":12359,"Ġcongratulations":12360,"Ġguid":12361,"Ġais":12362,"actions":12363,"Ġellen":12364,"Ġshab":12365,"Ġadrian":12366,"rh":12367,"Ġvale":12368,"Ġpropag":12369,"Ġenterpr":12370,"Ġkare":12371,"Ġhoch":12372,"Ġmead":12373,"Ġdiwali":12374,"Ġuphol":12375,"Ġshou":12376,"Ġlamps":12377,"Ġraff":12378,"Ġappointment":12379,"otsw":12380,"Ġkuch":12381,"Ġguatemala":12382,"Ġstructural":12383,"Ġdias":12384,"Ġtempor":12385,"Ġcbd":12386,"Ġbake":12387,"opath":12388,"Ġbahrain":12389,"izi":12390,"Ġgup":12391,"mediate":12392,"Ġparrot":12393,"Ġ97819":12394,"Ġriverside":12395,"awl":12396,"Ġkus":12397,"Ġshapes":12398,"Ġmythology":12399,"oming":12400,"Ġwoodworking":12401,"Ġtide":12402,"Ġbebe":12403,"Ġangela":12404,"Ġfing":12405,"Ġtrol":12406,"Ġpvt":12407,"Ġguilty":12408,"Ġonefile":12409,"Ġalfa":12410,"Ġstripes":12411,"afia":12412,"Ġminne":12413,"Ġsox":12414,"Ġgim":12415,"Ġvoices":12416,"Ġhin":12417,"Ġinvis":12418,"etric":12419,"iffe":12420,"Ġned":12421,"atas":12422,"Ġorang":12423,"Ġrafael":12424,"Ġexpedition":12425,"Ġrazor":12426,"Ġgambar":12427,"onym":12428,"Ġraja":12429,"allery":12430,"Ġstur":12431,"Ġdij":12432,"eres":12433,"Ġmj":12434,"Ġdiver":12435,"Ġbeginning":12436,"Ġbecoming":12437,"Ġscorp":12438,"Ġwitness":12439,"Ġmous":12440,"Ġtrigger":12441,"Ġroster":12442,"Ġchords":12443,"Ġmeetings":12444,"Ġscan":12445,"Ġgrim":12446,"Ġassassin":12447,"arms":12448,"Ġjaipur":12449,"hay":12450,"Ġjc":12451,"Ġtravis":12452,"Ġamit":12453,"Ġgems":12454,"Ġpharmaceutical":12455,"Ġillumin":12456,"Ġbant":12457,"Ġwindsor":12458,"Ġtras":12459,"Ġfury":12460,"Ġdefender":12461,"gag":12462,"Ġrai":12463,"Ġmaths":12464,"Ġcoldwell":12465,"Ġ650":12466,"Ġhaute":12467,"Ġherman":12468,"Ġ1972":12469,"max":12470,"Ġaren":12471,"Ġplanes":12472,"Ġsanctuary":12473,"Ġbits":12474,"Ġscholarly":12475,"Ġadmir":12476,"dl":12477,"Ġskill":12478,"Ġ1983":12479,"Ġsiem":12480,"Ġaster":12481,"Ġyin":12482,"Ġcinn":12483,"Ġclim":12484,"Ġorigins":12485,"Ġbones":12486,"vc":12487,"Ġxiao":12488,"Ġtao":12489,"exp":12490,"engkap":12491,"Ġpyramid":12492,"Ġthy":12493,"Ġplaque":12494,"Ġpbs":12495,"Ġincident":12496,"Ġgarn":12497,"bill":12498,"Ġmegan":12499,"ombre":12500,"Ġvf":12501,"bye":12502,"Ġhurt":12503,"Ġlegisl":12504,"otel":12505,"Ġkaa":12506,"Ġinnovative":12507,"Ġgymnastics":12508,"Ġgmc":12509,"Ġserbia":12510,"uted":12511,"ipse":12512,"Ġfunds":12513,"obal":12514,"embre":12515,"Ġtata":12516,"Ġpatric":12517,"Ġpolymer":12518,"Ġmcg":12519,"Ġrogue":12520,"imiento":12521,"Ġwaterfront":12522,"Ġumbrella":12523,"Ġbau":12524,"Ġcens":12525,"Ġbleach":12526,"Ġputs":12527,"Ġfak":12528,"aways":12529,"Ġvegetarian":12530,"Ġdefeat":12531,"Ġsocket":12532,"Ġteaser":12533,"Ġpaste":12534,"inga":12535,"fam":12536,"Ġpirates":12537,"Ġcote":12538,"Ġapoc":12539,"Ġoverwatch":12540,"primo":12541,"adv":12542,"xin":12543,"Ġteens":12544,"Ġengines":12545,"Ġtien":12546,"opal":12547,"Ġserve":12548,"Ġsok":12549,"Ġhomest":12550,"Ġvegetables":12551,"Ġbulgaria":12552,"Ġsupermarket":12553,"Ġmacro":12554,"Ġ1982":12555,"Ġee":12556,"Ġfireplace":12557,"hab":12558,"Ġbrighton":12559,"Ġboc":12560,"rog":12561,"boxing":12562,"Ġ1973":12563,"Ġbha":12564,"Ġbelie":12565,"Ġsank":12566,"Ġbrooch":12567,"Ġobjects":12568,"Ġpoet":12569,"Ġahmedabad":12570,"Ġbf":12571,"ials":12572,"Ġdepos":12573,"Ġhail":12574,"Ġesl":12575,"iec":12576,"Ġbomber":12577,"photo":12578,"Ġwb":12579,"Ġcomeback":12580,"Ġvisa":12581,"isions":12582,"Ġsteprimo":12583,"Ġraises":12584,"makers":12585,"Ġultras":12586,"Ġcreates":12587,"Ġensemble":12588,"Ġgaut":12589,"Ġdurham":12590,"Ġfires":12591,"Ġreyn":12592,"Ġuefa":12593,"Ġtrulia":12594,"Ġcommit":12595,"Ġdifficult":12596,"aan":12597,"Ġafternoon":12598,"Ġgee":12599,"sel":12600,"aaa":12601,"Ġbrent":12602,"Ġteller":12603,"Ġauss":12604,"Ġtwenty":12605,"Ġdoom":12606,"Ġ1975":12607,"Ġdeploy":12608,"Ġcolin":12609,"Ġwald":12610,"Ġgenealogy":12611,"Ġunusual":12612,"Ġsto":12613,"Ġpeel":12614,"Ġfrederick":12615,"Ġbradley":12616,"Ġtass":12617,"Ġriz":12618,"Ġcaravan":12619,"Ġminif":12620,"icity":12621,"Ġshiny":12622,"Ġvg":12623,"Ġstatues":12624,"Ġ720":12625,"Ġfus":12626,"Ġpools":12627,"Ġspringfield":12628,"Ġworkplace":12629,"Ġnewsletter":12630,"Ġdisco":12631,"Ġisraeli":12632,"ajes":12633,"Ġintroduces":12634,"Ġdire":12635,"Ġstabil":12636,"Ġ106":12637,"Ġtec":12638,"Ġpots":12639,"uche":12640,"Ġtraveling":12641,"Ġhuss":12642,"Ġkp":12643,"weather":12644,"odi":12645,"Ġcarlo":12646,"isson":12647,"Ġshakespeare":12648,"Ġsomerset":12649,"Ġfabulous":12650,"Ġjojo":12651,"ulary":12652,"Ġtoll":12653,"140":12654,"Ġmonastery":12655,"Ġbong":12656,"backs":12657,"Ġcelebrations":12658,"Ġscent":12659,"writing":12660,"aced":12661,"Ġgave":12662,"Ġstephanie":12663,"Ġattention":12664,"Ġhandheld":12665,"Ġsneaker":12666,"kom":12667,"acan":12668,"Ġrelationships":12669,"Ġtroll":12670,"Ġvolcano":12671,"Ġcareers":12672,"Ġpriy":12673,"urved":12674,"Ġmejor":12675,"Ġexpensive":12676,"encils":12677,"Ġsheffield":12678,"inus":12679,"Ġtavern":12680,"Ġsamantha":12681,"Ġtunis":12682,"Ġpersonalised":12683,"Ġkardashian":12684,"Ġgallon":12685,"Ġodisha":12686,"yk":12687,"Ġveterinary":12688,"Ġvera":12689,"Ġcoco":12690,"Ġadvertiser":12691,"Ġcomed":12692,"Ġbizarre":12693,"eshow":12694,"Ġnewsbreak":12695,"group":12696,"Ġfernando":12697,"Ġabsolute":12698,"Ġconverter":12699,"Ġsubl":12700,"Ġartisan":12701,"cap":12702,"ebo":12703,"Ġsneak":12704,"Ġwebinar":12705,"Ġmiz":12706,"Ġserp":12707,"Ġbharat":12708,"Ġkand":12709,"Ġtrunk":12710,"Ġeuc":12711,"Ġpublished":12712,"Ġapi":12713,"Ġgeo":12714,"Ġ1945":12715,"Ġmonroe":12716,"Ġhui":12717,"Ġuploaded":12718,"Ġannie":12719,"test":12720,"105":12721,"Ġtelegram":12722,"Ġinspection":12723,"Ġskincare":12724,"Ġ1963":12725,"Ġbowling":12726,"Ġbhar":12727,"Ġlandmark":12728,"Ġprague":12729,"Ġboo":12730,"Ġstal":12731,"Ġcarre":12732,"Ġlegg":12733,"Ġbanking":12734,"Ġcandidate":12735,"Ġmarqu":12736,"Ġcollectors":12737,"leton":12738,"gae":12739,"Ġmaid":12740,"icer":12741,"illing":12742,"Ġspat":12743,"Ġfactors":12744,"Ġfiver":12745,"sec":12746,"Ġ1971":12747,"Ġbooster":12748,"Ġenthus":12749,"fuel":12750,"Ġparf":12751,"igu":12752,"aturalist":12753,"roll":12754,"Ġenclos":12755,"Ġwilderness":12756,"Ġcadillac":12757,"orum":12758,"Ġclaw":12759,"Ġrevista":12760,"Ġstrain":12761,"Ġtobacco":12762,"Ġged":12763,"Ġcapture":12764,"Ġcleans":12765,"Ġlancaster":12766,"Ġextrem":12767,"Ġblanco":12768,"agem":12769,"state":12770,"Ġsket":12771,"imov":12772,"Ġhaunted":12773,"Ġsoda":12774,"Ġhinh":12775,"Ġacne":12776,"Ġapex":12777,"lander":12778,"ockets":12779,"Ġcozy":12780,"rak":12781,"Ġsatis":12782,"Ġchronic":12783,"ekt":12784,"atum":12785,"Ġfemme":12786,"Ġwarns":12787,"Ġlogic":12788,"Ġrecover":12789,"Ġcapsule":12790,"Ġatlet":12791,"Ġbunk":12792,"anu":12793,"Ġhermes":12794,"sta":12795,"Ġdebt":12796,"Ġbans":12797,"Ġsoundtrack":12798,"Ġlouise":12799,"Ġdok":12800,"md":12801,"Ġ10000":12802,"Ġrevival":12803,"enko":12804,"Ġbrows":12805,"Ġgeographic":12806,"Ġsmithson":12807,"ryl":12808,"Ġnadu":12809,"chel":12810,"furt":12811,"Ġeup":12812,"Ġnarrow":12813,"Ġfrontier":12814,"Ġviz":12815,"ruption":12816,"leigh":12817,"Ġpetrol":12818,"Ġfamousfix":12819,"fal":12820,"Ġsleeves":12821,"Ġpiercing":12822,"Ġtung":12823,"Ġtrous":12824,"Ġpeacock":12825,"Ġmtv":12826,"Ġclosing":12827,"has":12828,"Ġescal":12829,"Ġlaurent":12830,"Ġwalkthrough":12831,"Ġmav":12832,"Ġcontra":12833,"Ġoliv":12834,"greg":12835,"Ġrediff":12836,"ego":12837,"Ġkills":12838,"Ġruins":12839,"Ġbro":12840,"Ġdiscovered":12841,"Ġslav":12842,"Ġemirates":12843,"gage":12844,"grade":12845,"Ġinfinite":12846,"Ġdanish":12847,"Ġnortheast":12848,"Ġlax":12849,"ijuana":12850,"Ġazul":12851,"Ġsorry":12852,"Ġazure":12853,"icts":12854,"Ġinaturalist":12855,"Ġpeg":12856,"illery":12857,"Ġcertification":12858,"endi":12859,"Ġkuwa":12860,"Ġvalencia":12861,"Ġenf":12862,"iab":12863,"Ġhok":12864,"Ġwien":12865,"Ġhappen":12866,"Ġmichelin":12867,"amos":12868,"Ġchoir":12869,"Ġnicolas":12870,"Ġenterprises":12871,"Ġdayday":12872,"xx":12873,"Ġasks":12874,"Ġguinea":12875,"Ġlumin":12876,"Ġbliss":12877,"Ġhampton":12878,"Ġpollution":12879,"Ġdancer":12880,"mail":12881,"Ġbened":12882,"Ġcamo":12883,"Ġprinciples":12884,"Ġbracelets":12885,"Ġmoistur":12886,"Ġengineers":12887,"Ġbigg":12888,"Ġscandal":12889,"isto":12890,"izen":12891,"Ġmano":12892,"hole":12893,"Ġdwarf":12894,"Ġpresid":12895,"Ġhopes":12896,"Ġbite":12897,"Ġautoc":12898,"Ġsug":12899,"Ġsweets":12900,"bler":12901,"Ġ112":12902,"Ġlined":12903,"Ġtreasures":12904,"stop":12905,"Ġfiverr":12906,"jec":12907,"Ġpercent":12908,"Ġcao":12909,"Ġdaydaynews":12910,"aring":12911,"Ġswap":12912,"Ġrogers":12913,"reds":12914,"Ġaq":12915,"Ġ107":12916,"Ġplast":12917,"oder":12918,"Ġivy":12919,"Ġnil":12920,"Ġfrances":12921,"Ġnk":12922,"adal":12923,"Ġlumpur":12924,"Ġgunn":12925,"Ġvita":12926,"Ġdemol":12927,"Ġmab":12928,"Ġshack":12929,"graph":12930,"iia":12931,"eeping":12932,"Ġ911":12933,"Ġ97808":12934,"Ġgou":12935,"Ġvadel":12936,"azed":12937,"Ġadmissions":12938,"Ġlugg":12939,"Ġsevere":12940,"ashed":12941,"Ġsuede":12942,"Ġbloomberg":12943,"Ġrn":12944,"Ġarmour":12945,"Ġlevi":12946,"Ġrgb":12947,"Ġlean":12948,"Ġdolphin":12949,"raham":12950,"Ġdrives":12951,"Ġprivacy":12952,"Ġmilano":12953,"Ġ97816":12954,"houses":12955,"Ġweigh":12956,"Ġpainter":12957,"Ġnguoi":12958,"ungs":12959,"Ġecos":12960,"Ġdescar":12961,"Ġkyr":12962,"Ġzomato":12963,"Ġburr":12964,"Ġprospect":12965,"Ġedible":12966,"Ġtraveller":12967,"Ġ1976":12968,"ilis":12969,"Ġplaid":12970,"Ġthrowback":12971,"Ġsauc":12972,"Ġyester":12973,"cons":12974,"Ġphillips":12975,"Ġslam":12976,"Ġ1977":12977,"hearts":12978,"Ġcodedwap":12979,"Ġbundes":12980,"vs":12981,"Ġdirections":12982,"Ġknitting":12983,"ellar":12984,"Ġnuts":12985,"Ġspoiler":12986,"Ġparc":12987,"Ġ001":12988,"Ġpaddle":12989,"Ġvolunteer":12990,"Ġwd":12991,"Ġinvitations":12992,"ifies":12993,"Ġprimel":12994,"Ġbinding":12995,"Ġaxe":12996,"Ġkund":12997,"Ġvarsity":12998,"Ġmonogram":12999,"wise":13000,"Ġliu":13001,"Ġclosure":13002,"Ġconditioner":13003,"mere":13004,"nica":13005,"Ġvikings":13006,"Ġchloe":13007,"Ġgumtree":13008,"Ġjou":13009,"Ġmilled":13010,"Ġxen":13011,"Ġmontgom":13012,"Ġyun":13013,"Ġoo":13014,"Ġarmenia":13015,"Ġparque":13016,"Ġprefer":13017,"rep":13018,"Ġkarate":13019,"Ġextensions":13020,"Ġfired":13021,"Ġhing":13022,"tors":13023,"121":13024,"Ġhospitality":13025,"Ġ280":13026,"sports":13027,"lis":13028,"Ġfloyd":13029,"Ġathlete":13030,"iones":13031,"Ġked":13032,"Ġmitt":13033,"inian":13034,"mers":13035,"Ġsilence":13036,"Ġpb":13037,"iem":13038,"Ġpineapple":13039,"ibli":13040,"Ġwarner":13041,"Ġjefferson":13042,"Ġpreparation":13043,"nar":13044,"Ġdk":13045,"Ġdoodle":13046,"Ġyong":13047,"Ġjournals":13048,"Ġstarb":13049,"athlon":13050,"Ġfj":13051,"Ġhorr":13052,"Ġbie":13053,"Ġtand":13054,"mor":13055,"Ġcurric":13056,"Ġtotten":13057,"Ġroberto":13058,"Ġnl":13059,"Ġpamp":13060,"Ġhims":13061,"Ġestates":13062,"Ġprimelocation":13063,"Ġsubur":13064,"Ġlivest":13065,"Ġpronounce":13066,"Ġtanz":13067,"Ġheard":13068,"Ġaffair":13069,"Ġterra":13070,"Ġwur":13071,"Ġaless":13072,"Ġzamb":13073,"Ġpopscreen":13074,"Ġviva":13075,"Ġnah":13076,"Ġsalman":13077,"Ġmanufacture":13078,"Ġ1800":13079,"Ġaging":13080,"Ġgyps":13081,"forum":13082,"Ġraising":13083,"Ġedwards":13084,"ertas":13085,"Ġply":13086,"Ġtreats":13087,"Ġharmony":13088,"Ġpixers":13089,"102":13090,"Ġnapole":13091,"Ġfaucet":13092,"Ġpoul":13093,"Ġying":13094,"Ġburst":13095,"opsis":13096,"erian":13097,"Ġnib":13098,"Ġencoun":13099,"Ġcoa":13100,"Ġ1981":13101,"Ġodyssey":13102,"Ġindians":13103,"Ġpromotional":13104,"Ġdud":13105,"lake":13106,"imen":13107,"Ġthousand":13108,"Ġencour":13109,"Ġdism":13110,"Ġmusician":13111,"Ġgrown":13112,"forest":13113,"ycled":13114,"Ġcreatures":13115,"Ġpanorama":13116,"Ġsaus":13117,"Ġblades":13118,"Ġrecycling":13119,"Ġhitch":13120,"Ġchoos":13121,"Ġtoast":13122,"Ġpog":13123,"Ġtears":13124,"Ġconsc":13125,"Ġstom":13126,"utz":13127,"Ġpilgr":13128,"Ġsheer":13129,"Ġmaa":13130,"Ġrelay":13131,"Ġminneapolis":13132,"Ġpert":13133,"Ġgenetic":13134,"ulin":13135,"ibly":13136,"Ġprz":13137,"Ġrhyth":13138,"Ġfirstpost":13139,"Ġnightmare":13140,"oque":13141,"Ġliquor":13142,"Ġenchant":13143,"Ġcet":13144,"Ġsakura":13145,"Ġdua":13146,"Ġpuja":13147,"160":13148,"Ġappeal":13149,"arra":13150,"Ġtract":13151,"paper":13152,"Ġlh":13153,"Ġprovence":13154,"Ġrecorder":13155,"Ġsustainability":13156,"Ġglou":13157,"rav":13158,"Ġstern":13159,"Ġfran":13160,"Ġrecognition":13161,"Ġwolver":13162,"Ġgrind":13163,"iks":13164,"Ġrede":13165,"Ġarrival":13166,"Ġsmithsonian":13167,"Ġgoodbye":13168,"Ġhighly":13169,"Ġsavage":13170,"adu":13171,"Ġjuvent":13172,"Ġcelebs":13173,"apeut":13174,"Ġflush":13175,"Ġmatic":13176,"Ġluggage":13177,"Ġremain":13178,"ortion":13179,"Ġraised":13180,"Ġequal":13181,"Ġannouncement":13182,"Ġmercadol":13183,"Ġheater":13184,"Ġ550":13185,"Ġpicfair":13186,"Ġqc":13187,"Ġpars":13188,"Ġmiracle":13189,"Ġnets":13190,"Ġbaron":13191,"Ġwreath":13192,"Ġdeadline":13193,"Ġwoo":13194,"osti":13195,"Ġrecently":13196,"Ġfridge":13197,"Ġturt":13198,"Ġ1974":13199,"Ġdelaware":13200,"uko":13201,"Ġphong":13202,"ovi":13203,"Ġrevenue":13204,"Ġautonom":13205,"tb":13206,"Ġnao":13207,"Ġnavigation":13208,"izo":13209,"Ġmugs":13210,"Ġavant":13211,"Ġprobably":13212,"Ġappreciation":13213,"Ġmontgomery":13214,"Ġnhung":13215,"Ġanthrop":13216,"Ġukrain":13217,"Ġnude":13218,"uctive":13219,"aded":13220,"cro":13221,"Ġventure":13222,"Ġlouisville":13223,"Ġyugioh":13224,"inate":13225,"Ġcola":13226,"Ġappearance":13227,"Ġtherap":13228,"Ġagua":13229,"Ġdove":13230,"acing":13231,"Ġbengali":13232,"Ġballoons":13233,"Ġclaude":13234,"roc":13235,"Ġbutt":13236,"ourg":13237,"Ġatelier":13238,"rez":13239,"Ġclaud":13240,"Ġingredients":13241,"Ġkicks":13242,"Ġpanch":13243,"Ġui":13244,"Ġkidney":13245,"Ġlips":13246,"Ġembassy":13247,"etes":13248,"agg":13249,"Ġlettering":13250,"Ġtusc":13251,"Ġclover":13252,"Ġchairman":13253,"Ġstandards":13254,"Ġcoding":13255,"Ġmeghan":13256,"Ġhond":13257,"Ġspend":13258,"Ġgloucester":13259,"Ġmembr":13260,"Ġvariant":13261,"Ġmarathi":13262,"Ġtg":13263,"awei":13264,"Ġsaying":13265,"Ġsurat":13266,"ignon":13267,"esville":13268,"Ġagenda":13269,"Ġelle":13270,"bat":13271,"Ġtj":13272,"Ġequity":13273,"Ġafl":13274,"Ġtradem":13275,"Ġderek":13276,"Ġlanguages":13277,"Ġmeals":13278,"uling":13279,"Ġaffect":13280,"Ġcultiv":13281,"hari":13282,"homes":13283,"minster":13284,"Ġwelsh":13285,"Ġbridges":13286,"Ġskinny":13287,"Ġexperimental":13288,"Ġfeast":13289,"Ġandreas":13290,"Ġjumbo":13291,"Ġluxe":13292,"Ġsheikh":13293,"Ġdemocracy":13294,"Ġfundraiser":13295,"shmi":13296,"Ġemil":13297,"Ġduff":13298,"ostcard":13299,"Ġvick":13300,"ej":13301,"Ġsandy":13302,"atica":13303,"Ġfortress":13304,"Ġflies":13305,"Ġsip":13306,"115":13307,"omez":13308,"Ġdug":13309,"Ġchil":13310,"Ġdic":13311,"cott":13312,"Ġvineyard":13313,"Ġbugg":13314,"Ġlandmarks":13315,"Ġsms":13316,"Ġmammal":13317,"Ġmandal":13318,"Ġsinh":13319,"Ġhippostcard":13320,"Ġbucks":13321,"Ġexplosion":13322,"Ġkris":13323,"Ġthong":13324,"Ġdeputy":13325,"Ġmourn":13326,"Ġshake":13327,"alus":13328,"Ġproper":13329,"Ġloch":13330,"mani":13331,"Ġelk":13332,"bron":13333,"haven":13334,"Ġconcer":13335,"plements":13336,"uzu":13337,"Ġbuenos":13338,"Ġrides":13339,"Ġfunctions":13340,"Ġnok":13341,"Ġkra":13342,"Ġrochester":13343,"Ġavoc":13344,"Ġroundup":13345,"shaw":13346,"bone":13347,"estre":13348,"Ġfever":13349,"bud":13350,"Ġsouvenir":13351,"urah":13352,"Ġjenny":13353,"Ġust":13354,"Ġtottenham":13355,"Ġchristine":13356,"Ġpurse":13357,"108":13358,"buy":13359,"Ġnoel":13360,"Ġtrivago":13361,"Ġdisorder":13362,"Ġcomposite":13363,"etas":13364,"Ġborders":13365,"Ġcobra":13366,"Ġblessed":13367,"moon":13368,"Ġaar":13369,"Ġhorizontal":13370,"ivi":13371,"resp":13372,"ead":13373,"Ġwriters":13374,"ullah":13375,"Ġepid":13376,"Ġoccasion":13377,"Ġblogger":13378,"Ġcaval":13379,"Ġhonol":13380,"rek":13381,"ennes":13382,"Ġcanton":13383,"Ġpee":13384,"Ġcultura":13385,"Ġuseful":13386,"uson":13387,"Ġprincipal":13388,"Ġshrine":13389,"Ġpetersburg":13390,"Ġjah":13391,"Ġmeng":13392,"Ġdetective":13393,"Ġmercy":13394,"Ġreflection":13395,"Ġwreck":13396,"door":13397,"Ġhappens":13398,"Ġbahamas":13399,"Ġoffered":13400,"Ġfloat":13401,"ryn":13402,"Ġaggr":13403,"Ġglue":13404,"Ġhw":13405,"carta":13406,"Ġjoker":13407,"Ġhimself":13408,"Ġlineup":13409,"Ġvladimir":13410,"acart":13411,"zar":13412,"Ġbalc":13413,"rine":13414,"Ġsciss":13415,"bled":13416,"Ġnel":13417,"Ġbrooks":13418,"Ġimmobil":13419,"Ġmidwest":13420,"Ġsyrac":13421,"Ġbudap":13422,"tan":13423,"Ġisaac":13424,"Ġcolleges":13425,"fork":13426,"Ġarrives":13427,"wat":13428,"Ġmosqu":13429,"Ġtasty":13430,"orno":13431,"Ġdriv":13432,"jv":13433,"Ġobsc":13434,"Ġkamen":13435,"Ġchristina":13436,"Ġnang":13437,"ijk":13438,"Ġstl":13439,"Ġuniforms":13440,"Ġstella":13441,"Ġpapel":13442,"asser":13443,"nest":13444,"Ġgranger":13445,"Ġtrials":13446,"icate":13447,"Ġmayo":13448,"Ġlomb":13449,"Ġheaded":13450,"Ġwav":13451,"rison":13452,"Ġconven":13453,"Ġpavilion":13454,"Ġbruno":13455,"Ġhonolulu":13456,"Ġlai":13457,"Ġcolony":13458,"enhagen":13459,"lest":13460,"Ġbuckle":13461,"Ġpngaaa":13462,"Ġinfr":13463,"Ġvocabulary":13464,"Ġlabour":13465,"Ġrespir":13466,"Ġsweatshirts":13467,"ictions":13468,"Ġlyon":13469,"Ġchili":13470,"Ġhorm":13471,"Ġlexus":13472,"Ġsyracuse":13473,"Ġsculptures":13474,"useum":13475,"rice":13476,"Ġrecl":13477,"camp":13478,"Ġkuwait":13479,"Ġteenage":13480,"Ġpnas":13481,"Ġseveral":13482,"Ġshawn":13483,"Ġcharacteristics":13484,"Ġkud":13485,"Ġvatican":13486,"Ġdiz":13487,"kle":13488,"Ġganesh":13489,"Ġyok":13490,"Ġgiveaway":13491,"Ġbitter":13492,"rc":13493,"iton":13494,"Ġprovides":13495,"inations":13496,"urious":13497,"Ġinclude":13498,"Ġharper":13499,"Ġautism":13500,"Ġengraved":13501,"Ġhuawei":13502,"Ġmotel":13503,"Ġmtb":13504,"Ġinventory":13505,"ensa":13506,"Ġsavannah":13507,"Ġyad":13508,"oxy":13509,"epik":13510,"oscience":13511,"Ġkaj":13512,"Ġcondomin":13513,"Ġphilippe":13514,"Ġhazel":13515,"Ġgospel":13516,"avian":13517,"Ġdand":13518,"Ġhl":13519,"Ġfatal":13520,"Ġ1962":13521,"abwe":13522,"ussion":13523,"Ġroland":13524,"Ġwigs":13525,"Ġnuw":13526,"yar":13527,"Ġhain":13528,"Ġvenus":13529,"199":13530,"Ġflores":13531,"Ġslid":13532,"Ġdiameter":13533,"Ġbungalow":13534,"prints":13535,"Ġchrom":13536,"Ġwarfare":13537,"Ġthriller":13538,"Ġbeanie":13539,"mint":13540,"onduct":13541,"Ġcambodia":13542,"Ġpreserv":13543,"Ġscroll":13544,"emo":13545,"Ġanswered":13546,"Ġbiker":13547,"Ġadoption":13548,"Ġsituation":13549,"sted":13550,"Ġoverflow":13551,"Ġdvids":13552,"Ġbirch":13553,"monton":13554,"Ġkhong":13555,"Ġbites":13556,"Ġrode":13557,"Ġethan":13558,"Ġbeverage":13559,"Ġgis":13560,"Ġbazaar":13561,"Ġshet":13562,"irm":13563,"Ġblaz":13564,"Ġduk":13565,"Ġhomeless":13566,"Ġagar":13567,"Ġherz":13568,"Ġauburn":13569,"Ġlaguna":13570,"quiry":13571,"upe":13572,"Ġkaly":13573,"Ġalgor":13574,"Ġsubway":13575,"Ġburgundy":13576,"Ġcaes":13577,"Ġquinn":13578,"Ġhomeschool":13579,"Ġnb":13580,"Ġbees":13581,"jal":13582,"Ġboris":13583,"Ġcoated":13584,"Ġpooja":13585,"Ġcommemor":13586,"Ġjeffrey":13587,"Ġtested":13588,"rish":13589,"unciation":13590,"Ġeclipse":13591,"Ġmanaging":13592,"western":13593,"Ġerin":13594,"Ġstarbucks":13595,"atham":13596,"Ġcous":13597,"Ġdebuts":13598,"Ġvalid":13599,"Ġzah":13600,"Ġliterary":13601,"cus":13602,"Ġmessenger":13603,"Ġsketches":13604,"Ġoasis":13605,"encias":13606,"ulas":13607,"Ġcabinets":13608,"Ġladder":13609,"Ġhoi":13610,"Ġbirthdays":13611,"Ġaure":13612,"Ġhoff":13613,"Ġ260":13614,"Ġabraham":13615,"Ġgenshin":13616,"Ġmartinez":13617,"Ġcooker":13618,"wn":13619,"Ġbryant":13620,"Ġlosing":13621,"Ġmaurit":13622,"Ġlifetime":13623,"Ġpacking":13624,"Ġmandala":13625,"Ġfiji":13626,"liner":13627,"cules":13628,"Ġsupern":13629,"Ġbuk":13630,"Ġaddition":13631,"Ġshp":13632,"Ġbermuda":13633,"Ġweich":13634,"Ġfraud":13635,"Ġtrout":13636,"Ġjumping":13637,"Ġbrace":13638,"ocole":13639,"wald":13640,"cribe":13641,"Ġspook":13642,"Ġschol":13643,"Ġmonk":13644,"Ġchees":13645,"Ġtreatments":13646,"Ġessence":13647,"Ġcontrols":13648,"Ġevan":13649,"Ġhulk":13650,"Ġroch":13651,"Ġyesterday":13652,"Ġcamper":13653,"Ġrg":13654,"Ġfitting":13655,"Ġpromise":13656,"Ġain":13657,"bian":13658,"Ġilustr":13659,"drive":13660,"Ġmaui":13661,"Ġdoo":13662,"Ġlent":13663,"Ġproj":13664,"Ġoyster":13665,"Ġkell":13666,"Ġhardy":13667,"Ġlibert":13668,"Ġmothers":13669,"Ġbrowse":13670,"asu":13671,"Ġcompressor":13672,"Ġrehabil":13673,"Ġdwell":13674,"Ġhunger":13675,"Ġnand":13676,"dn":13677,"Ġhumans":13678,"Ġpleasant":13679,"Ġbip":13680,"Ġ212":13681,"Ġmapcarta":13682,"Ġincor":13683,"Ġfaz":13684,"elyn":13685,"allo":13686,"Ġwellington":13687,"Ġbudapest":13688,"Ġbk":13689,"Ġpeels":13690,"Ġreduction":13691,"Ġmarian":13692,"Ġcrypto":13693,"Ġoman":13694,"Ġartif":13695,"Ġcowboys":13696,"Ġexcited":13697,"Ġfallen":13698,"Ġheadphones":13699,"Ġchannels":13700,"Ġkany":13701,"Ġstuck":13702,"Ġnouveau":13703,"wari":13704,"Ġcreepy":13705,"Ġmonaco":13706,"Ġapost":13707,"Ġconcerts":13708,"iola":13709,"lit":13710,"Ġxr":13711,"Ġwarrant":13712,"Ġhomepage":13713,"Ġriot":13714,"Ġwrangler":13715,"maid":13716,"Ġcray":13717,"Ġquit":13718,"ply":13719,"berger":13720,"Ġremover":13721,"Ġlawyers":13722,"empl":13723,"Ġtitans":13724,"osen":13725,"Ġmobility":13726,"mr":13727,"Ġazerb":13728,"Ġexploration":13729,"Ġbengaluru":13730,"Ġzipper":13731,"Ġcarne":13732,"Ġjenner":13733,"anya":13734,"Ġapt":13735,"Ġframework":13736,"Ġpicnic":13737,"Ġgalerie":13738,"aty":13739,"ellers":13740,"Ġgomez":13741,"Ġayurved":13742,"Ġlies":13743,"Ġhik":13744,"Ġduch":13745,"Ġarquitect":13746,"Ġdeveloping":13747,"Ġkov":13748,"ections":13749,"Ġzig":13750,"Ġseeing":13751,"Ġsolve":13752,"Ġbarg":13753,"Ġlof":13754,"Ġstockholm":13755,"Ġswimsuit":13756,"Ġfarewell":13757,"Ġevac":13758,"Ġchis":13759,"Ġdiscography":13760,"Ġbruss":13761,"650":13762,"show":13763,"svg":13764,"Ġoffshore":13765,"Ġstencil":13766,"Ġpern":13767,"Ġcandles":13768,"Ġheadband":13769,"vic":13770,"Ġomn":13771,"Ġeverypixel":13772,"Ġstove":13773,"yss":13774,"Ġea":13775,"Ġhdmi":13776,"Ġnitter":13777,"unde":13778,"Ġassets":13779,"Ġnautical":13780,"Ġnuwber":13781,"inia":13782,"Ġtibetan":13783,"agua":13784,"Ġedmonton":13785,"Ġgom":13786,"Ġonc":13787,"Ġmasala":13788,"say":13789,"Ġchrysler":13790,"Ġmoms":13791,"Ġhilarious":13792,"Ġaero":13793,"Ġhew":13794,"ocoleccion":13795,"Ġoy":13796,"Ġpostal":13797,"iky":13798,"Ġchurches":13799,"ijn":13800,"Ġcassette":13801,"Ġtodocoleccion":13802,"Ġraymond":13803,"Ġalexandra":13804,"yaa":13805,"Ġsot":13806,"Ġgag":13807,"Ġjesse":13808,"abo":13809,"Ġcardinal":13810,"isters":13811,"xit":13812,"Ġkec":13813,"Ġdeaths":13814,"Ġamen":13815,"table":13816,"Ġasset":13817,"Ġscreenshots":13818,"Ġfitt":13819,"320":13820,"ever":13821,"Ġdesi":13822,"Ġattitude":13823,"Ġverb":13824,"Ġdumb":13825,"Ġfranz":13826,"Ġavent":13827,"Ġald":13828,"Ġpras":13829,"Ġjill":13830,"Ġstool":13831,"Ġliner":13832,"building":13833,"vale":13834,"Ġcoy":13835,"elines":13836,"Ġtodo":13837,"Ġacet":13838,"Ġoracle":13839,"Ġnorweg":13840,"Ġswords":13841,"ieres":13842,"Ġbetty":13843,"Ġweak":13844,"Ġbacks":13845,"Ġdownloads":13846,"Ġartworks":13847,"Ġawa":13848,"Ġcud":13849,"Ġcbr":13850,"Ġdoi":13851,"Ġbrowns":13852,"Ġpemb":13853,"su":13854,"Ġcannon":13855,"archy":13856,"Ġbrus":13857,"Ġoste":13858,"Ġsothe":13859,"Ġceramics":13860,"Ġconnected":13861,"Ġtornado":13862,"thi":13863,"Ġolder":13864,"Ġgibson":13865,"Ġwast":13866,"Ġvlog":13867,"Ġcommentary":13868,"Ġdalam":13869,"Ġbailey":13870,"Ġdit":13871,"ographics":13872,"Ġchecklist":13873,"Ġhairstyle":13874,"Ġpse":13875,"Ġcompleted":13876,"Ġsingles":13877,"Ġclone":13878,"Ġtara":13879,"Ġramadan":13880,"Ġux":13881,"Ġuni":13882,"Ġtud":13883,"Ġcreativity":13884,"unes":13885,"Ġdentist":13886,"Ġqui":13887,"Ġroyale":13888,"Ġemployment":13889,"Ġchandelier":13890,"Ġjl":13891,"oyo":13892,"glass":13893,"Ġsegment":13894,"Ġexamin":13895,"Ġliber":13896,"Ġpngkey":13897,"Ġcapp":13898,"Ġlandscapes":13899,"Ġreceptor":13900,"Ġcontrolled":13901,"Ġlance":13902,"arks":13903,"Ġsurge":13904,"Ġlyric":13905,"Ġspelling":13906,"Ġbois":13907,"Ġburns":13908,"Ġwound":13909,"Ġsupporting":13910,"Ġscientist":13911,"Ġanto":13912,"Ġmagazin":13913,"130":13914,"Ġjohannes":13915,"Ġmanage":13916,"Ġzinc":13917,"kha":13918,"Ġio":13919,"Ġluf":13920,"Ġimmigration":13921,"Ġstranger":13922,"Ġdread":13923,"Ġkawasaki":13924,"Ġscrub":13925,"Ġdylan":13926,"eryl":13927,"Ġvog":13928,"Ġsarees":13929,"Ġnaw":13930,"Ġspike":13931,"Ġinterpret":13932,"Ġpeer":13933,"Ġmell":13934,"Ġpullover":13935,"Ġdiseno":13936,"Ġeugene":13937,"rose":13938,"Ġsark":13939,"Ġteal":13940,"Ġrunway":13941,"atal":13942,"Ġdetect":13943,"Ġchristie":13944,"Ġlobby":13945,"Ġlifting":13946,"chin":13947,"Ġ011":13948,"Ġnod":13949,"Ġprism":13950,"bys":13951,"Ġostr":13952,"idd":13953,"Ġsandal":13954,"uw":13955,"Ġheadquar":13956,"Ġmice":13957,"Ġforge":13958,"Ġkett":13959,"anson":13960,"zk":13961,"Ġinstacart":13962,"inating":13963,"fold":13964,"Ġaffili":13965,"Ġsling":13966,"lement":13967,"109":13968,"Ġnexus":13969,"Ġsack":13970,"Ġreacts":13971,"Ġrobots":13972,"104":13973,"Ġstocks":13974,"Ġcox":13975,"Ġorn":13976,"mot":13977,"Ġdisplate":13978,"Ġvive":13979,"organ":13980,"Ġoldest":13981,"Ġcables":13982,"Ġdispatch":13983,"Ġscandin":13984,"Ġmicrobi":13985,"Ġconfident":13986,"Ġtad":13987,"vol":13988,"wealth":13989,"Ġlizard":13990,"Ġdisk":13991,"Ġdecade":13992,"Ġfilters":13993,"Ġdentistry":13994,"Ġoutf":13995,"note":13996,"Ġmigration":13997,"Ġomaha":13998,"Ġgadgets":13999,"eras":14000,"Ġclipartkey":14001,"Ġdap":14002,"ciones":14003,"Ġnim":14004,"Ġchh":14005,"Ġphysiology":14006,"Ġrechargeable":14007,"Ġosh":14008,"Ġhundreds":14009,"Ġantar":14010,"Ġbroc":14011,"Ġholders":14012,"Ġtherapeut":14013,"Ġattraction":14014,"Ġloses":14015,"Ġboulder":14016,"rol":14017,"aul":14018,"Ġspectacular":14019,"Ġsaber":14020,"Ġlakh":14021,"Ġguidel":14022,"Ġgq":14023,"Ġalgorith":14024,"Ġkha":14025,"Ġkrak":14026,"Ġhooks":14027,"Ġprol":14028,"Ġoro":14029,"Ġminh":14030,"Ġsaved":14031,"Ġrebuild":14032,"Ġhelped":14033,"Ġcomfortable":14034,"right":14035,"indra":14036,"Ġprevi":14037,"Ġencaps":14038,"Ġsantos":14039,"Ġnieu":14040,"Ġzimbabwe":14041,"Ġtranscript":14042,"Ġsparks":14043,"ghada":14044,"Ġknox":14045,"Ġgiovanni":14046,"loo":14047,"Ġazerbaij":14048,"Ġdedicated":14049,"Ġperez":14050,"Ġmakeover":14051,"Ġsotheby":14052,"Ġacquis":14053,"Ġahmad":14054,"afer":14055,"his":14056,"Ġable":14057,"Ġkant":14058,"Ġaddresses":14059,"Ġvox":14060,"Ġhooded":14061,"Ġdoug":14062,"Ġfighters":14063,"Ġfranchise":14064,"Ġnp":14065,"Ġhurghada":14066,"Ġlionel":14067,"hara":14068,"adora":14069,"Ġcelest":14070,"Ġmortal":14071,"bob":14072,"Ġcaul":14073,"Ġstruggle":14074,"Ġbugs":14075,"assis":14076,"Ġbaths":14077,"Ġcalle":14078,"yal":14079,"Ġmysterious":14080,"Ġoktober":14081,"Ġ1959":14082,"Ġguidelines":14083,"Ġverse":14084,"Ġpxfuel":14085,"Ġedt":14086,"Ġnostalgia":14087,"Ġcip":14088,"Ġcaj":14089,"Ġgrilled":14090,"Ġoster":14091,"Ġpatriots":14092,"iverse":14093,"Ġmilit":14094,"Ġasos":14095,"heter":14096,"Ġlr":14097,"Ġmultipl":14098,"Ġefficient":14099,"Ġonion":14100,"ifolia":14101,"film":14102,"Ġcurved":14103,"Ġbaru":14104,"aders":14105,"Ġvhs":14106,"Ġvanguard":14107,"Ġuntitled":14108,"Ġcopenhagen":14109,"Ġrender":14110,"Ġinstal":14111,"Ġ420":14112,"Ġeffort":14113,"aden":14114,"anan":14115,"Ġespresso":14116,"week":14117,"Ġkraft":14118,"aille":14119,"220":14120,"Ġkupit":14121,"Ġraid":14122,"pill":14123,"Ġsanto":14124,"Ġrez":14125,"atel":14126,"Ġanonym":14127,"Ġrotten":14128,"Ġmere":14129,"Ġpizzer":14130,"Ġtho":14131,"stones":14132,"Ġ175":14133,"Ġliberal":14134,"idia":14135,"Ġdestro":14136,"ayo":14137,"Ġperennial":14138,"entry":14139,"Ġscream":14140,"Ġcurve":14141,"Ġclem":14142,"empo":14143,"Ġbills":14144,"iek":14145,"Ġreconstr":14146,"Ġscope":14147,"iken":14148,"Ġradical":14149,"Ġawarded":14150,"103":14151,"Ġmala":14152,"Ġlle":14153,"Ġcheapest":14154,"Ġvillain":14155,"Ġminds":14156,"Ġhomeworklib":14157,"Ġinclusive":14158,"Ġsally":14159,"Ġregulation":14160,"Ġatomic":14161,"Ġingles":14162,"Ġhue":14163,"reich":14164,"Ġwarcraft":14165,"144":14166,"Ġinstead":14167,"vine":14168,"Ġmatches":14169,"Ġjiu":14170,"Ġbenef":14171,"Ġdungeons":14172,"Ġediting":14173,"Ġcomprehensive":14174,"Ġsalam":14175,"Ġpere":14176,"Ġjain":14177,"Ġsheng":14178,"Ġoriginals":14179,"Ġreaders":14180,"Ġ211":14181,"Ġyosh":14182,"Ġstarring":14183,"api":14184,"Ġbalm":14185,"Ġdac":14186,"Ġquat":14187,"Ġwyoming":14188,"Ġcau":14189,"Ġbump":14190,"Ġhandbook":14191,"Ġzurich":14192,"Ġhick":14193,"agent":14194,"Ġrefresh":14195,"oge":14196,"alez":14197,"Ġtanzania":14198,"Ġherbs":14199,"iveness":14200,"Ġwonders":14201,"Ġsous":14202,"Ġhasbro":14203,"Ġbuddy":14204,"lain":14205,"Ġcruises":14206,"Ġschwe":14207,"Ġquarantine":14208,"Ġsharon":14209,"Ġcurriculum":14210,"Ġfior":14211,"Ġobst":14212,"eaux":14213,"Ġruler":14214,"Ġgoose":14215,"Ġtester":14216,"Ġecommerce":14217,"bid":14218,"quez":14219,"Ġlyst":14220,"Ġcisco":14221,"Ġpetite":14222,"Ġbigger":14223,"Ġ1961":14224,"Ġimagine":14225,"Ġmissile":14226,"Ġlonely":14227,"Ġspiel":14228,"ifiers":14229,"Ġkla":14230,"Ġcurios":14231,"oopy":14232,"Ġschloss":14233,"hetics":14234,"contact":14235,"Ġrolex":14236,"Ġhandling":14237,"Ġadding":14238,"Ġslash":14239,"Ġblazer":14240,"Ġmadagas":14241,"Ġtiffany":14242,"Ġpigeon":14243,"ivot":14244,"Ġoe":14245,"Ġoptic":14246,"Ġlbs":14247,"Ġhenderson":14248,"Ġimam":14249,"enstein":14250,"eas":14251,"Ġterrain":14252,"kah":14253,"Ġbaw":14254,"Ġpatricia":14255,"Ġrevenge":14256,"orie":14257,"ocese":14258,"Ġdispenser":14259,"hydr":14260,"Ġtakeout":14261,"Ġapolog":14262,"Ġnatalie":14263,"Ġbask":14264,"Ġblur":14265,"Ġ2500":14266,"Ġbait":14267,"Ġmarriott":14268,"Ġglacier":14269,"Ġottoman":14270,"Ġgalvan":14271,"Ġinternacional":14272,"Ġ4000":14273,"Ġanand":14274,"Ġbookstore":14275,"cross":14276,"today":14277,"Ġwl":14278,"Ġtup":14279,"Ġconfidence":14280,"Ġbok":14281,"Ġastronaut":14282,"Ġclo":14283,"sd":14284,"Ġkne":14285,"frame":14286,"Ġvenom":14287,"Ġjackie":14288,"Ġresol":14289,"Ġappet":14290,"akia":14291,"Ġapocaly":14292,"Ġrok":14293,"Ġblender":14294,"Ġwallpaperaccess":14295,"inform":14296,"Ġ119":14297,"Ġwikid":14298,"oce":14299,"Ġtotally":14300,"Ġdekor":14301,"yms":14302,"Ġexact":14303,"Ġpikbest":14304,"comb":14305,"Ġdemocratic":14306,"Ġ1955":14307,"Ġhungry":14308,"Ġeditions":14309,"grep":14310,"Ġholmes":14311,"Ġfamilia":14312,"Ġmotorsport":14313,"Ġreporting":14314,"Ġspecialists":14315,"Ġappart":14316,"Ġbedford":14317,"Ġconnor":14318,"Ġmaqu":14319,"Ġlazy":14320,"Ġsubt":14321,"Ġsunflower":14322,"Ġchong":14323,"Ġreich":14324,"Ġpresented":14325,"Ġrecommendation":14326,"Ġtash":14327,"Ġrox":14328,"asian":14329,"aus":14330,"abled":14331,"Ġrectangle":14332,"Ġsensitive":14333,"oger":14334,"onso":14335,"Ġbrady":14336,"Ġedmund":14337,"Ġdetector":14338,"Ġbodies":14339,"Ġmodesens":14340,"Ġinstitut":14341,"Ġbrexit":14342,"Ġkung":14343,"Ġsocialgrep":14344,"Ġchiefs":14345,"Ġclinton":14346,"Ġtelescope":14347,"rahim":14348,"Ġfertil":14349,"Ġcoaches":14350,"Ġbritannica":14351,"Ġclosest":14352,"Ġactresses":14353,"Ġhaf":14354,"Ġdecoracion":14355,"Ġrequired":14356,"estro":14357,"Ġcolourbox":14358,"iona":14359,"Ġarmenian":14360,"Ġtongue":14361,"run":14362,"Ġdesde":14363,"Ġndeg":14364,"Ġvec":14365,"heas":14366,"Ġnen":14367,"Ġij":14368,"ksh":14369,"Ġctv":14370,"rab":14371,"bak":14372,"Ġpsa":14373,"aggio":14374,"Ġbarrier":14375,"Ġbistro":14376,"Ġglenn":14377,"avier":14378,"Ġpizzeria":14379,"osts":14380,"owl":14381,"Ġinjuries":14382,"Ġvander":14383,"Ġdangan":14384,"Ġnip":14385,"Ġfootwear":14386,"Ġalternatives":14387,"Ġpalmer":14388,"Ġshotgun":14389,"Ġfue":14390,"Ġrave":14391,"Ġcoalition":14392,"Ġnih":14393,"Ġmilton":14394,"Ġberkel":14395,"bah":14396,"Ġsegur":14397,"Ġhartford":14398,"Ġstable":14399,"Ġtahun":14400,"Ġindy":14401,"Ġgroupon":14402,"Ġcreature":14403,"Ġchairish":14404,"Ġsides":14405,"jak":14406,"Ġefficiency":14407,"ujo":14408,"Ġyogurt":14409,"Ġhydrogen":14410,"heimer":14411,"Ġanast":14412,"Ġcataly":14413,"Ġbeaded":14414,"coat":14415,"yla":14416,"Ġparallel":14417,"Ġbasement":14418,"menu":14419,"Ġsparkle":14420,"Ġcartridge":14421,"Ġjong":14422,"Ġbuch":14423,"Ġkarachi":14424,"Ġterl":14425,"ulet":14426,"Ġconcerns":14427,"Ġgilbert":14428,"reats":14429,"Ġfacil":14430,"Ġpromote":14431,"Ġautos":14432,"Ġburton":14433,"Ġclement":14434,"Ġbowls":14435,"Ġtruong":14436,
[...]
